{
  "version": "1.0",
  "truncation": {
    "direction": "Right",
    "max_length": 512,
    "strategy": "LongestFirst",
    "stride": 0
  },
  "padding": null,
  "added_tokens": [
    {
      "id": 0,
      "content": "[PAD]",
      "single_word": false,
      "lstrip": false,
      "rstrip": false,
      "normalized": false,
      "special": true
    },
    {
      "id": 1,
      "content": "[UNK]",
      "single_word": false,
      "lstrip": false,
      "rstrip": false,
      "normalized": false,
      "special": true
    },
    {
      "id": 2,
      "content": "[CLS]",
      "single_word": false,
      "lstrip": false,
      "rstrip": false,
      "normalized": false,
      "special": true
    },
    {
      "id": 3,
      "content": "[SEP]",
      "single_word": false,
      "lstrip": false,
      "rstrip": false,
      "normalized": false,
      "special": true
    },
    {
      "id": 4,
      "content": "[MASK]",
      "single_word": false,
      "lstrip": false,
      "rstrip": false,
      "normalized": false,
      "special": true
    }
  ],
  "normalizer": {
    "type": "BertNormalizer",
    "clean_text": true,
    "handle_chinese_chars": true,
    "strip_accents": null,
    "lowercase": true
  },
  "pre_tokenizer": {
    "type": "BertPreTokenizer"
  },
  "post_processor": {
    "type": "TemplateProcessing",
    "single": [
      {
        "SpecialToken": {
          "id": "[CLS]",
          "type_id": 0
        }
      },
      {
        "Sequence": {
          "id": "A",
          "type_id": 0
        }
      },
      {
        "SpecialToken": {
          "id": "[SEP]",
          "type_id": 0
        }
      }
    ],
    "pair": [
      {
        "SpecialToken": {
          "id": "[CLS]",
          "type_id": 0
        }
      },
      {
        "Sequence": {
          "id": "A",
          "type_id": 0
        }
      },
      {
        "SpecialToken": {
          "id": "[SEP]",
          "type_id": 0
        }
      },
      {
        "Sequence": {
          "id": "B",
          "type_id": 1
        }
      },
      {
        "SpecialToken": {
          "id": "[SEP]",
          "type_id": 1
        }
      }
    ],
    "special_tokens": {
      "[CLS]": {
        "id": "[CLS]",
        "ids": [
          2
        ],
        "tokens": [
          "[CLS]"
        ]
      },
      "[SEP]": {
        "id": "[SEP]",
        "ids": [
          3
        ],
        "tokens": [
          "[SEP]"
        ]
      }
    }
  },
  "decoder": {
    "type": "WordPiece",
    "prefix": "##",
    "cleanup": true
  },
  "model": {
    "type": "WordPiece",
    "unk_token": "[UNK]",
    "continuing_subword_prefix": "##",
    "max_input_chars_per_word": 100,
    "vocab": {
      "[PAD]": 0,
      "[UNK]": 1,
      "[CLS]": 2,
      "[SEP]": 3,
      "[MASK]": 4,
      "<S>": 5,
      "<T>": 6,
      "!": 7,
      "\"": 8,
      "#": 9,
      "&": 10,
      "'": 11,
      "(": 12,
      ")": 13,
      "*": 14,
      ",": 15,
      "-": 16,
      ".": 17,
      "/": 18,
      "0": 19,
      "1": 20,
      "2": 21,
      "3": 22,
      "4": 23,
      "5": 24,
      "6": 25,
      "7": 26,
      "8": 27,
      "9": 28,
      ":": 29,
      ";": 30,
      "<": 31,
      ">": 32,
      "?": 33,
      "[": 34,
      "\\": 35,
      "]": 36,
      "^": 37,
      "_": 38,
      "a": 39,
      "b": 40,
      "c": 41,
      "d": 42,
      "e": 43,
      "f": 44,
      "g": 45,
      "h": 46,
      "i": 47,
      "j": 48,
      "k": 49,
      "l": 50,
      "m": 51,
      "n": 52,
      "o": 53,
      "p": 54,
      "q": 55,
      "r": 56,
      "s": 57,
      "t": 58,
      "u": 59,
      "v": 60,
      "w": 61,
      "x": 62,
      "y": 63,
      "z": 64,
      "{": 65,
      "|": 66,
      "}": 67,
      "~": 68,
      "«": 69,
      "°": 70,
      "·": 71,
      "»": 72,
      "æ": 73,
      "ð": 74,
      "÷": 75,
      "þ": 76,
      "đ": 77,
      "ħ": 78,
      "ł": 79,
      "ſ": 80,
      "ƀ": 81,
      "ʒ": 82,
      "ʾ": 83,
      "α": 84,
      "γ": 85,
      "ε": 86,
      "θ": 87,
      "ι": 88,
      "λ": 89,
      "ν": 90,
      "ο": 91,
      "π": 92,
      "τ": 93,
      "φ": 94,
      "χ": 95,
      "†": 96,
      "##l": 97,
      "##u": 98,
      "##c": 99,
      "##i": 100,
      "##n": 101,
      "##a": 102,
      "##r": 103,
      "##e": 104,
      "##b": 105,
      "##p": 106,
      "##g": 107,
      "##d": 108,
      "##s": 109,
      "##q": 110,
      "##t": 111,
      "##h": 112,
      "##k": 113,
      "##o": 114,
      "##z": 115,
      "##m": 116,
      "##v": 117,
      "##ſ": 118,
      "##f": 119,
      "##x": 120,
      "##0": 121,
      "##7": 122,
      "##ð": 123,
      "##ƀ": 124,
      "##w": 125,
      "##æ": 126,
      "##y": 127,
      "##đ": 128,
      "##1": 129,
      "##3": 130,
      "##9": 131,
      "##5": 132,
      "##2": 133,
      "##4": 134,
      "##ο": 135,
      "##6": 136,
      "##ħ": 137,
      "##8": 138,
      "##ʾ": 139,
      "##j": 140,
      "##ł": 141,
      "##ʒ": 142,
      "##ι": 143,
      "##λ": 144,
      "##γ": 145,
      "##α": 146,
      "##ε": 147,
      "##χ": 148,
      "##ν": 149,
      "##er": 150,
      "##en": 151,
      "##an": 152,
      "##in": 153,
      "##on": 154,
      "##it": 155,
      "th": 156,
      "##es": 157,
      "##is": 158,
      "in": 159,
      "##ar": 160,
      "uu": 161,
      "##ti": 162,
      "##um": 163,
      "##un": 164,
      "##em": 165,
      "##or": 166,
      "##us": 167,
      "##at": 168,
      "##et": 169,
      "##st": 170,
      "si": 171,
      "##az": 172,
      "##de": 173,
      "##li": 174,
      "qu": 175,
      "##am": 176,
      "di": 177,
      "un": 178,
      "nan": 179,
      "##ur": 180,
      "##ot": 181,
      "##el": 182,
      "et": 183,
      "##ch": 184,
      "an": 185,
      "er": 186,
      "##di": 187,
      "##al": 188,
      "##ir": 189,
      "##ht": 190,
      "##il": 191,
      "##ent": 192,
      "so": 193,
      "##uu": 194,
      "sin": 195,
      "##ro": 196,
      "al": 197,
      "##ero": 198,
      "##id": 199,
      "ist": 200,
      "##iu": 201,
      "ne": 202,
      "unde": 203,
      "##as": 204,
      "##om": 205,
      "ch": 206,
      "##ag": 207,
      "##im": 208,
      "##os": 209,
      "##ab": 210,
      "daz": 211,
      "##ib": 212,
      "##ih": 213,
      "##ie": 214,
      "##oh": 215,
      "##ul": 216,
      "##ol": 217,
      "##ant": 218,
      "ih": 219,
      "##ec": 220,
      "##qu": 221,
      "sie": 222,
      "##da": 223,
      "##ut": 224,
      "de": 225,
      "##ati": 226,
      "##unt": 227,
      "##ist": 228,
      "##emo": 229,
      "su": 230,
      "man": 231,
      "##ah": 232,
      "en": 233,
      "##re": 234,
      "est": 235,
      "##od": 236,
      "##ne": 237,
      "tu": 238,
      "fon": 239,
      "ge": 240,
      "me": 241,
      "ni": 242,
      "##ia": 243,
      "im": 244,
      "min": 245,
      "thaz": 246,
      "##ig": 247,
      "he": 248,
      "##ic": 249,
      "mit": 250,
      "non": 251,
      "##eg": 252,
      "sc": 253,
      "con": 254,
      "##ed": 255,
      "##ad": 256,
      "ir": 257,
      "##iz": 258,
      "##est": 259,
      "ze": 260,
      "##ta": 261,
      "##te": 262,
      "inti": 263,
      "diu": 264,
      "die": 265,
      "##ere": 266,
      "##ra": 267,
      "du": 268,
      "hab": 269,
      "uuar": 270,
      "##le": 271,
      "##uh": 272,
      "ab": 273,
      "##enti": 274,
      "iro": 275,
      "##io": 276,
      "##ru": 277,
      "iz": 278,
      "sel": 279,
      "##ili": 280,
      "##ac": 281,
      "st": 282,
      "ad": 283,
      "##ing": 284,
      "##be": 285,
      "##se": 286,
      "uuer": 287,
      "##ug": 288,
      "##omin": 289,
      "got": 290,
      "for": 291,
      "fone": 292,
      "sp": 293,
      "der": 294,
      "##der": 295,
      "##ri": 296,
      "sint": 297,
      "re": 298,
      "her": 299,
      "##uo": 300,
      "uuan": 301,
      "tho": 302,
      "iu": 303,
      "##do": 304,
      "ein": 305,
      "gi": 306,
      "dero": 307,
      "##oc": 308,
      "imo": 309,
      "thar": 310,
      "pro": 311,
      "ex": 312,
      "##orum": 313,
      "##so": 314,
      "uns": 315,
      "all": 316,
      "##que": 317,
      "se": 318,
      "##lich": 319,
      "##ft": 320,
      "es": 321,
      "nu": 322,
      "ther": 323,
      "aut": 324,
      "thes": 325,
      "te": 326,
      "ouh": 327,
      "mih": 328,
      "uuir": 329,
      "##per": 330,
      "##ius": 331,
      "zi": 332,
      "selb": 333,
      "dic": 334,
      "##he": 335,
      "##ang": 336,
      "##anne": 337,
      "taz": 338,
      "ar": 339,
      "des": 340,
      "dar": 341,
      "##ou": 342,
      "##ens": 343,
      "uuanda": 344,
      "sih": 345,
      "##are": 346,
      "##au": 347,
      "be": 348,
      "##ost": 349,
      "fer": 350,
      "om": 351,
      "ut": 352,
      "ub": 353,
      "per": 354,
      "pr": 355,
      "il": 356,
      "qui": 357,
      "is": 358,
      "din": 359,
      "domin": 360,
      "##itat": 361,
      "##uot": 362,
      "##ation": 363,
      "##ich": 364,
      "##tig": 365,
      "##und": 366,
      "##ort": 367,
      "ter": 368,
      "que": 369,
      "that": 370,
      "##ibus": 371,
      "##ci": 372,
      "thie": 373,
      "##ob": 374,
      "##ung": 375,
      "omn": 376,
      "##aht": 377,
      "thiu": 378,
      "mir": 379,
      "##ff": 380,
      "##zz": 381,
      "##ter": 382,
      "##rist": 383,
      "autem": 384,
      "uuas": 385,
      "##ge": 386,
      "##lih": 387,
      "sunt": 388,
      "##ari": 389,
      "then": 390,
      "##iss": 391,
      "noh": 392,
      "##ud": 393,
      "ke": 394,
      "demo": 395,
      "joh": 396,
      "sam": 397,
      "mag": 398,
      "also": 399,
      "cum": 400,
      "le": 401,
      "fi": 402,
      "sun": 403,
      "##den": 404,
      "##atur": 405,
      "##htin": 406,
      "vu": 407,
      "endi": 408,
      "ges": 409,
      "quod": 410,
      "##ell": 411,
      "fr": 412,
      "##bus": 413,
      "den": 414,
      "##alt": 415,
      "##eta": 416,
      "quad": 417,
      "##dic": 418,
      "tr": 419,
      "io": 420,
      "aber": 421,
      "ali": 422,
      "##era": 423,
      "dien": 424,
      "##ite": 425,
      "##ile": 426,
      "##to": 427,
      "##itur": 428,
      "gis": 429,
      "##ali": 430,
      "ander": 431,
      "chit": 432,
      "the": 433,
      "##iam": 434,
      "##cc": 435,
      "quid": 436,
      "dis": 437,
      "##go": 438,
      "##ont": 439,
      "hi": 440,
      "##enn": 441,
      "esse": 442,
      "vn": 443,
      "##uer": 444,
      "fac": 445,
      "gen": 446,
      "##ater": 447,
      "sed": 448,
      "thu": 449,
      "uer": 450,
      "bi": 451,
      "##eh": 452,
      "##ph": 453,
      "nam": 454,
      "eius": 455,
      "##ene": 456,
      "##vs": 457,
      "##ieht": 458,
      "cor": 459,
      "##ine": 460,
      "##and": 461,
      "##end": 462,
      "ill": 463,
      "##ion": 464,
      "##ina": 465,
      "int": 466,
      "##og": 467,
      "quam": 468,
      "##na": 469,
      "##ate": 470,
      "ob": 471,
      "fur": 472,
      "##no": 473,
      "sum": 474,
      "##ke": 475,
      "##atio": 476,
      "##lic": 477,
      "vnde": 478,
      "ioh": 479,
      "um": 480,
      "##anti": 481,
      "him": 482,
      "liu": 483,
      "siu": 484,
      "dir": 485,
      "reht": 486,
      "sol": 487,
      "##ap": 488,
      "sub": 489,
      "far": 490,
      "ip": 491,
      "ana": 492,
      "cont": 493,
      "##ider": 494,
      "##tum": 495,
      "am": 496,
      "themo": 497,
      "gib": 498,
      "quia": 499,
      "##ess": 500,
      "tiu": 501,
      "##iht": 502,
      "nec": 503,
      "nieht": 504,
      "or": 505,
      "##chen": 506,
      "fol": 507,
      "zu": 508,
      "##ota": 509,
      "##bi": 510,
      "##anc": 511,
      "##dit": 512,
      "sim": 513,
      "alle": 514,
      "par": 515,
      "lib": 516,
      "##ruhtin": 517,
      "sal": 518,
      "alde": 519,
      "sag": 520,
      "##ono": 521,
      "##uc": 522,
      "##ach": 523,
      "##isc": 524,
      "##tus": 525,
      "##erunt": 526,
      "uuil": 527,
      "enim": 528,
      "##entes": 529,
      "heil": 530,
      "sec": 531,
      "##oub": 532,
      "##cip": 533,
      "ger": 534,
      "nah": 535,
      "##omo": 536,
      "##gen": 537,
      "sus": 538,
      "##int": 539,
      "##uit": 540,
      "##isti": 541,
      "than": 542,
      "christ": 543,
      "##unc": 544,
      "habet": 545,
      "##ore": 546,
      "##emp": 547,
      "pe": 548,
      "gu": 549,
      "##ita": 550,
      "##vm": 551,
      "##ann": 552,
      "##ii": 553,
      "god": 554,
      "pos": 555,
      "ant": 556,
      "gr": 557,
      "uuaz": 558,
      "##rah": 559,
      "bon": 560,
      "fil": 561,
      "fili": 562,
      "##anta": 563,
      "war": 564,
      "uz": 565,
      "##tion": 566,
      "##fic": 567,
      "dh": 568,
      "mer": 569,
      "ube": 570,
      "##pp": 571,
      "##izz": 572,
      "gotes": 573,
      "##iter": 574,
      "inan": 575,
      "eum": 576,
      "thin": 577,
      "hu": 578,
      "har": 579,
      "uues": 580,
      "anim": 581,
      "do": 582,
      "reg": 583,
      "super": 584,
      "cons": 585,
      "danne": 586,
      "pl": 587,
      "gih": 588,
      "uuol": 589,
      "sic": 590,
      "uue": 591,
      "##ium": 592,
      "uel": 593,
      "them": 594,
      "mis": 595,
      "##ide": 596,
      "##ert": 597,
      "chad": 598,
      "prop": 599,
      "##enne": 600,
      "mu": 601,
      "##diu": 602,
      "##iti": 603,
      "thur": 604,
      "##ana": 605,
      "##omen": 606,
      "at": 607,
      "ser": 608,
      "##ien": 609,
      "homo": 610,
      "##ern": 611,
      "sit": 612,
      "geb": 613,
      "com": 614,
      "hel": 615,
      "ius": 616,
      "not": 617,
      "pot": 618,
      "##gn": 619,
      "geh": 620,
      "homin": 621,
      "ac": 622,
      "##lo": 623,
      "##av": 624,
      "gil": 625,
      "##dun": 626,
      "##eb": 627,
      "res": 628,
      "dix": 629,
      "fore": 630,
      "sia": 631,
      "ips": 632,
      "aft": 633,
      "enti": 634,
      "ane": 635,
      "##uuar": 636,
      "mid": 637,
      "##entia": 638,
      "##af": 639,
      "uuor": 640,
      "##ata": 641,
      "thero": 642,
      "to": 643,
      "mo": 644,
      "sanc": 645,
      "sar": 646,
      "qua": 647,
      "##les": 648,
      "heiz": 649,
      "##sc": 650,
      "##itas": 651,
      "fater": 652,
      "temp": 653,
      "fir": 654,
      "fu": 655,
      "##liu": 656,
      "sine": 657,
      "dei": 658,
      "##ugen": 659,
      "ende": 660,
      "##obis": 661,
      "guot": 662,
      "##als": 663,
      "dur": 664,
      "##ith": 665,
      "pre": 666,
      "##atus": 667,
      "umbe": 668,
      "##ein": 669,
      "dia": 670,
      "##erit": 671,
      "##oniam": 672,
      "id": 673,
      "##op": 674,
      "##ze": 675,
      "##arum": 676,
      "##aro": 677,
      "##atr": 678,
      "##sal": 679,
      "##quam": 680,
      "geuu": 681,
      "get": 682,
      "##ui": 683,
      "##tim": 684,
      "uir": 685,
      "br": 686,
      "menn": 687,
      "tie": 688,
      "mi": 689,
      "##etur": 690,
      "##reht": 691,
      "druhtin": 692,
      "fl": 693,
      "##gi": 694,
      "##anda": 695,
      "thia": 696,
      "hoc": 697,
      "wir": 698,
      "giuu": 699,
      "kes": 700,
      "ei": 701,
      "gel": 702,
      "it": 703,
      "##zen": 704,
      "##arn": 705,
      "fin": 706,
      "mal": 707,
      "##ans": 708,
      "thir": 709,
      "scal": 710,
      "uuerd": 711,
      "uuort": 712,
      "##rib": 713,
      "quoniam": 714,
      "##ast": 715,
      "##ep": 716,
      "quo": 717,
      "hier": 718,
      "uero": 719,
      "unsih": 720,
      "inf": 721,
      "##itate": 722,
      "tag": 723,
      "gl": 724,
      "tru": 725,
      "##ente": 726,
      "sk": 727,
      "uuard": 728,
      "##one": 729,
      "##cul": 730,
      "##itatem": 731,
      "dih": 732,
      "mar": 733,
      "tar": 734,
      "tero": 735,
      "filu": 736,
      "##ua": 737,
      "aliqu": 738,
      "##th": 739,
      "##amen": 740,
      "iuu": 741,
      "##ald": 742,
      "tes": 743,
      "ph": 744,
      "iude": 745,
      "##tun": 746,
      "uber": 747,
      "mod": 748,
      "##che": 749,
      "poss": 750,
      "##hten": 751,
      "deus": 752,
      "dr": 753,
      "##ato": 754,
      "pet": 755,
      "##rum": 756,
      "##mo": 757,
      "##ect": 758,
      "ven": 759,
      "sinen": 760,
      "uuero": 761,
      "uuiz": 762,
      "##ten": 763,
      "el": 764,
      "ecc": 765,
      "maht": 766,
      "godes": 767,
      "##unn": 768,
      "uuis": 769,
      "thanne": 770,
      "thi": 771,
      "##atione": 772,
      "ding": 773,
      "##ton": 774,
      "##eri": 775,
      "and": 776,
      "##irm": 777,
      "##antur": 778,
      "##tio": 779,
      "##ende": 780,
      "domine": 781,
      "nem": 782,
      "##eru": 783,
      "##isk": 784,
      "##uue": 785,
      "heilant": 786,
      "iung": 787,
      "hor": 788,
      "unz": 789,
      "au": 790,
      "manag": 791,
      "##inn": 792,
      "##irit": 793,
      "gote": 794,
      "eorum": 795,
      "##ele": 796,
      "inter": 797,
      "giw": 798,
      "mor": 799,
      "mul": 800,
      "conf": 801,
      "acc": 802,
      "hie": 803,
      "##endo": 804,
      "suo": 805,
      "allen": 806,
      "##atum": 807,
      "gim": 808,
      "##tit": 809,
      "##dig": 810,
      "##rohtin": 811,
      "ihes": 812,
      "minn": 813,
      "##uning": 814,
      "sem": 815,
      "nost": 816,
      "eo": 817,
      "after": 818,
      "mann": 819,
      "spirit": 820,
      "##urg": 821,
      "lu": 822,
      "##ationem": 823,
      "mud": 824,
      "nih": 825,
      "was": 826,
      "uuirt": 827,
      "selben": 828,
      "##ið": 829,
      "lo": 830,
      "thoh": 831,
      "uuerden": 832,
      "##eng": 833,
      "quem": 834,
      "dominus": 835,
      "##ete": 836,
      "unreht": 837,
      "doh": 838,
      "euu": 839,
      "no": 840,
      "leg": 841,
      "op": 842,
      "##tis": 843,
      "##eli": 844,
      "cel": 845,
      "##atis": 846,
      "##ibi": 847,
      "sl": 848,
      "quis": 849,
      "uuerdent": 850,
      "bet": 851,
      "fona": 852,
      "##licho": 853,
      "##uli": 854,
      "nals": 855,
      "ur": 856,
      "##ull": 857,
      "imu": 858,
      "##ino": 859,
      "##ahtig": 860,
      "ubar": 861,
      "muddi": 862,
      "##uuer": 863,
      "##annan": 864,
      "uuesen": 865,
      "sicut": 866,
      "##itatis": 867,
      "ca": 868,
      "uuel": 869,
      "pec": 870,
      "##ben": 871,
      "unt": 872,
      "##undum": 873,
      "ha": 874,
      "##untur": 875,
      "cur": 876,
      "red": 877,
      "selbo": 878,
      "corp": 879,
      "##agen": 880,
      "ego": 881,
      "uf": 882,
      "gif": 883,
      "ap": 884,
      "men": 885,
      "heili": 886,
      "##bit": 887,
      "##pro": 888,
      "vuanda": 889,
      "natur": 890,
      "##det": 891,
      "uuider": 892,
      "scul": 893,
      "##ores": 894,
      "dara": 895,
      "##unga": 896,
      "ergo": 897,
      "##inem": 898,
      "cre": 899,
      "allero": 900,
      "##hein": 901,
      "##stanti": 902,
      "himil": 903,
      "zuo": 904,
      "neque": 905,
      "tua": 906,
      "aff": 907,
      "under": 908,
      "##ara": 909,
      "uuur": 910,
      "##ugi": 911,
      "hiar": 912,
      "##lu": 913,
      "sinero": 914,
      "seh": 915,
      "muot": 916,
      "neg": 917,
      "##len": 918,
      "##rit": 919,
      "uuio": 920,
      "dixit": 921,
      "gab": 922,
      "##tin": 923,
      "##eren": 924,
      "##osit": 925,
      "##ichen": 926,
      "stu": 927,
      "truhten": 928,
      "lob": 929,
      "##eret": 930,
      "##chet": 931,
      "omnes": 932,
      "aht": 933,
      "us": 934,
      "nube": 935,
      "##imus": 936,
      "loc": 937,
      "psal": 938,
      "sali": 939,
      "##if": 940,
      "cog": 941,
      "scol": 942,
      "substanti": 943,
      "tur": 944,
      "##ies": 945,
      "##ba": 946,
      "tibi": 947,
      "##pon": 948,
      "ubel": 949,
      "sy": 950,
      "gem": 951,
      "chum": 952,
      "contr": 953,
      "##du": 954,
      "##ers": 955,
      "tue": 956,
      "wol": 957,
      "ung": 958,
      "habent": 959,
      "tuot": 960,
      "as": 961,
      "vobis": 962,
      "hus": 963,
      "pecc": 964,
      "hum": 965,
      "lio": 966,
      "##uen": 967,
      "##tiu": 968,
      "##entibus": 969,
      "sament": 970,
      "ru": 971,
      "##emu": 972,
      "mea": 973,
      "##ane": 974,
      "eos": 975,
      "laz": 976,
      "quidem": 977,
      "eis": 978,
      "##ram": 979,
      "bin": 980,
      "big": 981,
      "num": 982,
      "##ip": 983,
      "miser": 984,
      "nes": 985,
      "##ca": 986,
      "eg": 987,
      "lang": 988,
      "sina": 989,
      "alliu": 990,
      "hoh": 991,
      "##elich": 992,
      "##don": 993,
      "ihesus": 994,
      "ik": 995,
      "##entum": 996,
      "ig": 997,
      "qued": 998,
      "oug": 999,
      "##kon": 1000,
      "ang": 1001,
      "cu": 1002,
      "ste": 1003,
      "##ando": 1004,
      "inc": 1005,
      "##hta": 1006,
      "rec": 1007,
      "wer": 1008,
      "##isso": 1009,
      "uuerl": 1010,
      "secundum": 1011,
      "thuruh": 1012,
      "uuanta": 1013,
      "##ora": 1014,
      "##entiam": 1015,
      "amb": 1016,
      "harto": 1017,
      "##ida": 1018,
      "hic": 1019,
      "cl": 1020,
      "uol": 1021,
      "manig": 1022,
      "pop": 1023,
      "##dio": 1024,
      "mina": 1025,
      "nihil": 1026,
      "##tiam": 1027,
      "##lig": 1028,
      "omnia": 1029,
      "patr": 1030,
      "##erum": 1031,
      "##ini": 1032,
      "##entis": 1033,
      "dag": 1034,
      "ina": 1035,
      "##oris": 1036,
      "faci": 1037,
      "mun": 1038,
      "##sam": 1039,
      "##ibile": 1040,
      "##ici": 1041,
      "discip": 1042,
      "bist": 1043,
      "und": 1044,
      "ched": 1045,
      "conc": 1046,
      "qv": 1047,
      "##ue": 1048,
      "##des": 1049,
      "mihi": 1050,
      "samo": 1051,
      "sines": 1052,
      "lich": 1053,
      "van": 1054,
      "spra": 1055,
      "##rip": 1056,
      "##heit": 1057,
      "iam": 1058,
      "##issim": 1059,
      "mort": 1060,
      "truhtin": 1061,
      "manno": 1062,
      "unser": 1063,
      "oba": 1064,
      "dec": 1065,
      "fan": 1066,
      "gin": 1067,
      "nos": 1068,
      "wor": 1069,
      "sinemo": 1070,
      "predic": 1071,
      "ie": 1072,
      "prim": 1073,
      "bl": 1074,
      "naht": 1075,
      "##ulum": 1076,
      "domini": 1077,
      "fre": 1078,
      "##num": 1079,
      "mon": 1080,
      "##ma": 1081,
      "uuaren": 1082,
      "illi": 1083,
      "gang": 1084,
      "##ris": 1085,
      "##ale": 1086,
      "##entur": 1087,
      "igitur": 1088,
      "bene": 1089,
      "stat": 1090,
      "##ha": 1091,
      "neist": 1092,
      "##ose": 1093,
      "##ieo": 1094,
      "krist": 1095,
      "uueg": 1096,
      "drohtin": 1097,
      "tanne": 1098,
      "##laz": 1099,
      "##tu": 1100,
      "##eris": 1101,
      "ita": 1102,
      "##idar": 1103,
      "arg": 1104,
      "thea": 1105,
      "his": 1106,
      "oper": 1107,
      "bonum": 1108,
      "potest": 1109,
      "ri": 1110,
      "cir": 1111,
      "etiam": 1112,
      "##ni": 1113,
      "##pa": 1114,
      "##inis": 1115,
      "##aris": 1116,
      "tot": 1117,
      "##fte": 1118,
      "necess": 1119,
      "fec": 1120,
      "sid": 1121,
      "##sum": 1122,
      "##me": 1123,
      "##endi": 1124,
      "nomin": 1125,
      "##iv": 1126,
      "##ron": 1127,
      "erat": 1128,
      "sing": 1129,
      "##iec": 1130,
      "cap": 1131,
      "dannan": 1132,
      "tuo": 1133,
      "nehein": 1134,
      "mine": 1135,
      "nomen": 1136,
      "sul": 1137,
      "teta": 1138,
      "##ust": 1139,
      "uuarun": 1140,
      "israh": 1141,
      "uuile": 1142,
      "tuon": 1143,
      "teil": 1144,
      "##ione": 1145,
      "namen": 1146,
      "comp": 1147,
      "ma": 1148,
      "##uon": 1149,
      "erist": 1150,
      "fure": 1151,
      "##oro": 1152,
      "simil": 1153,
      "ea": 1154,
      "hec": 1155,
      "thih": 1156,
      "chr": 1157,
      "sela": 1158,
      "theru": 1159,
      "anderen": 1160,
      "giloub": 1161,
      "pra": 1162,
      "##dan": 1163,
      "inn": 1164,
      "habe": 1165,
      "thio": 1166,
      "bech": 1167,
      "heizet": 1168,
      "israhel": 1169,
      "post": 1170,
      "##all": 1171,
      "alter": 1172,
      "##iden": 1173,
      "huu": 1174,
      "erit": 1175,
      "##hte": 1176,
      "##ante": 1177,
      "omnis": 1178,
      "glor": 1179,
      "untar": 1180,
      "gid": 1181,
      "sac": 1182,
      "##cho": 1183,
      "iudic": 1184,
      "barn": 1185,
      "dem": 1186,
      "##za": 1187,
      "##orn": 1188,
      "##alem": 1189,
      "mich": 1190,
      "##ren": 1191,
      "##si": 1192,
      "##inet": 1193,
      "##isi": 1194,
      "##til": 1195,
      "dinero": 1196,
      "eccles": 1197,
      "##ihh": 1198,
      "##oll": 1199,
      "gisah": 1200,
      "ini": 1201,
      "lon": 1202,
      "off": 1203,
      "##abit": 1204,
      "car": 1205,
      "ten": 1206,
      "##ce": 1207,
      "##bum": 1208,
      "##ill": 1209,
      "##oman": 1210,
      "aliquid": 1211,
      "wort": 1212,
      "##esti": 1213,
      "rich": 1214,
      "uuald": 1215,
      "##oron": 1216,
      "##ote": 1217,
      "##ationis": 1218,
      "themu": 1219,
      "imp": 1220,
      "##igi": 1221,
      "duo": 1222,
      "##ionem": 1223,
      "worol": 1224,
      "go": 1225,
      "mach": 1226,
      "diff": 1227,
      "ante": 1228,
      "alt": 1229,
      "deo": 1230,
      "##ouf": 1231,
      "spec": 1232,
      "##esse": 1233,
      "pers": 1234,
      "respon": 1235,
      "vos": 1236,
      "##uis": 1237,
      "uuola": 1238,
      "ber": 1239,
      "##idi": 1240,
      "##enten": 1241,
      "mem": 1242,
      "tim": 1243,
      "##itu": 1244,
      "ing": 1245,
      "selƀ": 1246,
      "qual": 1247,
      "##entem": 1248,
      "bis": 1249,
      "em": 1250,
      "sang": 1251,
      "##igen": 1252,
      "pres": 1253,
      "ipse": 1254,
      "iac": 1255,
      "##ae": 1256,
      "##bet": 1257,
      "##ind": 1258,
      "##itud": 1259,
      "selbun": 1260,
      "prec": 1261,
      "eft": 1262,
      "indi": 1263,
      "##enta": 1264,
      "##raft": 1265,
      "##tionem": 1266,
      "malt": 1267,
      "##itum": 1268,
      "uuizz": 1269,
      "##unti": 1270,
      "##ago": 1271,
      "illis": 1272,
      "intell": 1273,
      "comm": 1274,
      "bu": 1275,
      "hal": 1276,
      "dicit": 1277,
      "##ber": 1278,
      "##ator": 1279,
      "uniu": 1280,
      "fora": 1281,
      "psalm": 1282,
      "pas": 1283,
      "##inc": 1284,
      "sep": 1285,
      "ziu": 1286,
      "##mon": 1287,
      "##ftig": 1288,
      "##ito": 1289,
      "##ehen": 1290,
      "quað": 1291,
      "christi": 1292,
      "##uum": 1293,
      "uuare": 1294,
      "dicitur": 1295,
      "mennisk": 1296,
      "uuerol": 1297,
      "cru": 1298,
      "##ei": 1299,
      "tuum": 1300,
      "##zze": 1301,
      "himel": 1302,
      "git": 1303,
      "tir": 1304,
      "vid": 1305,
      "##cum": 1306,
      "gef": 1307,
      "##cha": 1308,
      "erda": 1309,
      "proph": 1310,
      "alles": 1311,
      "dinen": 1312,
      "##arium": 1313,
      "bru": 1314,
      "sen": 1315,
      "##ko": 1316,
      "haben": 1317,
      "gerſ": 1318,
      "nim": 1319,
      "##ordi": 1320,
      "##ire": 1321,
      "##vn": 1322,
      "##oton": 1323,
      "##odo": 1324,
      "rehte": 1325,
      "##rus": 1326,
      "##ande": 1327,
      "##ura": 1328,
      "##heite": 1329,
      "uuell": 1330,
      "##ates": 1331,
      "neuu": 1332,
      "note": 1333,
      "crist": 1334,
      "hero": 1335,
      "ske": 1336,
      "##din": 1337,
      "##fec": 1338,
      "thuo": 1339,
      "uueiz": 1340,
      "##otun": 1341,
      "sprah": 1342,
      "fuor": 1343,
      "hugi": 1344,
      "ver": 1345,
      "##esten": 1346,
      "domino": 1347,
      "##ationes": 1348,
      "fro": 1349,
      "pater": 1350,
      "##itis": 1351,
      "##aria": 1352,
      "##tione": 1353,
      "caus": 1354,
      "##hu": 1355,
      "meam": 1356,
      "gieng": 1357,
      "temo": 1358,
      "uoc": 1359,
      "##ub": 1360,
      "unum": 1361,
      "##antes": 1362,
      "meist": 1363,
      "umbi": 1364,
      "lau": 1365,
      "thr": 1366,
      "##abo": 1367,
      "mennisc": 1368,
      "salig": 1369,
      "wio": 1370,
      "##tes": 1371,
      "##oso": 1372,
      "atque": 1373,
      "usque": 1374,
      "ag": 1375,
      "da": 1376,
      "mahtig": 1377,
      "zes": 1378,
      "##itt": 1379,
      "##itus": 1380,
      "meum": 1381,
      "uuirdit": 1382,
      "odo": 1383,
      "##bo": 1384,
      "##ena": 1385,
      "tuam": 1386,
      "minero": 1387,
      "spre": 1388,
      "affirm": 1389,
      "riht": 1390,
      "##sp": 1391,
      "##ula": 1392,
      "deum": 1393,
      "##ahti": 1394,
      "##entie": 1395,
      "selbes": 1396,
      "semper": 1397,
      "##euu": 1398,
      "quibus": 1399,
      "##urti": 1400,
      "terra": 1401,
      "uualdand": 1402,
      "lie": 1403,
      "uuih": 1404,
      "##eth": 1405,
      "frum": 1406,
      "contra": 1407,
      "ait": 1408,
      "giz": 1409,
      "mug": 1410,
      "##sl": 1411,
      "##oti": 1412,
      "quadun": 1413,
      "##alis": 1414,
      "##ulis": 1415,
      "sci": 1416,
      "uuarð": 1417,
      "##entium": 1418,
      "##ific": 1419,
      "ira": 1420,
      "andere": 1421,
      "nobis": 1422,
      "occ": 1423,
      "uen": 1424,
      "vv": 1425,
      "##get": 1426,
      "fuer": 1427,
      "##ure": 1428,
      "chomen": 1429,
      "geist": 1430,
      "##auit": 1431,
      "##zeichen": 1432,
      "adi": 1433,
      "ti": 1434,
      "##het": 1435,
      "meino": 1436,
      "bar": 1437,
      "dom": 1438,
      "##duc": 1439,
      "##tr": 1440,
      "##tut": 1441,
      "##amm": 1442,
      "beg": 1443,
      "nunc": 1444,
      "nisi": 1445,
      "pil": 1446,
      "tamen": 1447,
      "##lichen": 1448,
      "##lihh": 1449,
      "unge": 1450,
      "keuu": 1451,
      "##prochen": 1452,
      "gith": 1453,
      "tien": 1454,
      "##ani": 1455,
      "##aten": 1456,
      "##atun": 1457,
      "sizz": 1458,
      "eina": 1459,
      "ille": 1460,
      "keh": 1461,
      "li": 1462,
      "##auu": 1463,
      "uur": 1464,
      "##orem": 1465,
      "suis": 1466,
      "herzen": 1467,
      "##ll": 1468,
      "##plic": 1469,
      "##ulo": 1470,
      "uuerde": 1471,
      "fern": 1472,
      "omnibus": 1473,
      "trib": 1474,
      "ecce": 1475,
      "mari": 1476,
      "##vit": 1477,
      "exc": 1478,
      "app": 1479,
      "bo": 1480,
      "hon": 1481,
      "sap": 1482,
      "##gon": 1483,
      "##etan": 1484,
      "chom": 1485,
      "thara": 1486,
      "sagen": 1487,
      "bra": 1488,
      "doc": 1489,
      "sah": 1490,
      "filius": 1491,
      "fru": 1492,
      "##sa": 1493,
      "##lium": 1494,
      "cham": 1495,
      "meus": 1496,
      "rep": 1497,
      "liudi": 1498,
      "subiec": 1499,
      "quoque": 1500,
      "ho": 1501,
      "ler": 1502,
      "mil": 1503,
      "##rec": 1504,
      "##ki": 1505,
      "##esc": 1506,
      "uuin": 1507,
      "sign": 1508,
      "##ala": 1509,
      "##ult": 1510,
      "eng": 1511,
      "durh": 1512,
      "audi": 1513,
      "av": 1514,
      "fund": 1515,
      "za": 1516,
      "##dam": 1517,
      "##sus": 1518,
      "##oni": 1519,
      "uzer": 1520,
      "zit": 1521,
      "##xit": 1522,
      "##lichi": 1523,
      "thera": 1524,
      "##ahta": 1525,
      "dum": 1526,
      "gest": 1527,
      "inim": 1528,
      "##oren": 1529,
      "mines": 1530,
      "##ige": 1531,
      "frag": 1532,
      "iohann": 1533,
      "ign": 1534,
      "##tem": 1535,
      "irst": 1536,
      "disc": 1537,
      "miseric": 1538,
      "fri": 1539,
      "lat": 1540,
      "oc": 1541,
      "##bat": 1542,
      "##gin": 1543,
      "##set": 1544,
      "##itun": 1545,
      "##usalem": 1546,
      "##qui": 1547,
      "mei": 1548,
      "prin": 1549,
      "bre": 1550,
      "eu": 1551,
      "eff": 1552,
      "fut": 1553,
      "gir": 1554,
      "##onis": 1555,
      "##tibus": 1556,
      "dies": 1557,
      "##fto": 1558,
      "gesk": 1559,
      "uuille": 1560,
      "fe": 1561,
      "null": 1562,
      "opp": 1563,
      "##oribus": 1564,
      "##ilis": 1565,
      "##ido": 1566,
      "##eder": 1567,
      "terram": 1568,
      "filo": 1569,
      "helag": 1570,
      "hant": 1571,
      "pri": 1572,
      "sor": 1573,
      "##gun": 1574,
      "##azz": 1575,
      "##ulus": 1576,
      "uuirdet": 1577,
      "propter": 1578,
      "ic": 1579,
      "ich": 1580,
      "##ime": 1581,
      "burg": 1582,
      "##fer": 1583,
      "arm": 1584,
      "princip": 1585,
      "kuot": 1586,
      "luc": 1587,
      "uone": 1588,
      "##lum": 1589,
      "ins": 1590,
      "str": 1591,
      "fide": 1592,
      "bir": 1593,
      "dau": 1594,
      "iou": 1595,
      "uid": 1596,
      "vest": 1597,
      "##bis": 1598,
      "chumet": 1599,
      "sapi": 1600,
      "gn": 1601,
      "##crib": 1602,
      "##br": 1603,
      "etern": 1604,
      "##quit": 1605,
      "iru": 1606,
      "petrus": 1607,
      "sens": 1608,
      "tunc": 1609,
      "##vi": 1610,
      "##chert": 1611,
      "##isset": 1612,
      "trans": 1613,
      "animal": 1614,
      "ost": 1615,
      "saz": 1616,
      "uzz": 1617,
      "##ret": 1618,
      "dera": 1619,
      "iustit": 1620,
      "cogn": 1621,
      "lioht": 1622,
      "inp": 1623,
      "##ath": 1624,
      "sibi": 1625,
      "herro": 1626,
      "himile": 1627,
      "pediu": 1628,
      "worolt": 1629,
      "houb": 1630,
      "muo": 1631,
      "nal": 1632,
      "pa": 1633,
      "rel": 1634,
      "habest": 1635,
      "liut": 1636,
      "lab": 1637,
      "##ga": 1638,
      "##dum": 1639,
      "##tic": 1640,
      "alla": 1641,
      "gerno": 1642,
      "uuolta": 1643,
      "rem": 1644,
      "##man": 1645,
      "##enda": 1646,
      "inv": 1647,
      "##eton": 1648,
      "##chi": 1649,
      "suam": 1650,
      "uuordun": 1651,
      "iuuu": 1652,
      "mannes": 1653,
      "hina": 1654,
      "san": 1655,
      "uan": 1656,
      "##ila": 1657,
      "bif": 1658,
      "misericordi": 1659,
      "eam": 1660,
      "la": 1661,
      "this": 1662,
      "##chent": 1663,
      "##ilia": 1664,
      "beat": 1665,
      "##issa": 1666,
      "bith": 1667,
      "co": 1668,
      "kel": 1669,
      "noc": 1670,
      "xx": 1671,
      "##oli": 1672,
      "##mi": 1673,
      "##eter": 1674,
      "ged": 1675,
      "minen": 1676,
      "const": 1677,
      "christvs": 1678,
      "tia": 1679,
      "wiz": 1680,
      "##ade": 1681,
      "##ez": 1682,
      "thing": 1683,
      "##dici": 1684,
      "##rost": 1685,
      "##reg": 1686,
      "ubi": 1687,
      "himele": 1688,
      "muat": 1689,
      "uuerlte": 1690,
      "quant": 1691,
      "erdo": 1692,
      "##alta": 1693,
      "tuont": 1694,
      "##zzen": 1695,
      "thiz": 1696,
      "inu": 1697,
      "##abe": 1698,
      "helf": 1699,
      "apost": 1700,
      "ew": 1701,
      "fle": 1702,
      "ga": 1703,
      "lig": 1704,
      "seg": 1705,
      "##andi": 1706,
      "uun": 1707,
      "##htun": 1708,
      "##osc": 1709,
      "irf": 1710,
      "dina": 1711,
      "illa": 1712,
      "necesse": 1713,
      "getan": 1714,
      "item": 1715,
      "uide": 1716,
      "##iun": 1717,
      "##oran": 1718,
      "##ides": 1719,
      "minemo": 1720,
      "scrib": 1721,
      "folc": 1722,
      "aftar": 1723,
      "uirtut": 1724,
      "possibile": 1725,
      "ecclesia": 1726,
      "nou": 1727,
      "##los": 1728,
      "uul": 1729,
      "quas": 1730,
      "pau": 1731,
      "##la": 1732,
      "##uor": 1733,
      "##pra": 1734,
      "##inen": 1735,
      "##ilo": 1736,
      "scrip": 1737,
      "gener": 1738,
      "venit": 1739,
      "gagen": 1740,
      "voc": 1741,
      "wiht": 1742,
      "##pe": 1743,
      "##tor": 1744,
      "##init": 1745,
      "sinan": 1746,
      "uuari": 1747,
      "dinemo": 1748,
      "illum": 1749,
      "gra": 1750,
      "##usti": 1751,
      "herza": 1752,
      "gihor": 1753,
      "spiritus": 1754,
      "cheden": 1755,
      "tod": 1756,
      "ui": 1757,
      "##sel": 1758,
      "##sequ": 1759,
      "modo": 1760,
      "benedic": 1761,
      "bur": 1762,
      "gali": 1763,
      "##tific": 1764,
      "##abat": 1765,
      "prou": 1766,
      "selbemo": 1767,
      "fram": 1768,
      "saget": 1769,
      "uuesan": 1770,
      "euuig": 1771,
      "menigi": 1772,
      "undar": 1773,
      "gum": 1774,
      "hol": 1775,
      "ocul": 1776,
      "zell": 1777,
      "##dis": 1778,
      "inquam": 1779,
      "##umu": 1780,
      "##deo": 1781,
      "dico": 1782,
      "fratr": 1783,
      "michel": 1784,
      "echert": 1785,
      "##pic": 1786,
      "##ano": 1787,
      "star": 1788,
      "##endit": 1789,
      "sumelich": 1790,
      "iniqu": 1791,
      "iacob": 1792,
      "##iuu": 1793,
      "##ys": 1794,
      "##atem": 1795,
      "##ihet": 1796,
      "##odun": 1797,
      "disp": 1798,
      "uuord": 1799,
      "mik": 1800,
      "nider": 1801,
      "manne": 1802,
      "selba": 1803,
      "dicens": 1804,
      "arbe": 1805,
      "leit": 1806,
      "##lico": 1807,
      "natura": 1808,
      "equ": 1809,
      "pat": 1810,
      "##unde": 1811,
      "quare": 1812,
      "##iles": 1813,
      "##ento": 1814,
      "sua": 1815,
      "fortun": 1816,
      "sunu": 1817,
      "pharis": 1818,
      "pass": 1819,
      "gentes": 1820,
      "let": 1821,
      "oƀ": 1822,
      "sund": 1823,
      "tate": 1824,
      "##ling": 1825,
      "uuið": 1826,
      "quamun": 1827,
      "bil": 1828,
      "test": 1829,
      "##up": 1830,
      "##bu": 1831,
      "##ouu": 1832,
      "##emer": 1833,
      "uerum": 1834,
      "ipsa": 1835,
      "skinet": 1836,
      "angel": 1837,
      "argum": 1838,
      "nalles": 1839,
      "dan": 1840,
      "sa": 1841,
      "##res": 1842,
      "##rim": 1843,
      "inph": 1844,
      "##ario": 1845,
      "uueh": 1846,
      "bediu": 1847,
      "grati": 1848,
      "los": 1849,
      "mugen": 1850,
      "vol": 1851,
      "waz": 1852,
      "##bar": 1853,
      "##fen": 1854,
      "##ona": 1855,
      "##ches": 1856,
      "##lex": 1857,
      "galile": 1858,
      "aur": 1859,
      "dav": 1860,
      "fals": 1861,
      "fast": 1862,
      "##enit": 1863,
      "suum": 1864,
      "##ica": 1865,
      "##auerunt": 1866,
      "omni": 1867,
      "filii": 1868,
      "we": 1869,
      "##iet": 1870,
      "##zi": 1871,
      "##eron": 1872,
      "uuieo": 1873,
      "gehe": 1874,
      "misse": 1875,
      "sculun": 1876,
      "theg": 1877,
      "dign": 1878,
      "aba": 1879,
      "omnium": 1880,
      "intf": 1881,
      "ipsum": 1882,
      "noti": 1883,
      "similiter": 1884,
      "dol": 1885,
      "toh": 1886,
      "trohtin": 1887,
      "vel": 1888,
      "aduer": 1889,
      "einen": 1890,
      "hominem": 1891,
      "phil": 1892,
      "uuurden": 1893,
      "uuerlt": 1894,
      "bit": 1895,
      "lut": 1896,
      "lic": 1897,
      "##dium": 1898,
      "dep": 1899,
      "##ilih": 1900,
      "##ihte": 1901,
      "uuorten": 1902,
      "dati": 1903,
      "fest": 1904,
      "roc": 1905,
      "##isse": 1906,
      "chuning": 1907,
      "spri": 1908,
      "iudici": 1909,
      "einemo": 1910,
      "##ungo": 1911,
      "quae": 1912,
      "auh": 1913,
      "fuo": 1914,
      "halt": 1915,
      "pon": 1916,
      "##ales": 1917,
      "##enter": 1918,
      "illud": 1919,
      "christo": 1920,
      "cuius": 1921,
      "david": 1922,
      "tis": 1923,
      "uiu": 1924,
      "##fti": 1925,
      "##itam": 1926,
      "uuah": 1927,
      "##agin": 1928,
      "##ihti": 1929,
      "dea": 1930,
      "tui": 1931,
      "habit": 1932,
      "##endum": 1933,
      "fuar": 1934,
      "uuideruuar": 1935,
      "selƀo": 1936,
      "rockon": 1937,
      "gan": 1938,
      "hil": 1939,
      "ſel": 1940,
      "inm": 1941,
      "conuer": 1942,
      "esset": 1943,
      "vuaz": 1944,
      "##alia": 1945,
      "peccat": 1946,
      "freuu": 1947,
      "eig": 1948,
      "fli": 1949,
      "stim": 1950,
      "wari": 1951,
      "##eti": 1952,
      "##ske": 1953,
      "dim": 1954,
      "##urt": 1955,
      "##asti": 1956,
      "##rium": 1957,
      "dominum": 1958,
      "giseh": 1959,
      "namo": 1960,
      "salut": 1961,
      "ipsi": 1962,
      "nemag": 1963,
      "fecit": 1964,
      "oƀar": 1965,
      "carn": 1966,
      "ling": 1967,
      "##bant": 1968,
      "##sit": 1969,
      "##inum": 1970,
      "##under": 1971,
      "##oto": 1972,
      "proposit": 1973,
      "##avit": 1974,
      "negatio": 1975,
      "bechenn": 1976,
      "col": 1977,
      "##uont": 1978,
      "sper": 1979,
      "guati": 1980,
      "accid": 1981,
      "iter": 1982,
      "##inde": 1983,
      "##aren": 1984,
      "##emes": 1985,
      "##uua": 1986,
      "aller": 1987,
      "fiur": 1988,
      "simul": 1989,
      "##iii": 1990,
      "uuazz": 1991,
      "gehor": 1992,
      "mund": 1993,
      "ret": 1994,
      "##yp": 1995,
      "##inqu": 1996,
      "##oten": 1997,
      "heli": 1998,
      "leid": 1999,
      "uuideruuartig": 2000,
      "eb": 2001,
      "ful": 2002,
      "lieht": 2003,
      "##anden": 2004,
      "##lius": 2005,
      "##abitur": 2006,
      "exp": 2007,
      "dicuntur": 2008,
      "magis": 2009,
      "christum": 2010,
      "ward": 2011,
      "heizent": 2012,
      "futur": 2013,
      "mikil": 2014,
      "vt": 2015,
      "##tur": 2016,
      "##undi": 2017,
      "##amus": 2018,
      "dex": 2019,
      "##iste": 2020,
      "##itates": 2021,
      "terre": 2022,
      "uuillen": 2023,
      "animam": 2024,
      "haec": 2025,
      "##zeichenet": 2026,
      "bes": 2027,
      "cal": 2028,
      "ratio": 2029,
      "santa": 2030,
      "##lin": 2031,
      "mand": 2032,
      "gelih": 2033,
      "nioman": 2034,
      "cong": 2035,
      "stant": 2036,
      "##angen": 2037,
      "##issi": 2038,
      "##uerunt": 2039,
      "amen": 2040,
      "anima": 2041,
      "##ebat": 2042,
      "intelleg": 2043,
      "inimic": 2044,
      "aqu": 2045,
      "lera": 2046,
      "##erat": 2047,
      "##onne": 2048,
      "uuid": 2049,
      "##umque": 2050,
      "##idu": 2051,
      "heƀ": 2052,
      "##egin": 2053,
      "habo": 2054,
      "abrah": 2055,
      "thesa": 2056,
      "parti": 2057,
      "bib": 2058,
      "cui": 2059,
      "kind": 2060,
      "mare": 2061,
      "put": 2062,
      "##vr": 2063,
      "##ares": 2064,
      "diem": 2065,
      "##otes": 2066,
      "##rog": 2067,
      "##ahe": 2068,
      "abb": 2069,
      "adh": 2070,
      "leb": 2071,
      "anderes": 2072,
      "thurh": 2073,
      "hiez": 2074,
      "beth": 2075,
      "gna": 2076,
      "hir": 2077,
      "lant": 2078,
      "##kan": 2079,
      "##emus": 2080,
      "##etis": 2081,
      "soso": 2082,
      "gesprochen": 2083,
      "nomine": 2084,
      "innan": 2085,
      "contradic": 2086,
      "az": 2087,
      "##iat": 2088,
      "diur": 2089,
      "##liche": 2090,
      "dine": 2091,
      "fier": 2092,
      "fieri": 2093,
      "finem": 2094,
      "corpus": 2095,
      "prouid": 2096,
      "##idiu": 2097,
      "##nes": 2098,
      "##nun": 2099,
      "##oz": 2100,
      "habeta": 2101,
      "##derunt": 2102,
      "perfec": 2103,
      "ieo": 2104,
      "dauid": 2105,
      "asc": 2106,
      "hin": 2107,
      "os": 2108,
      "rerum": 2109,
      "uis": 2110,
      "##uom": 2111,
      "##pi": 2112,
      "##fi": 2113,
      "quos": 2114,
      "##atibus": 2115,
      "ster": 2116,
      "zuei": 2117,
      "thana": 2118,
      "bona": 2119,
      "##tionis": 2120,
      "demon": 2121,
      "craft": 2122,
      "gat": 2123,
      "mens": 2124,
      "po": 2125,
      "##nu": 2126,
      "uui": 2127,
      "eteuu": 2128,
      "irh": 2129,
      "furi": 2130,
      "loqu": 2131,
      "gerſton": 2132,
      "##vnt": 2133,
      "ſeluon": 2134,
      "hunc": 2135,
      "nol": 2136,
      "tum": 2137,
      "vbe": 2138,
      "##lon": 2139,
      "uuidar": 2140,
      "quæ": 2141,
      "alm": 2142,
      "meo": 2143,
      "liute": 2144,
      "hominum": 2145,
      "substantia": 2146,
      "ambul": 2147,
      "thisu": 2148,
      "mus": 2149,
      "ougen": 2150,
      "pan": 2151,
      "pal": 2152,
      "##bun": 2153,
      "##gan": 2154,
      "inde": 2155,
      "quh": 2156,
      "mitt": 2157,
      "uuerð": 2158,
      "einer": 2159,
      "allaz": 2160,
      "##ionis": 2161,
      "conting": 2162,
      "tage": 2163,
      "multi": 2164,
      "syll": 2165,
      "##itudinem": 2166,
      "uniuer": 2167,
      "affirmatio": 2168,
      "cunc": 2169,
      "eben": 2170,
      "ker": 2171,
      "kem": 2172,
      "ket": 2173,
      "vir": 2174,
      "##run": 2175,
      "quin": 2176,
      "##agon": 2177,
      "##uge": 2178,
      "omne": 2179,
      "vuieo": 2180,
      "corde": 2181,
      "##iones": 2182,
      "##ogis": 2183,
      "libe": 2184,
      "christus": 2185,
      "tara": 2186,
      "patrem": 2187,
      "offen": 2188,
      "memor": 2189,
      "avur": 2190,
      "diss": 2191,
      "oð": 2192,
      "sent": 2193,
      "##edi": 2194,
      "##haf": 2195,
      "quic": 2196,
      "sequ": 2197,
      "##licha": 2198,
      "plur": 2199,
      "haƀ": 2200,
      "contrari": 2201,
      "gau": 2202,
      "hell": 2203,
      "lec": 2204,
      "pin": 2205,
      "vero": 2206,
      "quat": 2207,
      "##teil": 2208,
      "##ilic": 2209,
      "hominis": 2210,
      "laud": 2211,
      "iohannes": 2212,
      "cuning": 2213,
      "gah": 2214,
      "lum": 2215,
      "##elih": 2216,
      "##erd": 2217,
      "diz": 2218,
      "##edo": 2219,
      "##adem": 2220,
      "iud": 2221,
      "desc": 2222,
      "gibet": 2223,
      "serv": 2224,
      "iustus": 2225,
      "dingo": 2226,
      "muoter": 2227,
      "licham": 2228,
      "cas": 2229,
      "hiu": 2230,
      "mera": 2231,
      "sat": 2232,
      "tri": 2233,
      "##hab": 2234,
      "##kes": 2235,
      "inquit": 2236,
      "##unda": 2237,
      "##stant": 2238,
      "##lim": 2239,
      "siniu": 2240,
      "##omodo": 2241,
      "##quid": 2242,
      "##ign": 2243,
      "##esta": 2244,
      "foras": 2245,
      "thene": 2246,
      "uuilli": 2247,
      "accip": 2248,
      "maria": 2249,
      "ambaht": 2250,
      "gode": 2251,
      "uniuersal": 2252,
      "cy": 2253,
      "ef": 2254,
      "iemer": 2255,
      "##uus": 2256,
      "##bra": 2257,
      "##ken": 2258,
      "##azs": 2259,
      "eruu": 2260,
      "##aliter": 2261,
      "##hton": 2262,
      "albus": 2263,
      "##adon": 2264,
      "forder": 2265,
      "saman": 2266,
      "anderiu": 2267,
      "antling": 2268,
      "huat": 2269,
      "bring": 2270,
      "geloub": 2271,
      "slium": 2272,
      "wil": 2273,
      "##uag": 2274,
      "##aft": 2275,
      "##zo": 2276,
      "##iten": 2277,
      "##aru": 2278,
      "##ori": 2279,
      "##usto": 2280,
      "soc": 2281,
      "def": 2282,
      "##oder": 2283,
      "##ebant": 2284,
      "testim": 2285,
      "opera": 2286,
      "iouis": 2287,
      "dor": 2288,
      "giu": 2289,
      "het": 2290,
      "wan": 2291,
      "##uet": 2292,
      "##iga": 2293,
      "##egen": 2294,
      "giang": 2295,
      "fers": 2296,
      "denne": 2297,
      "quidam": 2298,
      "##chenne": 2299,
      "hierusalem": 2300,
      "iungir": 2301,
      "mai": 2302,
      "bithiu": 2303,
      "iterum": 2304,
      "aud": 2305,
      "cet": 2306,
      "ofto": 2307,
      "tam": 2308,
      "##min": 2309,
      "##alti": 2310,
      "heizz": 2311,
      "##uoti": 2312,
      "trin": 2313,
      "contraria": 2314,
      "del": 2315,
      "fam": 2316,
      "ia": 2317,
      "tene": 2318,
      "##torum": 2319,
      "##kit": 2320,
      "##aret": 2321,
      "##oss": 2322,
      "##abant": 2323,
      "##abunt": 2324,
      "quidu": 2325,
      "gibot": 2326,
      "zuene": 2327,
      "hara": 2328,
      "idem": 2329,
      "substantie": 2330,
      "ass": 2331,
      "uuellen": 2332,
      "sliumo": 2333,
      "ibu": 2334,
      "mahti": 2335,
      "##atin": 2336,
      "quomodo": 2337,
      "##chenn": 2338,
      "##erost": 2339,
      "##imit": 2340,
      "##ahen": 2341,
      "##reh": 2342,
      "##este": 2343,
      "tharpa": 2344,
      "sex": 2345,
      "bez": 2346,
      "sundi": 2347,
      "alia": 2348,
      "##andum": 2349,
      "summ": 2350,
      "rehto": 2351,
      "folle": 2352,
      "simon": 2353,
      "warun": 2354,
      "iudei": 2355,
      "engil": 2356,
      "mot": 2357,
      "ro": 2358,
      "ring": 2359,
      "ul": 2360,
      "upp": 2361,
      "wanta": 2362,
      "##lus": 2363,
      "##ring": 2364,
      "ind": 2365,
      "##abol": 2366,
      "manus": 2367,
      "minan": 2368,
      "eino": 2369,
      "uuilon": 2370,
      "haft": 2371,
      "lango": 2372,
      "circum": 2373,
      "uueroldi": 2374,
      "fuerit": 2375,
      "oh": 2376,
      "stig": 2377,
      "tra": 2378,
      "##let": 2379,
      "##co": 2380,
      "##ian": 2381,
      "##iens": 2382,
      "##men": 2383,
      "##erent": 2384,
      "##inon": 2385,
      "ques": 2386,
      "##aget": 2387,
      "gez": 2388,
      "mihil": 2389,
      "leo": 2390,
      "gesc": 2391,
      "ord": 2392,
      "guol": 2393,
      "merc": 2394,
      "dixerunt": 2395,
      "infirm": 2396,
      "##uuelih": 2397,
      "riche": 2398,
      "signific": 2399,
      "quasi": 2400,
      "bih": 2401,
      "ped": 2402,
      "vide": 2403,
      "##aron": 2404,
      "uuen": 2405,
      "##idit": 2406,
      "##ahet": 2407,
      "##angeli": 2408,
      "ubil": 2409,
      "andermo": 2410,
      "factum": 2411,
      "susc": 2412,
      "tempore": 2413,
      "patris": 2414,
      "cec": 2415,
      "hau": 2416,
      "ken": 2417,
      "tant": 2418,
      "uti": 2419,
      "##uati": 2420,
      "##iit": 2421,
      "##nis": 2422,
      "##gar": 2423,
      "dil": 2424,
      "unus": 2425,
      "##elle": 2426,
      "##uuor": 2427,
      "forð": 2428,
      "selbon": 2429,
      "##angan": 2430,
      "geng": 2431,
      "apud": 2432,
      "clam": 2433,
      "mennisken": 2434,
      "hl": 2435,
      "ibi": 2436,
      "por": 2437,
      "tun": 2438,
      "##uti": 2439,
      "unuu": 2440,
      "manif": 2441,
      "##ege": 2442,
      "uerbum": 2443,
      "filium": 2444,
      "muate": 2445,
      "tode": 2446,
      "tempus": 2447,
      "sehen": 2448,
      "causa": 2449,
      "don": 2450,
      "hand": 2451,
      "lac": 2452,
      "sn": 2453,
      "wis": 2454,
      "wunt": 2455,
      "##uol": 2456,
      "solih": 2457,
      "##agan": 2458,
      "iruu": 2459,
      "beh": 2460,
      "genus": 2461,
      "giwisso": 2462,
      "prius": 2463,
      "syllogis": 2464,
      "kuning": 2465,
      "##itia": 2466,
      "thit": 2467,
      "##ros": 2468,
      "ala": 2469,
      "##uta": 2470,
      "sui": 2471,
      "sulic": 2472,
      "tuis": 2473,
      "miniu": 2474,
      "consequ": 2475,
      "zuein": 2476,
      "regnum": 2477,
      "##epit": 2478,
      "wola": 2479,
      "sprak": 2480,
      "species": 2481,
      "apostol": 2482,
      "bal": 2483,
      "det": 2484,
      "ked": 2485,
      "pu": 2486,
      "pul": 2487,
      "sm": 2488,
      "sab": 2489,
      "tv": 2490,
      "##adi": 2491,
      "##ezz": 2492,
      "##qv": 2493,
      "##ho": 2494,
      "uuit": 2495,
      "unte": 2496,
      "mee": 2497,
      "##aui": 2498,
      "ferl": 2499,
      "##uote": 2500,
      "sunna": 2501,
      "##ieng": 2502,
      "homines": 2503,
      "resur": 2504,
      "##unnen": 2505,
      "cogit": 2506,
      "geding": 2507,
      "ast": 2508,
      "bim": 2509,
      "huo": 2510,
      "ju": 2511,
      "met": 2512,
      "##iis": 2513,
      "##hen": 2514,
      "##fe": 2515,
      "quando": 2516,
      "##cher": 2517,
      "heb": 2518,
      "ref": 2519,
      "dicentes": 2520,
      "##alten": 2521,
      "guat": 2522,
      "wara": 2523,
      "dhazs": 2524,
      "abraham": 2525,
      "socr": 2526,
      "testimon": 2527,
      "cr": 2528,
      "celi": 2529,
      "gig": 2530,
      "tor": 2531,
      "##aff": 2532,
      "##tan": 2533,
      "##oda": 2534,
      "##onti": 2535,
      "##emen": 2536,
      "##aga": 2537,
      "##atiua": 2538,
      "meis": 2539,
      "minna": 2540,
      "##izen": 2541,
      "##ruob": 2542,
      "##ilium": 2543,
      "reda": 2544,
      "arbit": 2545,
      "##ationibus": 2546,
      "mennis": 2547,
      "oport": 2548,
      "zesam": 2549,
      "eternum": 2550,
      "houbet": 2551,
      "testam": 2552,
      "custo": 2553,
      "eadem": 2554,
      "here": 2555,
      "tab": 2556,
      "uuunder": 2557,
      "chre": 2558,
      "ferro": 2559,
      "diniu": 2560,
      "liber": 2561,
      "huius": 2562,
      "##ectu": 2563,
      "ubelen": 2564,
      "uolunt": 2565,
      "thrato": 2566,
      "subiecto": 2567,
      "bap": 2568,
      "iun": 2569,
      "les": 2570,
      "obe": 2571,
      "##nus": 2572,
      "##tam": 2573,
      "##ðe": 2574,
      "##eres": 2575,
      "inne": 2576,
      "##azi": 2577,
      "##chun": 2578,
      "##altig": 2579,
      "##idem": 2580,
      "dedit": 2581,
      "sue": 2582,
      "sulih": 2583,
      "##estum": 2584,
      "herron": 2585,
      "##uoc": 2586,
      "fiant": 2587,
      "##antibus": 2588,
      "##iðo": 2589,
      "cred": 2590,
      "humil": 2591,
      "commun": 2592,
      "##osoph": 2593,
      "vvuo": 2594,
      "fruc": 2595,
      "sundon": 2596,
      "ciu": 2597,
      "rat": 2598,
      "tih": 2599,
      "ziti": 2600,
      "##bes": 2601,
      "##xim": 2602,
      "##inne": 2603,
      "uuib": 2604,
      "uuili": 2605,
      "dilig": 2606,
      "##chon": 2607,
      "enig": 2608,
      "##ehent": 2609,
      "##essi": 2610,
      "guate": 2611,
      "antf": 2612,
      "moys": 2613,
      "duruh": 2614,
      "taga": 2615,
      "iudeono": 2616,
      "celo": 2617,
      "nesint": 2618,
      "ougon": 2619,
      "ieht": 2620,
      "persec": 2621,
      "uniuers": 2622,
      "bid": 2623,
      "bed": 2624,
      "canti": 2625,
      "ier": 2626,
      "mont": 2627,
      "pati": 2628,
      "uin": 2629,
      "##ban": 2630,
      "##tra": 2631,
      "uueder": 2632,
      "##abis": 2633,
      "##abil": 2634,
      "scon": 2635,
      "stern": 2636,
      "zuiu": 2637,
      "grec": 2638,
      "tougen": 2639,
      "luzz": 2640,
      "chumftig": 2641,
      "stein": 2642,
      "manige": 2643,
      "drohtines": 2644,
      "##itudo": 2645,
      "propheta": 2646,
      "pauper": 2647,
      "licet": 2648,
      "particul": 2649,
      "cot": 2650,
      "gom": 2651,
      "lap": 2652,
      "miss": 2653,
      "mater": 2654,
      "nidar": 2655,
      "pi": 2656,
      "ruo": 2657,
      "sv": 2658,
      "##uas": 2659,
      "##han": 2660,
      "##ox": 2661,
      "uuiht": 2662,
      "##chit": 2663,
      "erant": 2664,
      "##ectum": 2665,
      "suar": 2666,
      "nio": 2667,
      "strit": 2668,
      "dicere": 2669,
      "##ungen": 2670,
      "sunnun": 2671,
      "anderro": 2672,
      "##loqu": 2673,
      "stuont": 2674,
      "almahtig": 2675,
      "custodi": 2676,
      "af": 2677,
      "bli": 2678,
      "can": 2679,
      "fit": 2680,
      "hanc": 2681,
      "nemo": 2682,
      "##cis": 2683,
      "##war": 2684,
      "##str": 2685,
      "chun": 2686,
      "##ulos": 2687,
      "##rep": 2688,
      "meos": 2689,
      "##ader": 2690,
      "allaro": 2691,
      "dines": 2692,
      "terti": 2693,
      "##zzi": 2694,
      "samoso": 2695,
      "oratio": 2696,
      "libes": 2697,
      "sancta": 2698,
      "gloub": 2699,
      "##unni": 2700,
      "nihein": 2701,
      "himilri": 2702,
      "syon": 2703,
      "lichamen": 2704,
      "sprac": 2705,
      "necessarium": 2706,
      "uuilleon": 2707,
      "congreg": 2708,
      "pac": 2709,
      "##tos": 2710,
      "##fet": 2711,
      "sið": 2712,
      "##age": 2713,
      "##antem": 2714,
      "##endet": 2715,
      "hora": 2716,
      "nostri": 2717,
      "quedenti": 2718,
      "chedent": 2719,
      "gangan": 2720,
      "##haft": 2721,
      "diffinit": 2722,
      "philosoph": 2723,
      "cæ": 2724,
      "hug": 2725,
      "mut": 2726,
      "taten": 2727,
      "uor": 2728,
      "uic": 2729,
      "##uht": 2730,
      "##ka": 2731,
      "##mus": 2732,
      "thion": 2733,
      "uuon": 2734,
      "una": 2735,
      "unf": 2736,
      "##ela": 2737,
      "heim": 2738,
      "uuart": 2739,
      "stete": 2740,
      "rex": 2741,
      "disiu": 2742,
      "facere": 2743,
      "simb": 2744,
      "##tiones": 2745,
      "dher": 2746,
      "propr": 2747,
      "egyp": 2748,
      "gloriam": 2749,
      "worto": 2750,
      "respond": 2751,
      "pilatus": 2752,
      "uzzan": 2753,
      "iudicium": 2754,
      "len": 2755,
      "land": 2756,
      "mere": 2757,
      "ou": 2758,
      "wes": 2759,
      "##eine": 2760,
      "##hib": 2761,
      "div": 2762,
      "album": 2763,
      "##igo": 2764,
      "habere": 2765,
      "hera": 2766,
      "desider": 2767,
      "giscrib": 2768,
      "foll": 2769,
      "multa": 2770,
      "discipuli": 2771,
      "suln": 2772,
      "sacerd": 2773,
      "cognosc": 2774,
      "aug": 2775,
      "cer": 2776,
      "ez": 2777,
      "tannan": 2778,
      "uera": 2779,
      "zim": 2780,
      "##ƀon": 2781,
      "##elt": 2782,
      "##ahan": 2783,
      "conuen": 2784,
      "##edit": 2785,
      "duc": 2786,
      "uuarheit": 2787,
      "uuerch": 2788,
      "amp": 2789,
      "eivs": 2790,
      "malum": 2791,
      "##aster": 2792,
      "faciem": 2793,
      "uuege": 2794,
      "gloria": 2795,
      "bruoder": 2796,
      "argumentum": 2797,
      "gnada": 2798,
      "bisc": 2799,
      "fig": 2800,
      "fall": 2801,
      "gist": 2802,
      "henti": 2803,
      "hung": 2804,
      "kum": 2805,
      "na": 2806,
      "##gent": 2807,
      "anas": 2808,
      "minus": 2809,
      "uuara": 2810,
      "form": 2811,
      "sihet": 2812,
      "##ffen": 2813,
      "tres": 2814,
      "liuti": 2815,
      "thanan": 2816,
      "dhes": 2817,
      "legem": 2818,
      "corpore": 2819,
      "heiligen": 2820,
      "cruci": 2821,
      "herost": 2822,
      "keuuisso": 2823,
      "sprichet": 2824,
      "uuahs": 2825,
      "aer": 2826,
      "hos": 2827,
      "od": 2828,
      "pist": 2829,
      "penn": 2830,
      "##ress": 2831,
      "##pti": 2832,
      "##mod": 2833,
      "##arpa": 2834,
      "##uste": 2835,
      "##azen": 2836,
      "##ami": 2837,
      "##dir": 2838,
      "mez": 2839,
      "sama": 2840,
      "zua": 2841,
      "gihe": 2842,
      "uuorden": 2843,
      "druhtines": 2844,
      "gimal": 2845,
      "spiritu": 2846,
      "nov": 2847,
      "scolta": 2848,
      "tribul": 2849,
      "iustitia": 2850,
      "##ossibile": 2851,
      "dist": 2852,
      "ideo": 2853,
      "ka": 2854,
      "mur": 2855,
      "pru": 2856,
      "stil": 2857,
      "##lis": 2858,
      "##uat": 2859,
      "##ede": 2860,
      "##tas": 2861,
      "##ute": 2862,
      "##utus": 2863,
      "suff": 2864,
      "geu": 2865,
      "mite": 2866,
      "uuarin": 2867,
      "abs": 2868,
      "##ugn": 2869,
      "forte": 2870,
      "##uotig": 2871,
      "prom": 2872,
      "##unden": 2873,
      "leib": 2874,
      "vuer": 2875,
      "furder": 2876,
      "ipso": 2877,
      "misit": 2878,
      "infin": 2879,
      "drit": 2880,
      "sangu": 2881,
      "choment": 2882,
      "misericordia": 2883,
      "lingua": 2884,
      "iungiron": 2885,
      "resurrec": 2886,
      "zesamine": 2887,
      "dun": 2888,
      "ta": 2889,
      "##ric": 2890,
      "##etun": 2891,
      "##ste": 2892,
      "quorum": 2893,
      "##otin": 2894,
      "era": 2895,
      "chunt": 2896,
      "##iho": 2897,
      "##uog": 2898,
      "allo": 2899,
      "uuirð": 2900,
      "##ahtun": 2901,
      "suntar": 2902,
      "keb": 2903,
      "aliud": 2904,
      "consp": 2905,
      "iuuuer": 2906,
      "euua": 2907,
      "biginn": 2908,
      "prophet": 2909,
      "menniscon": 2910,
      "dri": 2911,
      "iuh": 2912,
      "lugi": 2913,
      "sis": 2914,
      "wib": 2915,
      "wurti": 2916,
      "##dem": 2917,
      "##enden": 2918,
      "uure": 2919,
      "##ectus": 2920,
      "gech": 2921,
      "niuu": 2922,
      "scono": 2923,
      "irk": 2924,
      "zeig": 2925,
      "abur": 2926,
      "redi": 2927,
      "prob": 2928,
      "prof": 2929,
      "##osta": 2930,
      "fienda": 2931,
      "sunder": 2932,
      "frem": 2933,
      "simplic": 2934,
      "seculum": 2935,
      "thines": 2936,
      "plen": 2937,
      "sancti": 2938,
      "tempt": 2939,
      "interrog": 2940,
      "celum": 2941,
      "mundi": 2942,
      "alterum": 2943,
      "machot": 2944,
      "senu": 2945,
      "boum": 2946,
      "heƀen": 2947,
      "fal": 2948,
      "lun": 2949,
      "mali": 2950,
      "suu": 2951,
      "##rem": 2952,
      "##eman": 2953,
      "quimit": 2954,
      "unm": 2955,
      "nehe": 2956,
      "##isten": 2957,
      "##istis": 2958,
      "scaf": 2959,
      "absc": 2960,
      "exemp": 2961,
      "##liches": 2962,
      "pret": 2963,
      "facit": 2964,
      "uerba": 2965,
      "sancto": 2966,
      "guoten": 2967,
      "contrarium": 2968,
      "qvi": 2969,
      "caput": 2970,
      "meistar": 2971,
      "mennisco": 2972,
      "inven": 2973,
      "fratres": 2974,
      "dexter": 2975,
      "ach": 2976,
      "gar": 2977,
      "iur": 2978,
      "lust": 2979,
      "uest": 2980,
      "##pan": 2981,
      "##falt": 2982,
      "##alde": 2983,
      "##atim": 2984,
      "##egi": 2985,
      "scam": 2986,
      "irr": 2987,
      "zeichen": 2988,
      "exalt": 2989,
      "##ungun": 2990,
      "partes": 2991,
      "sageta": 2992,
      "uuelih": 2993,
      "guote": 2994,
      "brot": 2995,
      "mart": 2996,
      "slaf": 2997,
      "uuerold": 2998,
      "cali": 2999,
      "fra": 3000,
      "kin": 3001,
      "lose": 3002,
      "qhu": 3003,
      "rhet": 3004,
      "up": 3005,
      "ine": 3006,
      "inst": 3007,
      "uuist": 3008,
      "##eten": 3009,
      "eno": 3010,
      "mittiu": 3011,
      "##gean": 3012,
      "illos": 3013,
      "boni": 3014,
      "chaden": 3015,
      "mahta": 3016,
      "mahtin": 3017,
      "##ullit": 3018,
      "menniskon": 3019,
      "uuehsel": 3020,
      "baz": 3021,
      "ci": 3022,
      "coll": 3023,
      "fel": 3024,
      "hul": 3025,
      "vi": 3026,
      "##ras": 3027,
      "##æc": 3028,
      "sig": 3029,
      "eth": 3030,
      "##chan": 3031,
      "##alte": 3032,
      "chint": 3033,
      "manduc": 3034,
      "mein": 3035,
      "medio": 3036,
      "##ice": 3037,
      "condit": 3038,
      "diebus": 3039,
      "exau": 3040,
      "these": 3041,
      "trad": 3042,
      "factus": 3043,
      "genere": 3044,
      "folget": 3045,
      "muli": 3046,
      "##ernac": 3047,
      "uuizen": 3048,
      "minnot": 3049,
      "gisahun": 3050,
      "opposit": 3051,
      "ierusalem": 3052,
      "aper": 3053,
      "bili": 3054,
      "civ": 3055,
      "dro": 3056,
      "edo": 3057,
      "fo": 3058,
      "fuit": 3059,
      "gio": 3060,
      "pur": 3061,
      "tro": 3062,
      "##uam": 3063,
      "##oe": 3064,
      "sino": 3065,
      "chl": 3066,
      "chraft": 3067,
      "##osita": 3068,
      "uuerc": 3069,
      "proc": 3070,
      "thesaro": 3071,
      "magist": 3072,
      "sune": 3073,
      "tran": 3074,
      "facta": 3075,
      "namon": 3076,
      "dirro": 3077,
      "##achon": 3078,
      "seculi": 3079,
      "filios": 3080,
      "iustum": 3081,
      "modum": 3082,
      "veni": 3083,
      "turb": 3084,
      "humili": 3085,
      "conclus": 3086,
      "iamer": 3087,
      "funden": 3088,
      "guollichi": 3089,
      "marty": 3090,
      "gru": 3091,
      "##uin": 3092,
      "##uisti": 3093,
      "##nam": 3094,
      "##ror": 3095,
      "##eſ": 3096,
      "##of": 3097,
      "##itio": 3098,
      "incip": 3099,
      "##ster": 3100,
      "devs": 3101,
      "##icem": 3102,
      "conv": 3103,
      "stunt": 3104,
      "##uoge": 3105,
      "deser": 3106,
      "thena": 3107,
      "diser": 3108,
      "illo": 3109,
      "consider": 3110,
      "heizen": 3111,
      "geuualt": 3112,
      "kesprochen": 3113,
      "mala": 3114,
      "thiod": 3115,
      "confess": 3116,
      "gimein": 3117,
      "mannun": 3118,
      "spiritum": 3119,
      "opin": 3120,
      "worton": 3121,
      "felic": 3122,
      "sumeliche": 3123,
      "fasto": 3124,
      "adhuc": 3125,
      "ev": 3126,
      "festen": 3127,
      "ketan": 3128,
      "port": 3129,
      "rum": 3130,
      "sch": 3131,
      "##ada": 3132,
      "##ran": 3133,
      "##kin": 3134,
      "##wer": 3135,
      "##won": 3136,
      "##erc": 3137,
      "##inam": 3138,
      "##onem": 3139,
      "##onda": 3140,
      "##ord": 3141,
      "##entit": 3142,
      "##ado": 3143,
      "spr": 3144,
      "herz": 3145,
      "einan": 3146,
      "exult": 3147,
      "##lichero": 3148,
      "thesan": 3149,
      "##ange": 3150,
      "omnem": 3151,
      "sunta": 3152,
      "alien": 3153,
      "##ogen": 3154,
      "uirg": 3155,
      "confite": 3156,
      "lougen": 3157,
      "monaster": 3158,
      "goum": 3159,
      "tiur": 3160,
      "wuntar": 3161,
      "rationem": 3162,
      "ton": 3163,
      "tac": 3164,
      "##tina": 3165,
      "##ðun": 3166,
      "##estim": 3167,
      "##orvm": 3168,
      "##elli": 3169,
      "##die": 3170,
      "sinaz": 3171,
      "##omes": 3172,
      "##osa": 3173,
      "hein": 3174,
      "eines": 3175,
      "prem": 3176,
      "sunde": 3177,
      "uers": 3178,
      "furht": 3179,
      "bonis": 3180,
      "##ppe": 3181,
      "tages": 3182,
      "iuuih": 3183,
      "##titud": 3184,
      "lege": 3185,
      "numer": 3186,
      "populus": 3187,
      "primum": 3188,
      "mugun": 3189,
      "birut": 3190,
      "cic": 3191,
      "eli": 3192,
      "fat": 3193,
      "gili": 3194,
      "iv": 3195,
      "ple": 3196,
      "ration": 3197,
      "sta": 3198,
      "ting": 3199,
      "##cim": 3200,
      "##hti": 3201,
      "##isg": 3202,
      "inius": 3203,
      "diabol": 3204,
      "erdu": 3205,
      "nonne": 3206,
      "sce": 3207,
      "irb": 3208,
      "forlaz": 3209,
      "spon": 3210,
      "##oube": 3211,
      "bezeichenet": 3212,
      "samint": 3213,
      "disen": 3214,
      "furist": 3215,
      "liudio": 3216,
      "##acha": 3217,
      "posse": 3218,
      "plac": 3219,
      "sanctum": 3220,
      "uuerod": 3221,
      "auur": 3222,
      "lux": 3223,
      "loco": 3224,
      "gratia": 3225,
      "summum": 3226,
      "moyses": 3227,
      "dul": 3228,
      "ite": 3229,
      "sti": 3230,
      "xv": 3231,
      "zeg": 3232,
      "zala": 3233,
      "ſeſ": 3234,
      "##lina": 3235,
      "##utio": 3236,
      "##cu": 3237,
      "##nit": 3238,
      "##pf": 3239,
      "##pes": 3240,
      "##vl": 3241,
      "##ondo": 3242,
      "thina": 3243,
      "##stuont": 3244,
      "erf": 3245,
      "zeich": 3246,
      "prot": 3247,
      "leð": 3248,
      "alii": 3249,
      "illam": 3250,
      "intr": 3251,
      "giboran": 3252,
      "iustific": 3253,
      "homine": 3254,
      "firm": 3255,
      "flu": 3256,
      "uueros": 3257,
      "andre": 3258,
      "manage": 3259,
      "lobont": 3260,
      "munde": 3261,
      "prima": 3262,
      "respondit": 3263,
      "buoh": 3264,
      "gitan": 3265,
      "oculos": 3266,
      "uuidere": 3267,
      "sabb": 3268,
      "dru": 3269,
      "gol": 3270,
      "han": 3271,
      "iuuar": 3272,
      "kot": 3273,
      "lug": 3274,
      "sur": 3275,
      "tre": 3276,
      "zel": 3277,
      "##ias": 3278,
      "##zet": 3279,
      "thol": 3280,
      "##arius": 3281,
      "##ames": 3282,
      "erd": 3283,
      "##dibus": 3284,
      "chade": 3285,
      "##ola": 3286,
      "##ecumque": 3287,
      "##untan": 3288,
      "tuus": 3289,
      "tuenti": 3290,
      "diuers": 3291,
      "##erea": 3292,
      "uuerth": 3293,
      "reli": 3294,
      "thesumu": 3295,
      "dicunt": 3296,
      "namque": 3297,
      "antu": 3298,
      "gehu": 3299,
      "##averunt": 3300,
      "##eritis": 3301,
      "drut": 3302,
      "noster": 3303,
      "scolda": 3304,
      "halb": 3305,
      "gerſtina": 3306,
      "domum": 3307,
      "mercur": 3308,
      "tantum": 3309,
      "abscon": 3310,
      "deta": 3311,
      "lus": 3312,
      "leret": 3313,
      "mac": 3314,
      "nid": 3315,
      "puer": 3316,
      "rihh": 3317,
      "tota": 3318,
      "want": 3319,
      "##bor": 3320,
      "##ƀe": 3321,
      "##ites": 3322,
      "##itet": 3323,
      "##esus": 3324,
      "sib": 3325,
      "##iri": 3326,
      "##eros": 3327,
      "##omer": 3328,
      "##quis": 3329,
      "sconi": 3330,
      "##ingo": 3331,
      "allem": 3332,
      "allemo": 3333,
      "##ungu": 3334,
      "locum": 3335,
      "nesc": 3336,
      "##oseph": 3337,
      "neuuir": 3338,
      "friunt": 3339,
      "pharisei": 3340,
      "cant": 3341,
      "dhe": 3342,
      "gag": 3343,
      "hazz": 3344,
      "hæc": 3345,
      "jung": 3346,
      "kas": 3347,
      "trost": 3348,
      "zite": 3349,
      "##iunt": 3350,
      "##dom": 3351,
      "##oug": 3352,
      "##arit": 3353,
      "##arta": 3354,
      "##urte": 3355,
      "##elos": 3356,
      "##dil": 3357,
      "##uuo": 3358,
      "##uuert": 3359,
      "sind": 3360,
      "stan": 3361,
      "stet": 3362,
      "requ": 3363,
      "cuman": 3364,
      "sunda": 3365,
      "zue": 3366,
      "filiis": 3367,
      "muater": 3368,
      "seru": 3369,
      "gebet": 3370,
      "nostra": 3371,
      "credi": 3372,
      "assum": 3373,
      "kristes": 3374,
      "muge": 3375,
      "##lihho": 3376,
      "iustitiam": 3377,
      "peccatores": 3378,
      "buo": 3379,
      "satur": 3380,
      "teg": 3381,
      "touf": 3382,
      "zorn": 3383,
      "##iant": 3384,
      "##pl": 3385,
      "##ser": 3386,
      "##kkon": 3387,
      "##ƀun": 3388,
      "thine": 3389,
      "##sta": 3390,
      "##liz": 3391,
      "##hter": 3392,
      "##uui": 3393,
      "chamen": 3394,
      "suas": 3395,
      "miner": 3396,
      "duat": 3397,
      "rei": 3398,
      "rebus": 3399,
      "sezz": 3400,
      "mirab": 3401,
      "##dicati": 3402,
      "##alium": 3403,
      "gibod": 3404,
      "folg": 3405,
      "huand": 3406,
      "uuolton": 3407,
      "gebot": 3408,
      "hominibus": 3409,
      "dingen": 3410,
      "ihesum": 3411,
      "##prob": 3412,
      "himilo": 3413,
      "nahtes": 3414,
      "##nific": 3415,
      "lerta": 3416,
      "uidetur": 3417,
      "patre": 3418,
      "prouidentia": 3419,
      "quinque": 3420,
      "socrates": 3421,
      "tabernac": 3422,
      "rhetor": 3423,
      "festi": 3424,
      "hac": 3425,
      "ner": 3426,
      "net": 3427,
      "penit": 3428,
      "ty": 3429,
      "uite": 3430,
      "wizz": 3431,
      "##uere": 3432,
      "##disti": 3433,
      "##ison": 3434,
      "##art": 3435,
      "##ulta": 3436,
      "suos": 3437,
      "habda": 3438,
      "habdun": 3439,
      "reuer": 3440,
      "##lichemo": 3441,
      "##ortun": 3442,
      "bidiu": 3443,
      "coram": 3444,
      "intro": 3445,
      "##antia": 3446,
      "secund": 3447,
      "suscip": 3448,
      "thanana": 3449,
      "superb": 3450,
      "brut": 3451,
      "kesk": 3452,
      "##isken": 3453,
      "##innan": 3454,
      "luk": 3455,
      "corporis": 3456,
      "muote": 3457,
      "populi": 3458,
      "worolti": 3459,
      "chome": 3460,
      "bilde": 3461,
      "nolite": 3462,
      "contingit": 3463,
      "luzzel": 3464,
      "cop": 3465,
      "haz": 3466,
      "kib": 3467,
      "mat": 3468,
      "niu": 3469,
      "tan": 3470,
      "tiz": 3471,
      "##ea": 3472,
      "##ðu": 3473,
      "##ði": 3474,
      "##enan": 3475,
      "##anas": 3476,
      "uuat": 3477,
      "##oth": 3478,
      "supra": 3479,
      "minist": 3480,
      "rev": 3481,
      "##lichiu": 3482,
      "thesen": 3483,
      "terren": 3484,
      "quami": 3485,
      "sump": 3486,
      "##keiden": 3487,
      "allez": 3488,
      "uuillo": 3489,
      "heileg": 3490,
      "wart": 3491,
      "dixi": 3492,
      "sanctus": 3493,
      "##tharpa": 3494,
      "possunt": 3495,
      "iungoron": 3496,
      "minnon": 3497,
      "minnota": 3498,
      "quedam": 3499,
      "fruma": 3500,
      "labor": 3501,
      "iuuuih": 3502,
      "antlingita": 3503,
      "oportet": 3504,
      "exaudi": 3505,
      "blu": 3506,
      "iug": 3507,
      "ore": 3508,
      "rap": 3509,
      "ratione": 3510,
      "wur": 3511,
      "zalta": 3512,
      "##iem": 3513,
      "##bon": 3514,
      "##tost": 3515,
      "##hit": 3516,
      "##ƀan": 3517,
      "##enim": 3518,
      "unch": 3519,
      "chor": 3520,
      "##ihit": 3521,
      "##olog": 3522,
      "suiðo": 3523,
      "manu": 3524,
      "irw": 3525,
      "unseren": 3526,
      "##lichun": 3527,
      "lex": 3528,
      "##antium": 3529,
      "interp": 3530,
      "accep": 3531,
      "unrehte": 3532,
      "heilig": 3533,
      "##sami": 3534,
      "richi": 3535,
      "##itudine": 3536,
      "vvur": 3537,
      "sizzent": 3538,
      "##criben": 3539,
      "thegan": 3540,
      "stimma": 3541,
      "helið": 3542,
      "abbas": 3543,
      "cast": 3544,
      "nie": 3545,
      "son": 3546,
      "tem": 3547,
      "##iang": 3548,
      "##eper": 3549,
      "##bent": 3550,
      "##sper": 3551,
      "##oen": 3552,
      "##ode": 3553,
      "##onam": 3554,
      "thor": 3555,
      "inuen": 3556,
      "anti": 3557,
      "##antis": 3558,
      "##ecti": 3559,
      "##redi": 3560,
      "scaz": 3561,
      "adam": 3562,
      "##inga": 3563,
      "dictum": 3564,
      "vuar": 3565,
      "intra": 3566,
      "liuto": 3567,
      "uueist": 3568,
      "sancte": 3569,
      "finst": 3570,
      "mahte": 3571,
      "##innet": 3572,
      "nostris": 3573,
      "numquam": 3574,
      "discipulis": 3575,
      "singul": 3576,
      "zeseuu": 3577,
      "fernim": 3578,
      "principes": 3579,
      "gumono": 3580,
      "uuazzer": 3581,
      "quhad": 3582,
      "lichamon": 3583,
      "rokkon": 3584,
      "respondens": 3585,
      "conspectu": 3586,
      "kis": 3587,
      "lam": 3588,
      "munt": 3589,
      "mamm": 3590,
      "naz": 3591,
      "pen": 3592,
      "uitam": 3593,
      "##batur": 3594,
      "dig": 3595,
      "unta": 3596,
      "##chot": 3597,
      "ano": 3598,
      "sinu": 3599,
      "sineru": 3600,
      "supp": 3601,
      "gedan": 3602,
      "scalt": 3603,
      "herren": 3604,
      "iuih": 3605,
      "einero": 3606,
      "tein": 3607,
      "ferm": 3608,
      "##tigen": 3609,
      "kelih": 3610,
      "##ellen": 3611,
      "##alibus": 3612,
      "##uerit": 3613,
      "genada": 3614,
      "##endam": 3615,
      "contin": 3616,
      "susp": 3617,
      "uirtus": 3618,
      "wolta": 3619,
      "mortis": 3620,
      "blin": 3621,
      "berg": 3622,
      "scientia": 3623,
      "domus": 3624,
      "apostoli": 3625,
      "todes": 3626,
      "zellu": 3627,
      "danan": 3628,
      "conuert": 3629,
      "cuncta": 3630,
      "iudas": 3631,
      "pedes": 3632,
      "dere": 3633,
      "domo": 3634,
      "ed": 3635,
      "ezz": 3636,
      "hou": 3637,
      "kan": 3638,
      "lag": 3639,
      "rihti": 3640,
      "sli": 3641,
      "##udo": 3642,
      "##rin": 3643,
      "##erna": 3644,
      "##umes": 3645,
      "quer": 3646,
      "##rom": 3647,
      "##idet": 3648,
      "##icus": 3649,
      "ird": 3650,
      "giqu": 3651,
      "proxim": 3652,
      "arist": 3653,
      "##iche": 3654,
      "##geben": 3655,
      "leide": 3656,
      "leben": 3657,
      "fiat": 3658,
      "grad": 3659,
      "sermon": 3660,
      "ellu": 3661,
      "opus": 3662,
      "urteil": 3663,
      "##issimum": 3664,
      "circa": 3665,
      "precep": 3666,
      "inimici": 3667,
      "constit": 3668,
      "iniquitatem": 3669,
      "assign": 3670,
      "suscep": 3671,
      "hauoron": 3672,
      "chrefte": 3673,
      "zueio": 3674,
      "aet": 3675,
      "cat": 3676,
      "fah": 3677,
      "ghe": 3678,
      "ioseph": 3679,
      "kar": 3680,
      "lande": 3681,
      "pub": 3682,
      "ros": 3683,
      "tin": 3684,
      "vis": 3685,
      "##uos": 3686,
      "##su": 3687,
      "##huu": 3688,
      "##zit": 3689,
      "##erun": 3690,
      "uuissa": 3691,
      "##undo": 3692,
      "##alo": 3693,
      "##entemo": 3694,
      "##uuen": 3695,
      "##uuir": 3696,
      "chos": 3697,
      "chiuu": 3698,
      "##abuntur": 3699,
      "##abilis": 3700,
      "suert": 3701,
      "##red": 3702,
      "minime": 3703,
      "exerc": 3704,
      "nub": 3705,
      "mihh": 3706,
      "beidiu": 3707,
      "##issent": 3708,
      "samen": 3709,
      "facie": 3710,
      "sume": 3711,
      "umb": 3712,
      "siue": 3713,
      "##iderunt": 3714,
      "gibar": 3715,
      "anime": 3716,
      "atqui": 3717,
      "iudeo": 3718,
      "modus": 3719,
      "ufen": 3720,
      "turh": 3721,
      "ecclesie": 3722,
      "differ": 3723,
      "giengun": 3724,
      "liudiun": 3725,
      "latine": 3726,
      "muoz": 3727,
      "burgi": 3728,
      "disput": 3729,
      "teneb": 3730,
      "##modum": 3731,
      "uureð": 3732,
      "dat": 3733,
      "gant": 3734,
      "gentibus": 3735,
      "gentium": 3736,
      "horum": 3737,
      "huue": 3738,
      "lir": 3739,
      "mentis": 3740,
      "peg": 3741,
      "##odes": 3742,
      "##odem": 3743,
      "dup": 3744,
      "sede": 3745,
      "arabe": 3746,
      "priu": 3747,
      "kef": 3748,
      "trit": 3749,
      "gisc": 3750,
      "rehtes": 3751,
      "solta": 3752,
      "antw": 3753,
      "thuru": 3754,
      "uberm": 3755,
      "dinge": 3756,
      "nemugen": 3757,
      "horn": 3758,
      "nox": 3759,
      "psall": 3760,
      "ubelo": 3761,
      "populum": 3762,
      "lieb": 3763,
      "sensus": 3764,
      "fortuna": 3765,
      "hilf": 3766,
      "quicquid": 3767,
      "hello": 3768,
      "ces": 3769,
      "eoc": 3770,
      "fug": 3771,
      "iag": 3772,
      "kir": 3773,
      "poti": 3774,
      "rog": 3775,
      "surg": 3776,
      "widar": 3777,
      "##rab": 3778,
      "##ses": 3779,
      "##mis": 3780,
      "##anum": 3781,
      "##anus": 3782,
      "##anah": 3783,
      "quecumque": 3784,
      "ann": 3785,
      "##dia": 3786,
      "##ident": 3787,
      "##iehet": 3788,
      "##utor": 3789,
      "##ista": 3790,
      "estis": 3791,
      "medium": 3792,
      "irl": 3793,
      "##teſ": 3794,
      "##rup": 3795,
      "deru": 3796,
      "terr": 3797,
      "aliis": 3798,
      "##kean": 3799,
      "faren": 3800,
      "gilo": 3801,
      "firn": 3802,
      "male": 3803,
      "elem": 3804,
      "sculdig": 3805,
      "doctr": 3806,
      "inpossibile": 3807,
      "pharise": 3808,
      "volunt": 3809,
      "quatuor": 3810,
      "propria": 3811,
      "murm": 3812,
      "auer": 3813,
      "dato": 3814,
      "eigen": 3815,
      "gina": 3816,
      "garo": 3817,
      "hende": 3818,
      "lx": 3819,
      "mou": 3820,
      "uox": 3821,
      "vitam": 3822,
      "##cus": 3823,
      "##inden": 3824,
      "inb": 3825,
      "uuuo": 3826,
      "uuint": 3827,
      "souu": 3828,
      "##iug": 3829,
      "##asc": 3830,
      "chib": 3831,
      "enunti": 3832,
      "irg": 3833,
      "##entiu": 3834,
      "gotis": 3835,
      "##ella": 3836,
      "trag": 3837,
      "pars": 3838,
      "uuordo": 3839,
      "##tha": 3840,
      "iuuua": 3841,
      "uuizent": 3842,
      "luz": 3843,
      "cael": 3844,
      "redo": 3845,
      "muotes": 3846,
      "##ositio": 3847,
      "lazet": 3848,
      "itaque": 3849,
      "totum": 3850,
      "prae": 3851,
      "praec": 3852,
      "psalmvs": 3853,
      "quaðun": 3854,
      "dadi": 3855,
      "ignis": 3856,
      "misericordiam": 3857,
      "beatitudinem": 3858,
      "falsum": 3859,
      "deprec": 3860,
      "mandata": 3861,
      "delect": 3862,
      "donec": 3863,
      "amplius": 3864,
      "tuentich": 3865,
      "10": 3866,
      "cul": 3867,
      "edi": 3868,
      "mundum": 3869,
      "sle": 3870,
      "toll": 3871,
      "zuu": 3872,
      "##nessi": 3873,
      "##sti": 3874,
      "##hal": 3875,
      "##erant": 3876,
      "##eretur": 3877,
      "##uni": 3878,
      "##aze": 3879,
      "##azt": 3880,
      "##uri": 3881,
      "erlos": 3882,
      "##entus": 3883,
      "##ibvs": 3884,
      "tuas": 3885,
      "geli": 3886,
      "minu": 3887,
      "diuin": 3888,
      "##rac": 3889,
      "forhta": 3890,
      "iuda": 3891,
      "thesemo": 3892,
      "selbero": 3893,
      "magna": 3894,
      "solti": 3895,
      "folke": 3896,
      "##annes": 3897,
      "thinan": 3898,
      "consul": 3899,
      "ipsis": 3900,
      "giuuiz": 3901,
      "possit": 3902,
      "locutus": 3903,
      "scoldi": 3904,
      "bigan": 3905,
      "nesi": 3906,
      "mortem": 3907,
      "truhtine": 3908,
      "iudicio": 3909,
      "skein": 3910,
      "barno": 3911,
      "nulla": 3912,
      "xxx": 3913,
      "ewin": 3914,
      "demonstr": 3915,
      "eteuuaz": 3916,
      "testimonium": 3917,
      "sternen": 3918,
      "leibo": 3919,
      "potius": 3920,
      "ben": 3921,
      "datun": 3922,
      "eloqu": 3923,
      "fare": 3924,
      "iar": 3925,
      "nibi": 3926,
      "ora": 3927,
      "uon": 3928,
      "uet": 3929,
      "##uan": 3930,
      "##nan": 3931,
      "##sis": 3932,
      "##ins": 3933,
      "##iton": 3934,
      "thrit": 3935,
      "uuif": 3936,
      "##ordan": 3937,
      "etelich": 3938,
      "##chin": 3939,
      "erl": 3940,
      "erunt": 3941,
      "erbe": 3942,
      "##digen": 3943,
      "alten": 3944,
      "nehab": 3945,
      "deinde": 3946,
      "tuos": 3947,
      "meg": 3948,
      "meas": 3949,
      "irre": 3950,
      "uuarheite": 3951,
      "ador": 3952,
      "goto": 3953,
      "unsere": 3954,
      "ferah": 3955,
      "preter": 3956,
      "magnific": 3957,
      "##altun": 3958,
      "##ehsel": 3959,
      "rehten": 3960,
      "pechenn": 3961,
      "antuu": 3962,
      "##izzen": 3963,
      "##itias": 3964,
      "giuuet": 3965,
      "malteſ": 3966,
      "aliquo": 3967,
      "andr": 3968,
      "##innen": 3969,
      "naturam": 3970,
      "bluot": 3971,
      "circul": 3972,
      "singent": 3973,
      "tuonne": 3974,
      "machont": 3975,
      "oculi": 3976,
      "futura": 3977,
      "geskihet": 3978,
      "uzzer": 3979,
      "leoht": 3980,
      "hlut": 3981,
      "public": 3982,
      "cad": 3983,
      "cra": 3984,
      "dana": 3985,
      "gal": 3986,
      "ii": 3987,
      "kne": 3988,
      "mol": 3989,
      "matr": 3990,
      "nar": 3991,
      "nul": 3992,
      "ov": 3993,
      "ra": 3994,
      "sant": 3995,
      "ual": 3996,
      "uig": 3997,
      "##non": 3998,
      "##ts": 3999,
      "##fac": 4000,
      "##onte": 4001,
      "##itatibus": 4002,
      "##arent": 4003,
      "##tiz": 4004,
      "sil": 4005,
      "##libus": 4006,
      "##libet": 4007,
      "##otum": 4008,
      "etenim": 4009,
      "ange": 4010,
      "sos": 4011,
      "##idis": 4012,
      "##ahit": 4013,
      "imper": 4014,
      "##edere": 4015,
      "uueret": 4016,
      "prosper": 4017,
      "allu": 4018,
      "vuir": 4019,
      "gescriben": 4020,
      "simp": 4021,
      "salv": 4022,
      "habeton": 4023,
      "filio": 4024,
      "iusti": 4025,
      "moy": 4026,
      "##modi": 4027,
      "cogno": 4028,
      "ougun": 4029,
      "uolup": 4030,
      "populo": 4031,
      "ginuag": 4032,
      "ingegin": 4033,
      "selƀon": 4034,
      "septem": 4035,
      "uualdandes": 4036,
      "ungeuu": 4037,
      "opposita": 4038,
      "ewon": 4039,
      "angelus": 4040,
      "eigun": 4041,
      "mulier": 4042,
      "bono": 4043,
      "cath": 4044,
      "demu": 4045,
      "uita": 4046,
      "##uar": 4047,
      "##not": 4048,
      "##mu": 4049,
      "##erte": 4050,
      "thius": 4051,
      "##esam": 4052,
      "##arem": 4053,
      "uuig": 4054,
      "uuest": 4055,
      "##tius": 4056,
      "siin": 4057,
      "##amin": 4058,
      "diuu": 4059,
      "uno": 4060,
      "##urr": 4061,
      "##otost": 4062,
      "erest": 4063,
      "som": 4064,
      "nein": 4065,
      "##asun": 4066,
      "##omon": 4067,
      "chies": 4068,
      "##imo": 4069,
      "geg": 4070,
      "scin": 4071,
      "##ize": 4072,
      "duan": 4073,
      "stem": 4074,
      "##riuu": 4075,
      "hered": 4076,
      "ubele": 4077,
      "denario": 4078,
      "anderer": 4079,
      "##ennes": 4080,
      "##endere": 4081,
      "salda": 4082,
      "ubeli": 4083,
      "gihu": 4084,
      "gihal": 4085,
      "potentia": 4086,
      "iudeis": 4087,
      "minnont": 4088,
      "mannon": 4089,
      "dages": 4090,
      "disciplina": 4091,
      "riki": 4092,
      "sulen": 4093,
      "cristes": 4094,
      "verbum": 4095,
      "adiutor": 4096,
      "##ammati": 4097,
      "milti": 4098,
      "fundam": 4099,
      "sapientia": 4100,
      "thisiu": 4101,
      "irfull": 4102,
      "patri": 4103,
      "weiz": 4104,
      "freuui": 4105,
      "ordinem": 4106,
      "manifestum": 4107,
      "wesan": 4108,
      "agn": 4109,
      "frist": 4110,
      "gor": 4111,
      "gic": 4112,
      "hre": 4113,
      "ole": 4114,
      "ux": 4115,
      "viv": 4116,
      "zis": 4117,
      "zungun": 4118,
      "##iunc": 4119,
      "##hes": 4120,
      "##eno": 4121,
      "##item": 4122,
      "##esen": 4123,
      "##arus": 4124,
      "uuiti": 4125,
      "##unne": 4126,
      "##ame": 4127,
      "##iret": 4128,
      "tuge": 4129,
      "sco": 4130,
      "habde": 4131,
      "##ilicho": 4132,
      "stur": 4133,
      "uuerchen": 4134,
      "uueralti": 4135,
      "ext": 4136,
      "dicebant": 4137,
      "bezeichen": 4138,
      "ferti": 4139,
      "ferte": 4140,
      "##ahte": 4141,
      "iogi": 4142,
      "dise": 4143,
      "disper": 4144,
      "genuit": 4145,
      "solum": 4146,
      "grab": 4147,
      "grammati": 4148,
      "##izze": 4149,
      "regn": 4150,
      "propri": 4151,
      "prep": 4152,
      "getuot": 4153,
      "##aldan": 4154,
      "drin": 4155,
      "nature": 4156,
      "angegin": 4157,
      "cup": 4158,
      "illius": 4159,
      "rike": 4160,
      "giloubet": 4161,
      "praes": 4162,
      "innoc": 4163,
      "excel": 4164,
      "geskehen": 4165,
      "helfa": 4166,
      "uier": 4167,
      "tisiu": 4168,
      "accidentia": 4169,
      "willen": 4170,
      "alawar": 4171,
      "testamentum": 4172,
      "uuistuom": 4173,
      "rihhi": 4174,
      "ah": 4175,
      "bat": 4176,
      "bitt": 4177,
      "eodem": 4178,
      "fant": 4179,
      "fine": 4180,
      "huuer": 4181,
      "handen": 4182,
      "ioman": 4183,
      "lit": 4184,
      "liden": 4185,
      "uore": 4186,
      "ull": 4187,
      "ware": 4188,
      "zach": 4189,
      "ſc": 4190,
      "##uel": 4191,
      "##cuning": 4192,
      "##aph": 4193,
      "##ex": 4194,
      "##zug": 4195,
      "##tium": 4196,
      "##did": 4197,
      "##ohti": 4198,
      "manum": 4199,
      "##ahh": 4200,
      "##reit": 4201,
      "tuorum": 4202,
      "niomer": 4203,
      "##iad": 4204,
      "##estis": 4205,
      "abiit": 4206,
      "selts": 4207,
      "explic": 4208,
      "see": 4209,
      "thesaru": 4210,
      "quippe": 4211,
      "##obus": 4212,
      "omnino": 4213,
      "gesið": 4214,
      "alius": 4215,
      "cordis": 4216,
      "##ionibus": 4217,
      "farl": 4218,
      "fart": 4219,
      "guato": 4220,
      "grim": 4221,
      "bonorum": 4222,
      "dhar": 4223,
      "proprium": 4224,
      "middil": 4225,
      "##scaf": 4226,
      "aliquando": 4227,
      "morte": 4228,
      "currit": 4229,
      "sehent": 4230,
      "ahton": 4231,
      "substantiam": 4232,
      "turba": 4233,
      "manigi": 4234,
      "specie": 4235,
      "buah": 4236,
      "psalmus": 4237,
      "vidit": 4238,
      "pilde": 4239,
      "nocte": 4240,
      "peccatorum": 4241,
      "carnis": 4242,
      "bechennet": 4243,
      "retrib": 4244,
      "fulg": 4245,
      "inimicos": 4246,
      "multiplic": 4247,
      "iudæ": 4248,
      "ferloren": 4249,
      "dextera": 4250,
      "evangeli": 4251,
      "zeichan": 4252,
      "middilgar": 4253,
      "ade": 4254,
      "cens": 4255,
      "caro": 4256,
      "ec": 4257,
      "ele": 4258,
      "ire": 4259,
      "iordan": 4260,
      "lin": 4261,
      "lihh": 4262,
      "ok": 4263,
      "ren": 4264,
      "rot": 4265,
      "uia": 4266,
      "zor": 4267,
      "##ios": 4268,
      "##rag": 4269,
      "##eat": 4270,
      "##bem": 4271,
      "##dot": 4272,
      "##hol": 4273,
      "##zan": 4274,
      "##mit": 4275,
      "##mun": 4276,
      "##fun": 4277,
      "##erot": 4278,
      "##amn": 4279,
      "##uuan": 4280,
      "##idon": 4281,
      "nef": 4282,
      "##ulorum": 4283,
      "deorum": 4284,
      "nig": 4285,
      "habes": 4286,
      "adv": 4287,
      "forhtun": 4288,
      "##rific": 4289,
      "dare": 4290,
      "##ationum": 4291,
      "samb": 4292,
      "sundig": 4293,
      "frig": 4294,
      "gisið": 4295,
      "farent": 4296,
      "huic": 4297,
      "regno": 4298,
      "plan": 4299,
      "##avi": 4300,
      "ipsius": 4301,
      "skin": 4302,
      "multum": 4303,
      "uuelda": 4304,
      "uuelle": 4305,
      "salige": 4306,
      "peccator": 4307,
      "mundo": 4308,
      "##issima": 4309,
      "nomina": 4310,
      "sulun": 4311,
      "riches": 4312,
      "berge": 4313,
      "qualitates": 4314,
      "emm": 4315,
      "##itudinis": 4316,
      "repugn": 4317,
      "uuillean": 4318,
      "nullus": 4319,
      "sapiens": 4320,
      "paulus": 4321,
      "scriptum": 4322,
      "##ouuiht": 4323,
      "##skepi": 4324,
      "gisehan": 4325,
      "tamquam": 4326,
      "diffinitio": 4327,
      "gagene": 4328,
      "assump": 4329,
      "eoco": 4330,
      "denarioſ": 4331,
      "11": 4332,
      "bel": 4333,
      "fing": 4334,
      "iii": 4335,
      "kat": 4336,
      "kih": 4337,
      "mel": 4338,
      "of": 4339,
      "##uig": 4340,
      "##að": 4341,
      "##bro": 4342,
      "##pis": 4343,
      "##dent": 4344,
      "##her": 4345,
      "uuiss": 4346,
      "##atam": 4347,
      "##uuiz": 4348,
      "chund": 4349,
      "##ihtig": 4350,
      "##utum": 4351,
      "dehein": 4352,
      "##iston": 4353,
      "megin": 4354,
      "##icis": 4355,
      "nondum": 4356,
      "scri": 4357,
      "scein": 4358,
      "##admodum": 4359,
      "##ruc": 4360,
      "##inge": 4361,
      "uuanent": 4362,
      "einlu": 4363,
      "allan": 4364,
      "nupti": 4365,
      "beati": 4366,
      "perhib": 4367,
      "kehe": 4368,
      "suntig": 4369,
      "frater": 4370,
      "genam": 4371,
      "bipes": 4372,
      "obl": 4373,
      "faran": 4374,
      "ordin": 4375,
      "dhemu": 4376,
      "plus": 4377,
      "druhtine": 4378,
      "uuorto": 4379,
      "iudeon": 4380,
      "unzan": 4381,
      "morta": 4382,
      "quemadmodum": 4383,
      "urch": 4384,
      "redina": 4385,
      "sculde": 4386,
      "himiles": 4387,
      "unges": 4388,
      "steti": 4389,
      "recip": 4390,
      "clar": 4391,
      "longe": 4392,
      "uuizzen": 4393,
      "cruce": 4394,
      "spreh": 4395,
      "fernomen": 4396,
      "euangeli": 4397,
      "arbeit": 4398,
      "gratiam": 4399,
      "falsa": 4400,
      "philolog": 4401,
      "hinder": 4402,
      "panem": 4403,
      "haƀad": 4404,
      "contrariis": 4405,
      "handun": 4406,
      "zuiuel": 4407,
      "interpret": 4408,
      "mihhil": 4409,
      "antwurti": 4410,
      "middilgard": 4411,
      "biz": 4412,
      "purg": 4413,
      "rad": 4414,
      "##tet": 4415,
      "##fal": 4416,
      "##inu": 4417,
      "##ese": 4418,
      "##estig": 4419,
      "##ise": 4420,
      "##iske": 4421,
      "##eme": 4422,
      "##otan": 4423,
      "anag": 4424,
      "##entan": 4425,
      "##aso": 4426,
      "##osi": 4427,
      "##ohe": 4428,
      "##ohet": 4429,
      "manibus": 4430,
      "tuost": 4431,
      "nieman": 4432,
      "mittil": 4433,
      "##egnes": 4434,
      "##esto": 4435,
      "ford": 4436,
      "gik": 4437,
      "thare": 4438,
      "uuirs": 4439,
      "selbiu": 4440,
      "dicta": 4441,
      "##ostun": 4442,
      "sunes": 4443,
      "disemo": 4444,
      "ueritatem": 4445,
      "biw": 4446,
      "gibit": 4447,
      "parad": 4448,
      "sagent": 4449,
      "mox": 4450,
      "guotes": 4451,
      "scalc": 4452,
      "uuerode": 4453,
      "gimuati": 4454,
      "ihesu": 4455,
      "uueldun": 4456,
      "mendi": 4457,
      "heiligon": 4458,
      "geme": 4459,
      "hohi": 4460,
      "faciunt": 4461,
      "potestatem": 4462,
      "compar": 4463,
      "huuanta": 4464,
      "presens": 4465,
      "fidei": 4466,
      "constitu": 4467,
      "##iune": 4468,
      "##hafti": 4469,
      "satanas": 4470,
      "ordine": 4471,
      "persecu": 4472,
      "tertia": 4473,
      "lengi": 4474,
      "antuurt": 4475,
      "jungoron": 4476,
      "gheist": 4477,
      "12": 4478,
      "fab": 4479,
      "gilih": 4480,
      "jesus": 4481,
      "kauu": 4482,
      "lih": 4483,
      "nib": 4484,
      "ot": 4485,
      "tul": 4486,
      "tec": 4487,
      "ſoli": 4488,
      "##ierunt": 4489,
      "##rn": 4490,
      "##bantur": 4491,
      "##pet": 4492,
      "##tvs": 4493,
      "##tura": 4494,
      "##erint": 4495,
      "##enun": 4496,
      "##itte": 4497,
      "##arf": 4498,
      "##tia": 4499,
      "##atores": 4500,
      "##dige": 4501,
      "soli": 4502,
      "ald": 4503,
      "chist": 4504,
      "##agun": 4505,
      "##ulti": 4506,
      "##ahent": 4507,
      "geuuar": 4508,
      "medit": 4509,
      "##egit": 4510,
      "scone": 4511,
      "irsl": 4512,
      "##ester": 4513,
      "duobus": 4514,
      "##ilibus": 4515,
      "fernum": 4516,
      "ferlaz": 4517,
      "##ationi": 4518,
      "kech": 4519,
      "fiund": 4520,
      "##ellet": 4521,
      "quadr": 4522,
      "ueritas": 4523,
      "faru": 4524,
      "parte": 4525,
      "partibus": 4526,
      "christe": 4527,
      "antk": 4528,
      "thinen": 4529,
      "reges": 4530,
      "superi": 4531,
      "consol": 4532,
      "geba": 4533,
      "firiho": 4534,
      "flum": 4535,
      "fluc": 4536,
      "gelob": 4537,
      "driu": 4538,
      "petro": 4539,
      "managfalt": 4540,
      "semen": 4541,
      "redd": 4542,
      "stuol": 4543,
      "stuant": 4544,
      "ahte": 4545,
      "##issimi": 4546,
      "frew": 4547,
      "uuega": 4548,
      "circ": 4549,
      "max": 4550,
      "gidan": 4551,
      "sacrific": 4552,
      "iudicia": 4553,
      "embar": 4554,
      "psalmi": 4555,
      "menniscen": 4556,
      "saligheit": 4557,
      "rihtuom": 4558,
      "relati": 4559,
      "beatitudo": 4560,
      "zellen": 4561,
      "starchi": 4562,
      "sequitur": 4563,
      "baptiz": 4564,
      "fructum": 4565,
      "egypto": 4566,
      "penningo": 4567,
      "##ressus": 4568,
      "monasterio": 4569,
      "cicero": 4570,
      "gerſtinaſ": 4571,
      "ced": 4572,
      "evm": 4573,
      "feh": 4574,
      "gere": 4575,
      "ioc": 4576,
      "kal": 4577,
      "kund": 4578,
      "nob": 4579,
      "ram": 4580,
      "uob": 4581,
      "vita": 4582,
      "##nissi": 4583,
      "##ƀi": 4584,
      "##ƀen": 4585,
      "##lie": 4586,
      "##lici": 4587,
      "##aman": 4588,
      "dial": 4589,
      "##elen": 4590,
      "erh": 4591,
      "##uuiht": 4592,
      "ista": 4593,
      "iste": 4594,
      "chius": 4595,
      "##anter": 4596,
      "suig": 4597,
      "gei": 4598,
      "medic": 4599,
      "##eget": 4600,
      "gota": 4601,
      "extr": 4602,
      "seli": 4603,
      "arb": 4604,
      "feret": 4605,
      "ferch": 4606,
      "prest": 4607,
      "magnum": 4608,
      "gesaget": 4609,
      "##ellum": 4610,
      "tribus": 4611,
      "contur": 4612,
      "orn": 4613,
      "uuila": 4614,
      "harm": 4615,
      "consum": 4616,
      "gihug": 4617,
      "respic": 4618,
      "modio": 4619,
      "brusti": 4620,
      "malis": 4621,
      "possib": 4622,
      "heilante": 4623,
      "access": 4624,
      "huse": 4625,
      "liohte": 4626,
      "lazarus": 4627,
      "faciat": 4628,
      "decem": 4629,
      "similis": 4630,
      "mennisko": 4631,
      "nimis": 4632,
      "uocem": 4633,
      "gizami": 4634,
      "appro": 4635,
      "armen": 4636,
      "paulo": 4637,
      "fortune": 4638,
      "haltare": 4639,
      "lichamo": 4640,
      "ceteris": 4641,
      "gedingi": 4642,
      "giscriban": 4643,
      "suffici": 4644,
      "absol": 4645,
      "dulc": 4646,
      "##cuius": 4647,
      "tegegnes": 4648,
      "aetern": 4649,
      "auc": 4650,
      "auuar": 4651,
      "biu": 4652,
      "citi": 4653,
      "cern": 4654,
      "fag": 4655,
      "fader": 4656,
      "hinnan": 4657,
      "kiuu": 4658,
      "lis": 4659,
      "oda": 4660,
      "satis": 4661,
      "tal": 4662,
      "uit": 4663,
      "uos": 4664,
      "ueh": 4665,
      "vm": 4666,
      "vig": 4667,
      "viam": 4668,
      "verum": 4669,
      "##lun": 4670,
      "##lend": 4671,
      "##uiu": 4672,
      "##rio": 4673,
      "##bil": 4674,
      "##terea": 4675,
      "##kid": 4676,
      "##ſt": 4677,
      "##xerunt": 4678,
      "##ank": 4679,
      "##ines": 4680,
      "##inot": 4681,
      "##itionem": 4682,
      "indig": 4683,
      "uualt": 4684,
      "##liez": 4685,
      "diap": 4686,
      "##ilit": 4687,
      "##uuu": 4688,
      "##ibilis": 4689,
      "tuom": 4690,
      "gebe": 4691,
      "heit": 4692,
      "einiu": 4693,
      "esa": 4694,
      "selber": 4695,
      "beð": 4696,
      "bezz": 4697,
      "fert": 4698,
      "utrum": 4699,
      "primus": 4700,
      "illic": 4701,
      "##ahton": 4702,
      "lef": 4703,
      "lebet": 4704,
      "quoddam": 4705,
      "andera": 4706,
      "disa": 4707,
      "obana": 4708,
      "salu": 4709,
      "peidiu": 4710,
      "gress": 4711,
      "dhiu": 4712,
      "regen": 4713,
      "uuolti": 4714,
      "propterea": 4715,
      "gilou": 4716,
      "##ebit": 4717,
      "modi": 4718,
      "sanctorum": 4719,
      "templo": 4720,
      "iuuer": 4721,
      "phili": 4722,
      "queman": 4723,
      "redinon": 4724,
      "sehan": 4725,
      "daga": 4726,
      "monach": 4727,
      "toto": 4728,
      "sule": 4729,
      "compl": 4730,
      "imple": 4731,
      "uuellest": 4732,
      "verba": 4733,
      "mugin": 4734,
      "occid": 4735,
      "honor": 4736,
      "braht": 4737,
      "vestra": 4738,
      "uund": 4739,
      "arbeite": 4740,
      "uuehsal": 4741,
      "dimitt": 4742,
      "accidens": 4743,
      "bethiu": 4744,
      "uuerðan": 4745,
      "lumen": 4746,
      "casus": 4747,
      "uniuersaliter": 4748,
      "maior": 4749,
      "motus": 4750,
      "uppan": 4751,
      "behuot": 4752,
      "montes": 4753,
      "svper": 4754,
      "luna": 4755,
      "conclusio": 4756,
      "dhea": 4757,
      "##ouget": 4758,
      "modioſ": 4759,
      "ba": 4760,
      "cam": 4761,
      "drost": 4762,
      "gre": 4763,
      "hore": 4764,
      "iehen": 4765,
      "lif": 4766,
      "lante": 4767,
      "mente": 4768,
      "on": 4769,
      "pes": 4770,
      "roman": 4771,
      "rauu": 4772,
      "trist": 4773,
      "uider": 4774,
      "##stig": 4775,
      "##hi": 4776,
      "##verunt": 4777,
      "##xta": 4778,
      "##isa": 4779,
      "indu": 4780,
      "##arie": 4781,
      "##umus": 4782,
      "##sto": 4783,
      "##sten": 4784,
      "siben": 4785,
      "sibun": 4786,
      "##azta": 4787,
      "##decim": 4788,
      "##urus": 4789,
      "##hto": 4790,
      "##illi": 4791,
      "##uuon": 4792,
      "singen": 4793,
      "neo": 4794,
      "##abor": 4795,
      "sieh": 4796,
      "##uton": 4797,
      "deb": 4798,
      "mans": 4799,
      "maneg": 4800,
      "imagin": 4801,
      "##igun": 4802,
      "##adun": 4803,
      "##adot": 4804,
      "irlos": 4805,
      "dua": 4806,
      "selo": 4807,
      "adn": 4808,
      "spah": 4809,
      "spuotig": 4810,
      "heri": 4811,
      "extra": 4812,
      "uuirdo": 4813,
      "arstant": 4814,
      "peri": 4815,
      "quodsi": 4816,
      "##altan": 4817,
      "iog": 4818,
      "ioge": 4819,
      "quidit": 4820,
      "genera": 4821,
      "gengun": 4822,
      "namun": 4823,
      "liutin": 4824,
      "orationem": 4825,
      "regul": 4826,
      "sermo": 4827,
      "resurg": 4828,
      "modic": 4829,
      "mohta": 4830,
      "tempor": 4831,
      "templum": 4832,
      "iudeorum": 4833,
      "aufer": 4834,
      "##titudo": 4835,
      "unrehtes": 4836,
      "gifullit": 4837,
      "credit": 4838,
      "huses": 4839,
      "peccata": 4840,
      "egan": 4841,
      "hoho": 4842,
      "gange": 4843,
      "membra": 4844,
      "neuueder": 4845,
      "fernemen": 4846,
      "honestum": 4847,
      "ignor": 4848,
      "irster": 4849,
      "nullum": 4850,
      "kuotes": 4851,
      "quantum": 4852,
      "uirtutem": 4853,
      "gihorta": 4854,
      "leitet": 4855,
      "mundus": 4856,
      "forasago": 4857,
      "cetera": 4858,
      "heizzent": 4859,
      "testimonia": 4860,
      "##abilem": 4861,
      "sacerdotum": 4862,
      "zimber": 4863,
      "prud": 4864,
      "neuuirdet": 4865,
      "temper": 4866,
      "giquetan": 4867,
      "chiuuisso": 4868,
      "angeli": 4869,
      "mittilgar": 4870,
      "dissim": 4871,
      "guoti": 4872,
      "ku": 4873,
      "kip": 4874,
      "louf": 4875,
      "oph": 4876,
      "pir": 4877,
      "pisc": 4878,
      "rih": 4879,
      "weg": 4880,
      "ſuin": 4881,
      "##lag": 4882,
      "##cit": 4883,
      "##nos": 4884,
      "##rat": 4885,
      "##riu": 4886,
      "##rie": 4887,
      "##bvs": 4888,
      "##phe": 4889,
      "##tul": 4890,
      "##vv": 4891,
      "##ſſ": 4892,
      "##indet": 4893,
      "##itati": 4894,
      "##isgen": 4895,
      "##arb": 4896,
      "##lia": 4897,
      "quar": 4898,
      "diete": 4899,
      "##ilon": 4900,
      "##uuun": 4901,
      "chir": 4902,
      "##ima": 4903,
      "##ule": 4904,
      "##qua": 4905,
      "defic": 4906,
      "defec": 4907,
      "dedisti": 4908,
      "suaz": 4909,
      "tuent": 4910,
      "##icum": 4911,
      "##icam": 4912,
      "mitten": 4913,
      "irs": 4914,
      "irteil": 4915,
      "dubit": 4916,
      "forma": 4917,
      "uuannan": 4918,
      "giuuar": 4919,
      "dicat": 4920,
      "arst": 4921,
      "##ensio": 4922,
      "beit": 4923,
      "pron": 4924,
      "gesehen": 4925,
      "alicuius": 4926,
      "##onten": 4927,
      "sagde": 4928,
      "guates": 4929,
      "godo": 4930,
      "gram": 4931,
      "regni": 4932,
      "consili": 4933,
      "consci": 4934,
      "muas": 4935,
      "muates": 4936,
      "##itiis": 4937,
      "thurah": 4938,
      "seruus": 4939,
      "potentiam": 4940,
      "gehie": 4941,
      "temporis": 4942,
      "flag": 4943,
      "##gian": 4944,
      "kesc": 4945,
      "malo": 4946,
      "malos": 4947,
      "##epi": 4948,
      "uuerodes": 4949,
      "morgan": 4950,
      "confirm": 4951,
      "acced": 4952,
      "loug": 4953,
      "slahta": 4954,
      "lobon": 4955,
      "gemeine": 4956,
      "asp": 4957,
      "bigon": 4958,
      "numero": 4959,
      "manigiu": 4960,
      "predicati": 4961,
      "##mez": 4962,
      "habeti": 4963,
      "offic": 4964,
      "carne": 4965,
      "seni": 4966,
      "uoce": 4967,
      "liez": 4968,
      "##ethar": 4969,
      "sizzet": 4970,
      "liƀ": 4971,
      "gumon": 4972,
      "gisehet": 4973,
      "propositio": 4974,
      "futurum": 4975,
      "heizzet": 4976,
      "trac": 4977,
      "pulch": 4978,
      "grece": 4979,
      "heƀencuning": 4980,
      "neheina": 4981,
      "huldi": 4982,
      "magister": 4983,
      "numerus": 4984,
      "vmbe": 4985,
      "philipp": 4986,
      "adnunti": 4987,
      "danta": 4988,
      "eas": 4989,
      "fati": 4990,
      "fog": 4991,
      "huot": 4992,
      "iiii": 4993,
      "kuol": 4994,
      "lere": 4995,
      "most": 4996,
      "rect": 4997,
      "will": 4998,
      "##uant": 4999,
      "##cam": 5000,
      "##ik": 5001,
      "##aus": 5002,
      "##ger": 5003,
      "##muati": 5004,
      "##ƀo": 5005,
      "##erta": 5006,
      "##esper": 5007,
      "inuoc": 5008,
      "##usque": 5009,
      "##oter": 5010,
      "##elin": 5011,
      "##eles": 5012,
      "alouu": 5013,
      "##imur": 5014,
      "##abatur": 5015,
      "##ecus": 5016,
      "siehet": 5017,
      "debet": 5018,
      "medi": 5019,
      "niouuiht": 5020,
      "hear": 5021,
      "conp": 5022,
      "iuer": 5023,
      "tharf": 5024,
      "isa": 5025,
      "##ungan": 5026,
      "cumit": 5027,
      "fient": 5028,
      "fienden": 5029,
      "suno": 5030,
      "frono": 5031,
      "alio": 5032,
      "gisp": 5033,
      "obs": 5034,
      "solus": 5035,
      "##chendo": 5036,
      "libert": 5037,
      "nahor": 5038,
      "bonus": 5039,
      "regis": 5040,
      "geben": 5041,
      "##uuard": 5042,
      "tief": 5043,
      "aliquis": 5044,
      "##innent": 5045,
      "locus": 5046,
      "substantiis": 5047,
      "asaph": 5048,
      "miserere": 5049,
      "increp": 5050,
      "werk": 5051,
      "manigen": 5052,
      "##sama": 5053,
      "blint": 5054,
      "monte": 5055,
      "nominis": 5056,
      "impl": 5057,
      "altero": 5058,
      "presci": 5059,
      "pascha": 5060,
      "sazta": 5061,
      "keloub": 5062,
      "inuicem": 5063,
      "helfo": 5064,
      "uirtute": 5065,
      "bechennen": 5066,
      "dext": 5067,
      "aqua": 5068,
      "gahun": 5069,
      "cyth": 5070,
      "uuirðid": 5071,
      "uolupt": 5072,
      "tugede": 5073,
      "iogiuuelih": 5074,
      "atum": 5075,
      "bro": 5076,
      "ek": 5077,
      "fand": 5078,
      "fides": 5079,
      "nati": 5080,
      "natus": 5081,
      "ori": 5082,
      "ris": 5083,
      "sist": 5084,
      "tuu": 5085,
      "uere": 5086,
      "uari": 5087,
      "uilo": 5088,
      "##loub": 5089,
      "##con": 5090,
      "##cem": 5091,
      "##pere": 5092,
      "##git": 5093,
      "##dus": 5094,
      "##har": 5095,
      "##oedi": 5096,
      "##mum": 5097,
      "##itie": 5098,
      "inest": 5099,
      "inop": 5100,
      "##arun": 5101,
      "uuam": 5102,
      "##urn": 5103,
      "##chest": 5104,
      "erera": 5105,
      "##illen": 5106,
      "##entorum": 5107,
      "soci": 5108,
      "chur": 5109,
      "##imet": 5110,
      "##antan": 5111,
      "deduc": 5112,
      "suoh": 5113,
      "succ": 5114,
      "ente": 5115,
      "##rexit": 5116,
      "tug": 5117,
      "gegeben": 5118,
      "duom": 5119,
      "haba": 5120,
      "##ingtharpa": 5121,
      "reiz": 5122,
      "herton": 5123,
      "unsera": 5124,
      "##ften": 5125,
      "thesun": 5126,
      "beuu": 5127,
      "##osten": 5128,
      "ferit": 5129,
      "ubile": 5130,
      "kep": 5131,
      "fiure": 5132,
      "facti": 5133,
      "uerb": 5134,
      "##andan": 5135,
      "sollic": 5136,
      "parabol": 5137,
      "hue": 5138,
      "hareta": 5139,
      "serui": 5140,
      "gehug": 5141,
      "idis": 5142,
      "geuualtig": 5143,
      "uirgo": 5144,
      "##rehte": 5145,
      "finf": 5146,
      "finis": 5147,
      "##eps": 5148,
      "venerunt": 5149,
      "confund": 5150,
      "nostrum": 5151,
      "celorum": 5152,
      "curet": 5153,
      "corpora": 5154,
      "psalter": 5155,
      "declin": 5156,
      "kriste": 5157,
      "compreh": 5158,
      "carm": 5159,
      "intellectum": 5160,
      "##cumque": 5161,
      "skef": 5162,
      "causam": 5163,
      "geiste": 5164,
      "mariun": 5165,
      "signum": 5166,
      "iohannem": 5167,
      "segen": 5168,
      "starch": 5169,
      "passione": 5170,
      "angelis": 5171,
      "galilea": 5172,
      "gehorta": 5173,
      "contradictio": 5174,
      "##hafte": 5175,
      "plures": 5176,
      "descend": 5177,
      "significat": 5178,
      "lacrim": 5179,
      "iuno": 5180,
      "sternon": 5181,
      "gouma": 5182,
      "tinges": 5183,
      "diabolus": 5184,
      "abscondit": 5185,
      "doctrina": 5186,
      "ginada": 5187,
      "sambazt": 5188,
      "nibu": 5189,
      "maxime": 5190,
      "conturb": 5191,
      "iogilicho": 5192,
      "cert": 5193,
      "dot": 5194,
      "fidem": 5195,
      "hinc": 5196,
      "lide": 5197,
      "pis": 5198,
      "rur": 5199,
      "riu": 5200,
      "tit": 5201,
      "##uun": 5202,
      "##nas": 5203,
      "##bir": 5204,
      "##bunt": 5205,
      "##dest": 5206,
      "##habit": 5207,
      "##verit": 5208,
      "##fin": 5209,
      "##ƀid": 5210,
      "##anen": 5211,
      "##ones": 5212,
      "##esso": 5213,
      "##ume": 5214,
      "##etin": 5215,
      "##etas": 5216,
      "##stin": 5217,
      "unre": 5218,
      "##elit": 5219,
      "erip": 5220,
      "aliter": 5221,
      "##idan": 5222,
      "##agog": 5223,
      "##abile": 5224,
      "##igin": 5225,
      "scand": 5226,
      "irbar": 5227,
      "selbe": 5228,
      "sto": 5229,
      "adu": 5230,
      "spe": 5231,
      "##dera": 5232,
      "thesoro": 5233,
      "dicatur": 5234,
      "ard": 5235,
      "bechenne": 5236,
      "ferg": 5237,
      "termin": 5238,
      "vuele": 5239,
      "frido": 5240,
      "furdir": 5241,
      "sumus": 5242,
      "summa": 5243,
      "orden": 5244,
      "libro": 5245,
      "saluum": 5246,
      "christes": 5247,
      "bonos": 5248,
      "##tionibus": 5249,
      "thinun": 5250,
      "thinemo": 5251,
      "gihortun": 5252,
      "uelut": 5253,
      "##averit": 5254,
      "mode": 5255,
      "firin": 5256,
      "giuuer": 5257,
      "giuuald": 5258,
      "gla": 5259,
      "##unnon": 5260,
      "##unnies": 5261,
      "celesti": 5262,
      "sluog": 5263,
      "apoll": 5264,
      "uuurten": 5265,
      "sehs": 5266,
      "cuð": 5267,
      "dage": 5268,
      "##issime": 5269,
      "decl": 5270,
      "duodecim": 5271,
      "nimet": 5272,
      "herodes": 5273,
      "dauides": 5274,
      "relinqu": 5275,
      "gagenuuer": 5276,
      "festin": 5277,
      "iudicii": 5278,
      "carnem": 5279,
      "irhug": 5280,
      "uuillion": 5281,
      "bringet": 5282,
      "dilec": 5283,
      "montem": 5284,
      "suarz": 5285,
      "gechose": 5286,
      "sunderigo": 5287,
      "furhtent": 5288,
      "gold": 5289,
      "duplum": 5290,
      "dit": 5291,
      "dest": 5292,
      "fun": 5293,
      "fatum": 5294,
      "guo": 5295,
      "gara": 5296,
      "kah": 5297,
      "kre": 5298,
      "kle": 5299,
      "lav": 5300,
      "pol": 5301,
      "peh": 5302,
      "past": 5303,
      "pall": 5304,
      "pitt": 5305,
      "rin": 5306,
      "svm": 5307,
      "tat": 5308,
      "tol": 5309,
      "via": 5310,
      "vider": 5311,
      "##rot": 5312,
      "##rent": 5313,
      "##rorum": 5314,
      "##ku": 5315,
      "##zun": 5316,
      "##ve": 5317,
      "##ania": 5318,
      "##areth": 5319,
      "##unna": 5320,
      "##amur": 5321,
      "##ures": 5322,
      "##urah": 5323,
      "##ira": 5324,
      "##enton": 5325,
      "##uuel": 5326,
      "sinera": 5327,
      "##idero": 5328,
      "##iuoc": 5329,
      "neuuer": 5330,
      "nequit": 5331,
      "chind": 5332,
      "##iebat": 5333,
      "##untes": 5334,
      "##untun": 5335,
      "ene": 5336,
      "enon": 5337,
      "##igan": 5338,
      "##edon": 5339,
      "##edem": 5340,
      "uuarth": 5341,
      "foraht": 5342,
      "exter": 5343,
      "estim": 5344,
      "dicam": 5345,
      "arf": 5346,
      "##aub": 5347,
      "##ristet": 5348,
      "fiunt": 5349,
      "vuelich": 5350,
      "##ellent": 5351,
      "anderest": 5352,
      "giburti": 5353,
      "grabe": 5354,
      "uuazer": 5355,
      "dhurah": 5356,
      "regem": 5357,
      "consilium": 5358,
      "help": 5359,
      "uuordon": 5360,
      "toug": 5361,
      "firli": 5362,
      "possess": 5363,
      "venite": 5364,
      "uuise": 5365,
      "managa": 5366,
      "##eteſ": 5367,
      "cura": 5368,
      "menegi": 5369,
      "##bitis": 5370,
      "gemein": 5371,
      "humana": 5372,
      "numquid": 5373,
      "ouga": 5374,
      "patres": 5375,
      "sprachun": 5376,
      "truhtines": 5377,
      "monum": 5378,
      "fecisti": 5379,
      "huuanda": 5380,
      "iniur": 5381,
      "persona": 5382,
      "bisgo": 5383,
      "intellectus": 5384,
      "himela": 5385,
      "fuerat": 5386,
      "liqu": 5387,
      "uurðun": 5388,
      "engila": 5389,
      "ignem": 5390,
      "cognou": 5391,
      "inuenti": 5392,
      "liget": 5393,
      "seggean": 5394,
      "uirtutum": 5395,
      "arbeiten": 5396,
      "weist": 5397,
      "inmort": 5398,
      "uniuersale": 5399,
      "sundigen": 5400,
      "##qve": 5401,
      "baptis": 5402,
      "uniuersali": 5403,
      "cantic": 5404,
      "ouir": 5405,
      "hunger": 5406,
      "simpliciter": 5407,
      "mirabilia": 5408,
      "supplic": 5409,
      "lirn": 5410,
      "narr": 5411,
      "moysi": 5412,
      "tuenth": 5413,
      "14": 5414,
      "ara": 5415,
      "eisc": 5416,
      "fim": 5417,
      "iure": 5418,
      "ly": 5419,
      "mos": 5420,
      "mest": 5421,
      "misset": 5422,
      "missi": 5423,
      "nach": 5424,
      "oder": 5425,
      "rest": 5426,
      "rationis": 5427,
      "site": 5428,
      "tati": 5429,
      "##ax": 5430,
      "##rut": 5431,
      "##hent": 5432,
      "##kis": 5433,
      "##ket": 5434,
      "##odi": 5435,
      "##met": 5436,
      "##ðan": 5437,
      "##anis": 5438,
      "##isit": 5439,
      "##arten": 5440,
      "##tiens": 5441,
      "##usten": 5442,
      "##atorum": 5443,
      "##etes": 5444,
      "silu": 5445,
      "annu": 5446,
      "##didit": 5447,
      "sole": 5448,
      "sose": 5449,
      "##uues": 5450,
      "##idin": 5451,
      "##ihe": 5452,
      "delic": 5453,
      "##isto": 5454,
      "mane": 5455,
      "##oden": 5456,
      "minno": 5457,
      "##iges": 5458,
      "scaff": 5459,
      "coniunc": 5460,
      "forn": 5461,
      "forahtun": 5462,
      "splend": 5463,
      "##riki": 5464,
      "sea": 5465,
      "teile": 5466,
      "pring": 5467,
      "##unge": 5468,
      "##issu": 5469,
      "gesah": 5470,
      "##ello": 5471,
      "frat": 5472,
      "hiuu": 5473,
      "solis": 5474,
      "amor": 5475,
      "zueli": 5476,
      "saga": 5477,
      "uuillon": 5478,
      "waru": 5479,
      "plat": 5480,
      "att": 5481,
      "gebur": 5482,
      "##eben": 5483,
      "ipsam": 5484,
      "uuorte": 5485,
      "martha": 5486,
      "multis": 5487,
      "unrehtero": 5488,
      "curr": 5489,
      "redemp": 5490,
      "##bitum": 5491,
      "creatur": 5492,
      "mortal": 5493,
      "blas": 5494,
      "##tuom": 5495,
      "necessitate": 5496,
      "habeat": 5497,
      "becheret": 5498,
      "altera": 5499,
      "long": 5500,
      "speciem": 5501,
      "person": 5502,
      "timor": 5503,
      "precip": 5504,
      "gefrum": 5505,
      "prophete": 5506,
      "sprechent": 5507,
      "discern": 5508,
      "houbit": 5509,
      "relatiua": 5510,
      "invicem": 5511,
      "wizist": 5512,
      "generatione": 5513,
      "oculis": 5514,
      "galileam": 5515,
      "aduers": 5516,
      "salutem": 5517,
      "prouidentie": 5518,
      "##fix": 5519,
      "contrariorum": 5520,
      "lumine": 5521,
      "dormi": 5522,
      "keding": 5523,
      "chunne": 5524,
      "pacem": 5525,
      "figur": 5526,
      "resurrectione": 5527,
      "qhued": 5528,
      "civitatem": 5529,
      "sundea": 5530,
      "requir": 5531,
      "edific": 5532,
      "nullo": 5533,
      "grammatica": 5534,
      "13": 5535,
      "dod": 5536,
      "gile": 5537,
      "gast": 5538,
      "hint": 5539,
      "iah": 5540,
      "iehent": 5541,
      "lad": 5542,
      "lium": 5543,
      "lert": 5544,
      "lone": 5545,
      "rab": 5546,
      "rati": 5547,
      "radi": 5548,
      "vul": 5549,
      "vii": 5550,
      "vox": 5551,
      "yp": 5552,
      "ær": 5553,
      "##lut": 5554,
      "##leg": 5555,
      "##nissa": 5556,
      "##rig": 5557,
      "##eisc": 5558,
      "##pinqu": 5559,
      "##sen": 5560,
      "##ker": 5561,
      "##kie": 5562,
      "##vc": 5563,
      "##wa": 5564,
      "##enum": 5565,
      "##itiam": 5566,
      "thri": 5567,
      "##arna": 5568,
      "##atu": 5569,
      "##lien": 5570,
      "quot": 5571,
      "diut": 5572,
      "eterna": 5573,
      "eru": 5574,
      "erth": 5575,
      "##diun": 5576,
      "##entero": 5577,
      "##uueder": 5578,
      "ale": 5579,
      "##idum": 5580,
      "##idus": 5581,
      "neb": 5582,
      "chle": 5583,
      "##aba": 5584,
      "##uto": 5585,
      "dedicati": 5586,
      "##reib": 5587,
      "gelicho": 5588,
      "##ico": 5589,
      "scirm": 5590,
      "irz": 5591,
      "diuina": 5592,
      "duent": 5593,
      "##uhtig": 5594,
      "fort": 5595,
      "spil": 5596,
      "herta": 5597,
      "uuane": 5598,
      "sezze": 5599,
      "##licher": 5600,
      "arch": 5601,
      "arma": 5602,
      "##auf": 5603,
      "perm": 5604,
      "persequ": 5605,
      "##ungon": 5606,
      "keist": 5607,
      "samaso": 5608,
      "magnus": 5609,
      "uern": 5610,
      "ueritatis": 5611,
      "##phit": 5612,
      "obar": 5613,
      "##lica": 5614,
      "liudeo": 5615,
      "rehta": 5616,
      "solt": 5617,
      "solem": 5618,
      "gibur": 5619,
      "folge": 5620,
      "folkes": 5621,
      "simile": 5622,
      "partem": 5623,
      "liberum": 5624,
      "salb": 5625,
      "sago": 5626,
      "sagenne": 5627,
      "gerot": 5628,
      "pezeichenet": 5629,
      "hueteſ": 5630,
      "conspic": 5631,
      "muos": 5632,
      "##iendi": 5633,
      "##eban": 5634,
      "ipsorum": 5635,
      "giuuesso": 5636,
      "findet": 5637,
      "maris": 5638,
      "uuize": 5639,
      "eloc": 5640,
      "giwaro": 5641,
      "mors": 5642,
      "multitud": 5643,
      "suochent": 5644,
      "gimu": 5645,
      "nostro": 5646,
      "luft": 5647,
      "euuin": 5648,
      "legis": 5649,
      "sluo": 5650,
      "##inemnit": 5651,
      "affec": 5652,
      "truhtenes": 5653,
      "syn": 5654,
      "##duxit": 5655,
      "bigonda": 5656,
      "ouget": 5657,
      "mannolih": 5658,
      "predicatur": 5659,
      "ieiun": 5660,
      "primo": 5661,
      "necessaria": 5662,
      "necessario": 5663,
      "giloubtun": 5664,
      "huuand": 5665,
      "ecclesiam": 5666,
      "##uisse": 5667,
      "gitruob": 5668,
      "rihtet": 5669,
      "hanton": 5670,
      "sorgun": 5671,
      "vestrum": 5672,
      "generatio": 5673,
      "saar": 5674,
      "helias": 5675,
      "famili": 5676,
      "##erosten": 5677,
      "syllogismus": 5678,
      "arbitrium": 5679,
      "fructus": 5680,
      "glouba": 5681,
      "thionost": 5682,
      "sanguinem": 5683,
      "preterit": 5684,
      "lustet": 5685,
      "zeseuuun": 5686,
      "urteilda": 5687,
      "tenebris": 5688,
      "##insecus": 5689,
      "irslagen": 5690,
      "að": 5691,
      "best": 5692,
      "ce": 5693,
      "hang": 5694,
      "huc": 5695,
      "jam": 5696,
      "ki": 5697,
      "lið": 5698,
      "milia": 5699,
      "mohti": 5700,
      "pav": 5701,
      "uiam": 5702,
      "vade": 5703,
      "##iatur": 5704,
      "##eliu": 5705,
      "##bur": 5706,
      "##bas": 5707,
      "##hor": 5708,
      "##anan": 5709,
      "##anes": 5710,
      "##onot": 5711,
      "##itin": 5712,
      "inqu": 5713,
      "uuie": 5714,
      "uuende": 5715,
      "##tici": 5716,
      "dilex": 5717,
      "unc": 5718,
      "ande": 5719,
      "ero": 5720,
      "erðu": 5721,
      "nego": 5722,
      "chis": 5723,
      "chisc": 5724,
      "chunn": 5725,
      "##imen": 5726,
      "##imum": 5727,
      "##iebant": 5728,
      "##anto": 5729,
      "manege": 5730,
      "megi": 5731,
      "mino": 5732,
      "mitti": 5733,
      "scouu": 5734,
      "irch": 5735,
      "##izet": 5736,
      "dub": 5737,
      "duot": 5738,
      "uuarf": 5739,
      "uuaron": 5740,
      "##leem": 5741,
      "abdicati": 5742,
      "sten": 5743,
      "uuerh": 5744,
      "proloqu": 5745,
      "allel": 5746,
      "##ftin": 5747,
      "thesses": 5748,
      "dicimus": 5749,
      "dominvs": 5750,
      "faciam": 5751,
      "genomen": 5752,
      "sedes": 5753,
      "ueram": 5754,
      "ueritate": 5755,
      "corda": 5756,
      "corrup": 5757,
      "##ogon": 5758,
      "obenan": 5759,
      "oboedi": 5760,
      "furlaz": 5761,
      "solton": 5762,
      "saldon": 5763,
      "grot": 5764,
      "dhen": 5765,
      "dhuo": 5766,
      "huor": 5767,
      "gehore": 5768,
      "getuon": 5769,
      "giuuelih": 5770,
      "tago": 5771,
      "##ector": 5772,
      "mahton": 5773,
      "uuison": 5774,
      "hiezen": 5775,
      "minnu": 5776,
      "unrehto": 5777,
      "quisque": 5778,
      "uueldi": 5779,
      "gifrum": 5780,
      "gifiang": 5781,
      "studi": 5782,
      "##ersum": 5783,
      "wolle": 5784,
      "werde": 5785,
      "disciplin": 5786,
      "qvid": 5787,
      "thioda": 5788,
      "caritas": 5789,
      "altare": 5790,
      "sepe": 5791,
      "gerſtin": 5792,
      "fuorun": 5793,
      "cause": 5794,
      "uenit": 5795,
      "sizzen": 5796,
      "appell": 5797,
      "sahun": 5798,
      "iohannis": 5799,
      "bredig": 5800,
      "effic": 5801,
      "thingon": 5802,
      "scriptur": 5803,
      "fortunam": 5804,
      "thegana": 5805,
      "aduersum": 5806,
      "chuninga": 5807,
      "cunctis": 5808,
      "quicquam": 5809,
      "laudate": 5810,
      "bezt": 5811,
      "uueneg": 5812,
      "manifest": 5813,
      "ruof": 5814,
      "formam": 5815,
      "heroston": 5816,
      "dexteram": 5817,
      "confitebor": 5818,
      "rhetorica": 5819,
      "aristoti": 5820,
      "##halb": 5821,
      "antuuur": 5822,
      "consumm": 5823,
      "spuotigo": 5824,
      "sambaztag": 5825,
      "canticvm": 5826,
      "age": 5827,
      "bos": 5828,
      "cit": 5829,
      "crim": 5830,
      "ep": 5831,
      "haf": 5832,
      "ieh": 5833,
      "kit": 5834,
      "kil": 5835,
      "nav": 5836,
      "rom": 5837,
      "wen": 5838,
      "ſcul": 5839,
      "##llen": 5840,
      "##ria": 5841,
      "##bam": 5842,
      "##tat": 5843,
      "##vis": 5844,
      "##xisti": 5845,
      "##ervnt": 5846,
      "##ender": 5847,
      "uuet": 5848,
      "uuele": 5849,
      "sich": 5850,
      "##azua": 5851,
      "##deon": 5852,
      "quale": 5853,
      "##elti": 5854,
      "##dian": 5855,
      "##alter": 5856,
      "sodom": 5857,
      "##uuet": 5858,
      "##uuid": 5859,
      "siner": 5860,
      "sinem": 5861,
      "chede": 5862,
      "##agi": 5863,
      "suau": 5864,
      "enero": 5865,
      "##nea": 5866,
      "nið": 5867,
      "##iae": 5868,
      "irri": 5869,
      "##izo": 5870,
      "##tein": 5871,
      "diuine": 5872,
      "duit": 5873,
      "duos": 5874,
      "##uhn": 5875,
      "statim": 5876,
      "adul": 5877,
      "uueralt": 5878,
      "spes": 5879,
      "##uof": 5880,
      "tharod": 5881,
      "existi": 5882,
      "therero": 5883,
      "theser": 5884,
      "uuirdig": 5885,
      "arsl": 5886,
      "perman": 5887,
      "kez": 5888,
      "keis": 5889,
      "vuannan": 5890,
      "alios": 5891,
      "dispon": 5892,
      "quamuis": 5893,
      "furhten": 5894,
      "umm": 5895,
      "ordo": 5896,
      "orator": 5897,
      "sage": 5898,
      "secunda": 5899,
      "regum": 5900,
      "gihi": 5901,
      "uueliu": 5902,
      "gehalt": 5903,
      "##ebo": 5904,
      "tohter": 5905,
      "##scepi": 5906,
      "##timus": 5907,
      "truht": 5908,
      "aliqua": 5909,
      "eldi": 5910,
      "##unnun": 5911,
      "##uueht": 5912,
      "iungaron": 5913,
      "accus": 5914,
      "gimah": 5915,
      "lof": 5916,
      "menda": 5917,
      "sculd": 5918,
      "uuurte": 5919,
      "gabi": 5920,
      "ahtot": 5921,
      "salida": 5922,
      "dago": 5923,
      "faciet": 5924,
      "qvoniam": 5925,
      "mortuus": 5926,
      "captiu": 5927,
      "maxim": 5928,
      "##allet": 5929,
      "diffin": 5930,
      "bism": 5931,
      "indign": 5932,
      "##inceps": 5933,
      "rihte": 5934,
      "tier": 5935,
      "kehor": 5936,
      "boeti": 5937,
      "brahta": 5938,
      "hof": 5939,
      "effici": 5940,
      "strid": 5941,
      "laque": 5942,
      "beatitudinis": 5943,
      "uirtutis": 5944,
      "uultus": 5945,
      "sumelichiu": 5946,
      "conuers": 5947,
      "eban": 5948,
      "abbatis": 5949,
      "bethleem": 5950,
      "contradictor": 5951,
      "forderen": 5952,
      "##igaſ": 5953,
      "fama": 5954,
      "uppig": 5955,
      "utique": 5956,
      "gloubo": 5957,
      "himilriches": 5958,
      "simblum": 5959,
      "folleg": 5960,
      "biscof": 5961,
      "uuahsmon": 5962,
      "gimalana": 5963,
      "promiss": 5964,
      "dunchet": 5965,
      "irkn": 5966,
      "signa": 5967,
      "sprihh": 5968,
      "tiurida": 5969,
      "hanigaſ": 5970,
      "huueo": 5971,
      "hlutt": 5972,
      "aristotiles": 5973,
      "bab": 5974,
      "fas": 5975,
      "fau": 5976,
      "funtan": 5977,
      "gero": 5978,
      "gas": 5979,
      "ies": 5980,
      "ieg": 5981,
      "kraft": 5982,
      "motun": 5983,
      "mela": 5984,
      "run": 5985,
      "rob": 5986,
      "svnt": 5987,
      "vestim": 5988,
      "zam": 5989,
      "zunga": 5990,
      "##iph": 5991,
      "##got": 5992,
      "##zent": 5993,
      "##vt": 5994,
      "##fol": 5995,
      "##wio": 5996,
      "##wiht": 5997,
      "##erin": 5998,
      "##enam": 5999,
      "##ankon": 6000,
      "##indo": 6001,
      "##arch": 6002,
      "##arvm": 6003,
      "uuemo": 6004,
      "##tica": 6005,
      "##tice": 6006,
      "sii": 6007,
      "##lif": 6008,
      "##amo": 6009,
      "dii": 6010,
      "##elet": 6011,
      "etelih": 6012,
      "err": 6013,
      "erlo": 6014,
      "##alen": 6015,
      "##iro": 6016,
      "singo": 6017,
      "sinemu": 6018,
      "alem": 6019,
      "##iui": 6020,
      "##iuit": 6021,
      "chore": 6022,
      "##imis": 6023,
      "##ibit": 6024,
      "##ecta": 6025,
      "suor": 6026,
      "suad": 6027,
      "suorum": 6028,
      "##ahs": 6029,
      "imb": 6030,
      "##icu": 6031,
      "##egini": 6032,
      "scel": 6033,
      "conu": 6034,
      "zehen": 6035,
      "due": 6036,
      "dux": 6037,
      "habint": 6038,
      "abund": 6039,
      "state": 6040,
      "forstuont": 6041,
      "reh": 6042,
      "relic": 6043,
      "uuanne": 6044,
      "iuxta": 6045,
      "##doſ": 6046,
      "seo": 6047,
      "ess": 6048,
      "nuzze": 6049,
      "diccho": 6050,
      "dicebat": 6051,
      "##heiti": 6052,
      "##osto": 6053,
      "ferre": 6054,
      "perpet": 6055,
      "mirac": 6056,
      "##ffe": 6057,
      "sunton": 6058,
      "##arii": 6059,
      "##issimus": 6060,
      "fifte": 6061,
      "vues": 6062,
      "vuara": 6063,
      "gespra": 6064,
      "geskeiden": 6065,
      "trah": 6066,
      "gisaman": 6067,
      "hiet": 6068,
      "uerbo": 6069,
      "uerbis": 6070,
      "##endun": 6071,
      "obsc": 6072,
      "obliu": 6073,
      "liuten": 6074,
      "contemp": 6075,
      "folgen": 6076,
      "follon": 6077,
      "salmo": 6078,
      "sustin": 6079,
      "hui": 6080,
      "huilic": 6081,
      "gihort": 6082,
      "helago": 6083,
      "gehalten": 6084,
      "homini": 6085,
      "sanctis": 6086,
      "##rehto": 6087,
      "fluo": 6088,
      "flamm": 6089,
      "wirdit": 6090,
      "kesezz": 6091,
      "malorum": 6092,
      "infer": 6093,
      "inferi": 6094,
      "skinen": 6095,
      "##aldon": 6096,
      "uberuu": 6097,
      "suohta": 6098,
      "semin": 6099,
      "slah": 6100,
      "uuelde": 6101,
      "gabe": 6102,
      "ahto": 6103,
      "egis": 6104,
      "quedet": 6105,
      "concess": 6106,
      "##issimo": 6107,
      "prime": 6108,
      "necessitas": 6109,
      "singula": 6110,
      "singulis": 6111,
      "eristen": 6112,
      "similes": 6113,
      "gilouben": 6114,
      "michil": 6115,
      "##ihhan": 6116,
      "impossibile": 6117,
      "diffic": 6118,
      "berga": 6119,
      "timore": 6120,
      "ingegini": 6121,
      "sepul": 6122,
      "octo": 6123,
      "girati": 6124,
      "uuilleo": 6125,
      "principio": 6126,
      "fideles": 6127,
      "fidelis": 6128,
      "iustitie": 6129,
      "misericordie": 6130,
      "wizun": 6131,
      "sumelichen": 6132,
      "loset": 6133,
      "fuarun": 6134,
      "gehoret": 6135,
      "futuro": 6136,
      "ascendit": 6137,
      "ambulare": 6138,
      "panes": 6139,
      "panis": 6140,
      "hella": 6141,
      "audit": 6142,
      "syllogismi": 6143,
      "alaw": 6144,
      "baldo": 6145,
      "uoluntas": 6146,
      "sconen": 6147,
      "tougeno": 6148,
      "anasiune": 6149,
      "condition": 6150,
      "incipit": 6151,
      "convers": 6152,
      "deserto": 6153,
      "iustificationes": 6154,
      "toufi": 6155,
      "heliðos": 6156,
      "nazareth": 6157,
      "iagilih": 6158,
      "hereditatem": 6159,
      "zorne": 6160,
      "emmiz": 6161,
      "bizein": 6162,
      "antuurtita": 6163,
      "ſolidoſ": 6164,
      "declar": 6165,
      "gimuato": 6166,
      "aha": 6167,
      "cotes": 6168,
      "cillen": 6169,
      "dabit": 6170,
      "ja": 6171,
      "kn": 6172,
      "kap": 6173,
      "kotes": 6174,
      "lim": 6175,
      "maz": 6176,
      "nunti": 6177,
      "oderunt": 6178,
      "pit": 6179,
      "pag": 6180,
      "racha": 6181,
      "sare": 6182,
      "uast": 6183,
      "ſanc": 6184,
      "##ues": 6185,
      "##cos": 6186,
      "##equ": 6187,
      "##pit": 6188,
      "##ges": 6189,
      "##qhu": 6190,
      "##via": 6191,
      "##fr": 6192,
      "##flu": 6193,
      "##erdo": 6194,
      "##anz": 6195,
      "uuo": 6196,
      "uuach": 6197,
      "##atos": 6198,
      "##dean": 6199,
      "##deat": 6200,
      "quarum": 6201,
      "##amane": 6202,
      "unera": 6203,
      "##elun": 6204,
      "anan": 6205,
      "anali": 6206,
      "##iliter": 6207,
      "##entu": 6208,
      "##idun": 6209,
      "chan": 6210,
      "##ulte": 6211,
      "##dati": 6212,
      "deli": 6213,
      "manen": 6214,
      "manet": 6215,
      "##odon": 6216,
      "##odit": 6217,
      "gegin": 6218,
      "geouget": 6219,
      "niun": 6220,
      "imm": 6221,
      "confic": 6222,
      "coniug": 6223,
      "habenti": 6224,
      "uuarlihho": 6225,
      "abol": 6226,
      "##iost": 6227,
      "##ruo": 6228,
      "standen": 6229,
      "fortitud": 6230,
      "uuanet": 6231,
      "uuanest": 6232,
      "einzen": 6233,
      "einote": 6234,
      "tharazua": 6235,
      "exist": 6236,
      "allun": 6237,
      "seu": 6238,
      "##ensus": 6239,
      "pereg": 6240,
      "perdit": 6241,
      "##undon": 6242,
      "##cif": 6243,
      "##cium": 6244,
      "##ahtin": 6245,
      "fieng": 6246,
      "aliena": 6247,
      "uerit": 6248,
      "##enez": 6249,
      "##andam": 6250,
      "umquam": 6251,
      "liud": 6252,
      "subs": 6253,
      "faret": 6254,
      "farlaz": 6255,
      "contrist": 6256,
      "amar": 6257,
      "gibest": 6258,
      "orbem": 6259,
      "##bium": 6260,
      "libera": 6261,
      "seculo": 6262,
      "geriht": 6263,
      "habetun": 6264,
      "pez": 6265,
      "guod": 6266,
      "guater": 6267,
      "posuit": 6268,
      "##iengun": 6269,
      "sanctific": 6270,
      "first": 6271,
      "predig": 6272,
      "gele": 6273,
      "quotiens": 6274,
      "uuardh": 6275,
      "##iskes": 6276,
      "managf": 6277,
      "giwuag": 6278,
      "acceper": 6279,
      "spiritaliter": 6280,
      "quement": 6281,
      "celestis": 6282,
      "pecun": 6283,
      "corpor": 6284,
      "naturlicho": 6285,
      "naturaliter": 6286,
      "negationem": 6287,
      "wolti": 6288,
      "igne": 6289,
      "ougta": 6290,
      "steine": 6291,
      "werkon": 6292,
      "clau": 6293,
      "##samo": 6294,
      "concup": 6295,
      "gangen": 6296,
      "##hafto": 6297,
      "potestas": 6298,
      "nomini": 6299,
      "israhelis": 6300,
      "glorie": 6301,
      "qualis": 6302,
      "herod": 6303,
      "sprechen": 6304,
      "begagen": 6305,
      "liaz": 6306,
      "fernem": 6307,
      "brach": 6308,
      "brahtun": 6309,
      "hodie": 6310,
      "engilo": 6311,
      "frageta": 6312,
      "fragetun": 6313,
      "frið": 6314,
      "helagon": 6315,
      "lucem": 6316,
      "straz": 6317,
      "iouem": 6318,
      "gnoto": 6319,
      "eternam": 6320,
      "houbete": 6321,
      "##ticam": 6322,
      "wizit": 6323,
      "fleisg": 6324,
      "passiones": 6325,
      "salutare": 6326,
      "oðar": 6327,
      "hiutu": 6328,
      "sundige": 6329,
      "crv": 6330,
      "testamenti": 6331,
      "huiusmodi": 6332,
      "siðor": 6333,
      "zeigot": 6334,
      "transe": 6335,
      "stunta": 6336,
      "sabbati": 6337,
      "finstri": 6338,
      "suspensio": 6339,
      "simplex": 6340,
      "fertilig": 6341,
      "praesum": 6342,
      "zachari": 6343,
      "ſcill": 6344,
      "circuit": 6345,
      "rursus": 6346,
      "hintar": 6347,
      "existim": 6348,
      "coh": 6349,
      "cust": 6350,
      "cote": 6351,
      "dahta": 6352,
      "drac": 6353,
      "flo": 6354,
      "guu": 6355,
      "gri": 6356,
      "gaf": 6357,
      "hap": 6358,
      "huuelih": 6359,
      "iħ": 6360,
      "iiho": 6361,
      "lero": 6362,
      "losta": 6363,
      "pene": 6364,
      "uƀ": 6365,
      "wid": 6366,
      "xii": 6367,
      "yr": 6368,
      "zil": 6369,
      "##ientes": 6370,
      "##biu": 6371,
      "##dur": 6372,
      "##hus": 6373,
      "##kiu": 6374,
      "##kke": 6375,
      "##ðen": 6376,
      "##ƀa": 6377,
      "##we": 6378,
      "##erem": 6379,
      "##erda": 6380,
      "##engen": 6381,
      "thanc": 6382,
      "uua": 6383,
      "uual": 6384,
      "uuag": 6385,
      "##une": 6386,
      "##orm": 6387,
      "##aton": 6388,
      "sio": 6389,
      "##azin": 6390,
      "##amini": 6391,
      "unam": 6392,
      "##elis": 6393,
      "##elte": 6394,
      "anni": 6395,
      "eron": 6396,
      "erch": 6397,
      "##ilem": 6398,
      "sinn": 6399,
      "alti": 6400,
      "##eroso": 6401,
      "chorn": 6402,
      "##ibunt": 6403,
      "##istun": 6404,
      "suester": 6405,
      "meorum": 6406,
      "melius": 6407,
      "##aden": 6408,
      "habens": 6409,
      "uuarlicho": 6410,
      "forht": 6411,
      "forhton": 6412,
      "rein": 6413,
      "reper": 6414,
      "uuanan": 6415,
      "prosp": 6416,
      "exsp": 6417,
      "dici": 6418,
      "beiden": 6419,
      "perfic": 6420,
      "samad": 6421,
      "gesezz": 6422,
      "frago": 6423,
      "aliorum": 6424,
      "gisiun": 6425,
      "gispra": 6426,
      "bium": 6427,
      "##phon": 6428,
      "namin": 6429,
      "##andem": 6430,
      "##endat": 6431,
      "##ionum": 6432,
      "liutes": 6433,
      "dirig": 6434,
      "farg": 6435,
      "amic": 6436,
      "gibu": 6437,
      "##bian": 6438,
      "parv": 6439,
      "pariter": 6440,
      "libri": 6441,
      "pech": 6442,
      "pezz": 6443,
      "gual": 6444,
      "uzan": 6445,
      "dhera": 6446,
      "##izza": 6447,
      "thinro": 6448,
      "consc": 6449,
      "prophe": 6450,
      "poterit": 6451,
      "gehile": 6452,
      "totius": 6453,
      "idest": 6454,
      "gloube": 6455,
      "truog": 6456,
      "modis": 6457,
      "##ectis": 6458,
      "loqui": 6459,
      "beton": 6460,
      "himilisc": 6461,
      "peccatum": 6462,
      "quedante": 6463,
      "unserro": 6464,
      "postea": 6465,
      "huuaz": 6466,
      "glori": 6467,
      "micheli": 6468,
      "altere": 6469,
      "respons": 6470,
      "quales": 6471,
      "prophetis": 6472,
      "begri": 6473,
      "chame": 6474,
      "avtem": 6475,
      "fundun": 6476,
      "noctis": 6477,
      "ewar": 6478,
      "ligent": 6479,
      "vocem": 6480,
      "zellent": 6481,
      "equiuoc": 6482,
      "uuiðer": 6483,
      "aurum": 6484,
      "freuuent": 6485,
      "##urtet": 6486,
      "intellegitur": 6487,
      "gaudium": 6488,
      "uuilliad": 6489,
      "lesan": 6490,
      "antfeng": 6491,
      "uindic": 6492,
      "uuonet": 6493,
      "conueni": 6494,
      "resurrectionem": 6495,
      "prophetam": 6496,
      "exemplum": 6497,
      "herzin": 6498,
      "herzon": 6499,
      "diuersa": 6500,
      "penitentiam": 6501,
      "kibet": 6502,
      "wurtun": 6503,
      "thorpa": 6504,
      "mammunti": 6505,
      "elementa": 6506,
      "uuizentheit": 6507,
      "##ehselot": 6508,
      "kneht": 6509,
      "ginuagi": 6510,
      "araug": 6511,
      "truhtene": 6512,
      "fiftein": 6513,
      "aque": 6514,
      "aaron": 6515,
      "bot": 6516,
      "batun": 6517,
      "cuot": 6518,
      "cess": 6519,
      "cato": 6520,
      "datin": 6521,
      "fet": 6522,
      "faz": 6523,
      "fere": 6524,
      "fell": 6525,
      "greg": 6526,
      "ginemnit": 6527,
      "has": 6528,
      "hort": 6529,
      "lou": 6530,
      "lichen": 6531,
      "mah": 6532,
      "nit": 6533,
      "nau": 6534,
      "nota": 6535,
      "ol": 6536,
      "pili": 6537,
      "pect": 6538,
      "sese": 6539,
      "uinc": 6540,
      "von": 6541,
      "viii": 6542,
      "wanne": 6543,
      "ym": 6544,
      "zen": 6545,
      "zaltun": 6546,
      "##iko": 6547,
      "##bri": 6548,
      "##pur": 6549,
      "##pta": 6550,
      "##dos": 6551,
      "##dere": 6552,
      "##tvm": 6553,
      "##tores": 6554,
      "##kun": 6555,
      "##mir": 6556,
      "##mos": 6557,
      "##ða": 6558,
      "##wen": 6559,
      "##onon": 6560,
      "##onde": 6561,
      "thig": 6562,
      "indiu": 6563,
      "##aran": 6564,
      "##ementer": 6565,
      "##orsus": 6566,
      "##eto": 6567,
      "quon": 6568,
      "quanta": 6569,
      "quatun": 6570,
      "digi": 6571,
      "ern": 6572,
      "ere": 6573,
      "erg": 6574,
      "ersl": 6575,
      "##dien": 6576,
      "##irun": 6577,
      "##ilet": 6578,
      "sindun": 6579,
      "nech": 6580,
      "##asa": 6581,
      "chido": 6582,
      "##imon": 6583,
      "##imvs": 6584,
      "##abili": 6585,
      "##olum": 6586,
      "##unta": 6587,
      "suazi": 6588,
      "mansl": 6589,
      "tuen": 6590,
      "geeisc": 6591,
      "með": 6592,
      "heu": 6593,
      "scrut": 6594,
      "screib": 6595,
      "coniec": 6596,
      "diuid": 6597,
      "habitus": 6598,
      "##uhti": 6599,
      "herasun": 6600,
      "uuandon": 6601,
      "eine": 6602,
      "einun": 6603,
      "##ensum": 6604,
      "bein": 6605,
      "perf": 6606,
      "perse": 6607,
      "ilent": 6608,
      "##ciam": 6609,
      "##isses": 6610,
      "keu": 6611,
      "geske": 6612,
      "gesehent": 6613,
      "triu": 6614,
      "tria": 6615,
      "hieroso": 6616,
      "vnser": 6617,
      "facile": 6618,
      "##andon": 6619,
      "sola": 6620,
      "oris": 6621,
      "salus": 6622,
      "salomon": 6623,
      "secula": 6624,
      "pedibus": 6625,
      "gub": 6626,
      "uzlaz": 6627,
      "thinu": 6628,
      "thinaz": 6629,
      "servi": 6630,
      "geborn": 6631,
      "geburte": 6632,
      "potens": 6633,
      "##ebatur": 6634,
      "##uuart": 6635,
      "durftig": 6636,
      "gladi": 6637,
      "venerit": 6638,
      "uuizagon": 6639,
      "ell": 6640,
      "##unnie": 6641,
      "uuisa": 6642,
      "iungron": 6643,
      "confus": 6644,
      "queme": 6645,
      "corporibus": 6646,
      "lobes": 6647,
      "scoldun": 6648,
      "turpe": 6649,
      "ungim": 6650,
      "human": 6651,
      "hohen": 6652,
      "steina": 6653,
      "fecerunt": 6654,
      "similitudinem": 6655,
      "giloubit": 6656,
      "israhelo": 6657,
      "postquam": 6658,
      "machota": 6659,
      "selƀes": 6660,
      "qualitatis": 6661,
      "uniuoc": 6662,
      "psalmum": 6663,
      "christiani": 6664,
      "crucis": 6665,
      "alleswio": 6666,
      "##estenot": 6667,
      "ungelih": 6668,
      "appar": 6669,
      "lerun": 6670,
      "mildi": 6671,
      "ziten": 6672,
      "gestat": 6673,
      "lucis": 6674,
      "sapientie": 6675,
      "##bras": 6676,
      "xxv": 6677,
      "##regit": 6678,
      "uideatur": 6679,
      "nideren": 6680,
      "geheiz": 6681,
      "geheizzen": 6682,
      "fuoz": 6683,
      "tise": 6684,
      "uiuific": 6685,
      "stimmo": 6686,
      "##etip": 6687,
      "salutis": 6688,
      "ascend": 6689,
      "musica": 6690,
      "uuerðen": 6691,
      "offeno": 6692,
      "cyllen": 6693,
      "maiest": 6694,
      "gengit": 6695,
      "##ruobet": 6696,
      "zuiualt": 6697,
      "landes": 6698,
      "crucif": 6699,
      "giheiz": 6700,
      "inequ": 6701,
      "martyrum": 6702,
      "iteuuiz": 6703,
      "gehuili": 6704,
      "brutl": 6705,
      "lukke": 6706,
      "copul": 6707,
      "terrena": 6708,
      "gedancha": 6709,
      "chiboran": 6710,
      "gelirn": 6711,
      "giuuizscaf": 6712,
      "explicit": 6713,
      "anagenne": 6714,
      "parady": 6715,
      "talenta": 6716,
      "modicum": 6717,
      "opher": 6718,
      "consilio": 6719,
      "philippus": 6720,
      "cythara": 6721,
      "obscur": 6722,
      "aru": 6723,
      "cvm": 6724,
      "deter": 6725,
      "euen": 6726,
      "fem": 6727,
      "gie": 6728,
      "gare": 6729,
      "hy": 6730,
      "hals": 6731,
      "kab": 6732,
      "lan": 6733,
      "lid": 6734,
      "lach": 6735,
      "leng": 6736,
      "lido": 6737,
      "ode": 6738,
      "oft": 6739,
      "pif": 6740,
      "senti": 6741,
      "tale": 6742,
      "tatun": 6743,
      "vic": 6744,
      "vber": 6745,
      "zih": 6746,
      "zalt": 6747,
      "ſiu": 6748,
      "##lam": 6749,
      "##ior": 6750,
      "##bitur": 6751,
      "##dist": 6752,
      "##hiu": 6753,
      "##mien": 6754,
      "##muotig": 6755,
      "##ven": 6756,
      "##xi": 6757,
      "##jus": 6758,
      "##inus": 6759,
      "##itiu": 6760,
      "thun": 6761,
      "inl": 6762,
      "inesse": 6763,
      "uuiu": 6764,
      "##tib": 6765,
      "##ors": 6766,
      "##usc": 6767,
      "##ustin": 6768,
      "##del": 6769,
      "##dei": 6770,
      "##liihh": 6771,
      "quati": 6772,
      "##amon": 6773,
      "univ": 6774,
      "##urge": 6775,
      "##otis": 6776,
      "##elo": 6777,
      "anal": 6778,
      "erst": 6779,
      "##uualtig": 6780,
      "sinne": 6781,
      "alte": 6782,
      "nege": 6783,
      "##ome": 6784,
      "chic": 6785,
      "##ages": 6786,
      "##ageta": 6787,
      "##ulas": 6788,
      "##ole": 6789,
      "suer": 6790,
      "suft": 6791,
      "mano": 6792,
      "manuum": 6793,
      "##aha": 6794,
      "esto": 6795,
      "tuarum": 6796,
      "gelich": 6797,
      "imag": 6798,
      "##iger": 6799,
      "heime": 6800,
      "sculi": 6801,
      "irra": 6802,
      "irge": 6803,
      "diuitias": 6804,
      "habdi": 6805,
      "fors": 6806,
      "##derit": 6807,
      "##dost": 6808,
      "prohib": 6809,
      "theso": 6810,
      "##anga": 6811,
      "sihest": 6812,
      "feruu": 6813,
      "fersl": 6814,
      "ubilo": 6815,
      "pertin": 6816,
      "percus": 6817,
      "dominvm": 6818,
      "##tigo": 6819,
      "##ortes": 6820,
      "##ffet": 6821,
      "##zzin": 6822,
      "suni": 6823,
      "gesp": 6824,
      "quodam": 6825,
      "framm": 6826,
      "gisaz": 6827,
      "facies": 6828,
      "illatio": 6829,
      "##ioni": 6830,
      "intenti": 6831,
      "rehter": 6832,
      "farst": 6833,
      "sagda": 6834,
      "habetis": 6835,
      "posuisti": 6836,
      "antreit": 6837,
      "filiorum": 6838,
      "dhanne": 6839,
      "huan": 6840,
      "animas": 6841,
      "plant": 6842,
      "heizit": 6843,
      "##sce": 6844,
      "##scaft": 6845,
      "temple": 6846,
      "tempora": 6847,
      "durft": 6848,
      "giuualt": 6849,
      "gelo": 6850,
      "fines": 6851,
      "infern": 6852,
      "tagon": 6853,
      "mannilih": 6854,
      "lobe": 6855,
      "euuon": 6856,
      "celos": 6857,
      "undertan": 6858,
      "lobo": 6859,
      "chumo": 6860,
      "woltun": 6861,
      "ungil": 6862,
      "ruarta": 6863,
      "stedi": 6864,
      "steig": 6865,
      "werdan": 6866,
      "clari": 6867,
      "claus": 6868,
      "populos": 6869,
      "undur": 6870,
      "qvod": 6871,
      "unseres": 6872,
      "predicantur": 6873,
      "drohtine": 6874,
      "potestate": 6875,
      "tote": 6876,
      "tuondo": 6877,
      "complex": 6878,
      "glorific": 6879,
      "sacram": 6880,
      "gisahi": 6881,
      "##oufit": 6882,
      "qualiter": 6883,
      "qualitatem": 6884,
      "half": 6885,
      "himeles": 6886,
      "videns": 6887,
      "bruod": 6888,
      "##vnd": 6889,
      "##spring": 6890,
      "sciens": 6891,
      "occas": 6892,
      "fuerint": 6893,
      "barne": 6894,
      "reple": 6895,
      "irstuont": 6896,
      "insip": 6897,
      "vester": 6898,
      "pax": 6899,
      "iuuuan": 6900,
      "scribe": 6901,
      "nouum": 6902,
      "scriptura": 6903,
      "geheizen": 6904,
      "intfieng": 6905,
      "aduersa": 6906,
      "aduersus": 6907,
      "hilfet": 6908,
      "freuuet": 6909,
      "liehte": 6910,
      "lebent": 6911,
      "perfecta": 6912,
      "eteuues": 6913,
      "irhohet": 6914,
      "loquitur": 6915,
      "sententi": 6916,
      "pluribus": 6917,
      "descrip": 6918,
      "apostolis": 6919,
      "mennisgon": 6920,
      "humilitate": 6921,
      "diligit": 6922,
      "gomman": 6923,
      "materia": 6924,
      "diffinitionem": 6925,
      "giheil": 6926,
      "dritta": 6927,
      "prophetas": 6928,
      "suuiðo": 6929,
      "folgetun": 6930,
      "monasterii": 6931,
      "gilim": 6932,
      "plebis": 6933,
      "sabbato": 6934,
      "zeseuua": 6935,
      "sermones": 6936,
      "uuuocher": 6937,
      "chiesen": 6938,
      "gorio": 6939,
      "cupid": 6940,
      "seltsani": 6941,
      "eocouuelih": 6942,
      "philologia": 6943,
      "gemeitun": 6944,
      "dialecti": 6945,
      "accesserunt": 6946,
      "pronunti": 6947,
      "zuelif": 6948,
      "baby": 6949,
      "emmizigen": 6950,
      "iħs": 6951,
      "aus": 6952,
      "besc": 6953,
      "cen": 6954,
      "dra": 6955,
      "eic": 6956,
      "ege": 6957,
      "garu": 6958,
      "ion": 6959,
      "last": 6960,
      "mero": 6961,
      "mob": 6962,
      "nut": 6963,
      "pih": 6964,
      "pere": 6965,
      "pari": 6966,
      "piet": 6967,
      "tet": 6968,
      "tatin": 6969,
      "util": 6970,
      "wih": 6971,
      "xi": 6972,
      "xvi": 6973,
      "zoh": 6974,
      "##lem": 6975,
      "##cod": 6976,
      "##nisse": 6977,
      "##rvm": 6978,
      "##bris": 6979,
      "##ss": 6980,
      "##tent": 6981,
      "##hinc": 6982,
      "##kent": 6983,
      "##ouh": 6984,
      "##zta": 6985,
      "##fare": 6986,
      "##xerit": 6987,
      "##enge": 6988,
      "thru": 6989,
      "##orta": 6990,
      "##orsum": 6991,
      "##usta": 6992,
      "##atan": 6993,
      "##atvs": 6994,
      "quit": 6995,
      "unst": 6996,
      "ungi": 6997,
      "unman": 6998,
      "##ileg": 6999,
      "sosama": 7000,
      "##uuis": 7001,
      "##uuua": 7002,
      "##ase": 7003,
      "chi": 7004,
      "che": 7005,
      "##osite": 7006,
      "##osuit": 7007,
      "##ulg": 7008,
      "##olo": 7009,
      "deos": 7010,
      "sulich": 7011,
      "suae": 7012,
      "manc": 7013,
      "manda": 7014,
      "meli": 7015,
      "nieth": 7016,
      "improb": 7017,
      "minaz": 7018,
      "scit": 7019,
      "##eden": 7020,
      "diufal": 7021,
      "diei": 7022,
      "uuariu": 7023,
      "self": 7024,
      "##ilius": 7025,
      "stod": 7026,
      "##seƀon": 7027,
      "spel": 7028,
      "herte": 7029,
      "exiit": 7030,
      "unsem": 7031,
      "selbin": 7032,
      "darana": 7033,
      "beide": 7034,
      "beatus": 7035,
      "ferli": 7036,
      "ferse": 7037,
      "uter": 7038,
      "prorsus": 7039,
      "##tige": 7040,
      "##undet": 7041,
      "##zzet": 7042,
      "##lihti": 7043,
      "vuur": 7044,
      "geseh": 7045,
      "hiaz": 7046,
      "##ennet": 7047,
      "uerbi": 7048,
      "corn": 7049,
      "coronam": 7050,
      "##endas": 7051,
      "illorum": 7052,
      "intel": 7053,
      "integ": 7054,
      "summo": 7055,
      "sumelih": 7056,
      "gibor": 7057,
      "zuif": 7058,
      "simili": 7059,
      "gern": 7060,
      "guiss": 7061,
      "godas": 7062,
      "antlaz": 7063,
      "huar": 7064,
      "animo": 7065,
      "animalia": 7066,
      "dohter": 7067,
      "regna": 7068,
      "uuolchen": 7069,
      "serp": 7070,
      "##iengen": 7071,
      "gebent": 7072,
      "helpa": 7073,
      "gehoren": 7074,
      "gilau": 7075,
      "##afti": 7076,
      "sanct": 7077,
      "fateres": 7078,
      "geuuisso": 7079,
      "flet": 7080,
      "geluste": 7081,
      "scalka": 7082,
      "druta": 7083,
      "neme": 7084,
      "nemen": 7085,
      "nemin": 7086,
      "iungeron": 7087,
      "horo": 7088,
      "horis": 7089,
      "unzi": 7090,
      "unzin": 7091,
      "euuigen": 7092,
      "noli": 7093,
      "opes": 7094,
      "opfer": 7095,
      "urspring": 7096,
      "caec": 7097,
      "heiligun": 7098,
      "himilis": 7099,
      "underske": 7100,
      "uuurde": 7101,
      "stup": 7102,
      "ahtont": 7103,
      "wolt": 7104,
      "ungu": 7105,
      "humiles": 7106,
      "##ipot": 7107,
      "egredi": 7108,
      "langu": 7109,
      "quedent": 7110,
      "quedanti": 7111,
      "ambig": 7112,
      "discipulos": 7113,
      "qvia": 7114,
      "ginoto": 7115,
      "ginadon": 7116,
      "capite": 7117,
      "composit": 7118,
      "praep": 7119,
      "habeant": 7120,
      "barnun": 7121,
      "iniqui": 7122,
      "##illis": 7123,
      "##igiang": 7124,
      "bisu": 7125,
      "buent": 7126,
      "verb": 7127,
      "##ubarn": 7128,
      "##ubesc": 7129,
      "thrati": 7130,
      "frumu": 7131,
      "gizam": 7132,
      "scientiam": 7133,
      "uener": 7134,
      "begonda": 7135,
      "breostun": 7136,
      "feht": 7137,
      "gnuoge": 7138,
      "bifangan": 7139,
      "thinge": 7140,
      "quantitas": 7141,
      "quantitates": 7142,
      "fleisc": 7143,
      "seggian": 7144,
      "uirtutes": 7145,
      "grau": 7146,
      "benedictus": 7147,
      "sagetun": 7148,
      "disposit": 7149,
      "misseliche": 7150,
      "bitet": 7151,
      "besuo": 7152,
      "mandatum": 7153,
      "inimicis": 7154,
      "abrahe": 7155,
      "thesaur": 7156,
      "bibot": 7157,
      "palam": 7158,
      "virtut": 7159,
      "memoria": 7160,
      "gaudio": 7161,
      "descendit": 7162,
      "samanungu": 7163,
      "##uetud": 7164,
      "##erosta": 7165,
      "videbitis": 7166,
      "##uuorfen": 7167,
      "unuuizz": 7168,
      "consequentia": 7169,
      "apostolorum": 7170,
      "ferlorn": 7171,
      "humilitatis": 7172,
      "bedu": 7173,
      "tertius": 7174,
      "himilriche": 7175,
      "gimalan": 7176,
      "gimalena": 7177,
      "confessio": 7178,
      "xvii": 7179,
      "leðes": 7180,
      "buohst": 7181,
      "stetit": 7182,
      "wizzi": 7183,
      "keskihet": 7184,
      "matut": 7185,
      "finstarn": 7186,
      "voluntatem": 7187,
      "eloquium": 7188,
      "matris": 7189,
      "irfullet": 7190,
      "scowon": 7191,
      "ulla": 7192,
      "gesiðos": 7193,
      "retribu": 7194,
      "planet": 7195,
      "mortalium": 7196,
      "sprehh": 7197,
      "aeternam": 7198,
      "irloset": 7199,
      "rihhe": 7200,
      "bigondun": 7201,
      "apollinis": 7202,
      "synagog": 7203,
      "indiuid": 7204,
      "23": 7205,
      "22": 7206,
      "aro": 7207,
      "cn": 7208,
      "cib": 7209,
      "cav": 7210,
      "date": 7211,
      "fis": 7212,
      "gro": 7213,
      "gruob": 7214,
      "iesus": 7215,
      "lar": 7216,
      "lerit": 7217,
      "my": 7218,
      "mentem": 7219,
      "nath": 7220,
      "romo": 7221,
      "sati": 7222,
      "sort": 7223,
      "trip": 7224,
      "talis": 7225,
      "uesten": 7226,
      "vs": 7227,
      "vere": 7228,
      "wi": 7229,
      "zime": 7230,
      "##uad": 7231,
      "##cir": 7232,
      "##rati": 7233,
      "##eorum": 7234,
      "##sang": 7235,
      "##zes": 7236,
      "##muo": 7237,
      "##fl": 7238,
      "##xa": 7239,
      "##eribus": 7240,
      "##aniu": 7241,
      "##anemo": 7242,
      "##inan": 7243,
      "##inas": 7244,
      "thus": 7245,
      "initio": 7246,
      "uuing": 7247,
      "uuall": 7248,
      "uuido": 7249,
      "##uss": 7250,
      "##etate": 7251,
      "##azze": 7252,
      "unb": 7253,
      "unk": 7254,
      "unius": 7255,
      "##urſt": 7256,
      "erge": 7257,
      "##iron": 7258,
      "##uuit": 7259,
      "alom": 7260,
      "neuue": 7261,
      "##ass": 7262,
      "chid": 7263,
      "##abeth": 7264,
      "##abiles": 7265,
      "##ibiles": 7266,
      "##ihu": 7267,
      "suerit": 7268,
      "ena": 7269,
      "niazen": 7270,
      "impro": 7271,
      "scis": 7272,
      "iram": 7273,
      "irsc": 7274,
      "habitum": 7275,
      "abul": 7276,
      "abys": 7277,
      "##entior": 7278,
      "stati": 7279,
      "##ingun": 7280,
      "uuert": 7281,
      "spati": 7282,
      "spera": 7283,
      "refer": 7284,
      "hercul": 7285,
      "iudit": 7286,
      "unscul": 7287,
      "alloro": 7288,
      "##lichot": 7289,
      "therer": 7290,
      "theses": 7291,
      "dict": 7292,
      "arme": 7293,
      "beidero": 7294,
      "##undun": 7295,
      "tertio": 7296,
      "omnipot": 7297,
      "nohhein": 7298,
      "magn": 7299,
      "magno": 7300,
      "leu": 7301,
      "leita": 7302,
      "fiundo": 7303,
      "gesl": 7304,
      "trur": 7305,
      "sedem": 7306,
      "cornu": 7307,
      "##endon": 7308,
      "##endis": 7309,
      "##endus": 7310,
      "intuit": 7311,
      "obprob": 7312,
      "fursten": 7313,
      "iohanne": 7314,
      "umbra": 7315,
      "orbis": 7316,
      "zuiv": 7317,
      "salom": 7318,
      "uuill": 7319,
      "uuilliu": 7320,
      "thanna": 7321,
      "guisso": 7322,
      "positum": 7323,
      "uzouh": 7324,
      "##izzet": 7325,
      "regula": 7326,
      "uelle": 7327,
      "ueluti": 7328,
      "thurst": 7329,
      "geboten": 7330,
      "helle": 7331,
      "iustorum": 7332,
      "potuit": 7333,
      "gehuu": 7334,
      "actu": 7335,
      "##afan": 7336,
      "durst": 7337,
      "durno": 7338,
      "idone": 7339,
      "idcir": 7340,
      "##zeich": 7341,
      "geuuor": 7342,
      "phoe": 7343,
      "uuizeg": 7344,
      "elis": 7345,
      "mahtun": 7346,
      "andar": 7347,
      "nement": 7348,
      "managu": 7349,
      "managen": 7350,
      "giwurti": 7351,
      "morgen": 7352,
      "accepit": 7353,
      "lufte": 7354,
      "loque": 7355,
      "unrehten": 7356,
      "betot": 7357,
      "betota": 7358,
      "underen": 7359,
      "locis": 7360,
      "saligen": 7361,
      "scolti": 7362,
      "turp": 7363,
      "ruach": 7364,
      "langet": 7365,
      "inclin": 7366,
      "chedendo": 7367,
      "monstr": 7368,
      "gangenti": 7369,
      "rik": 7370,
      "maius": 7371,
      "carc": 7372,
      "goda": 7373,
      "speci": 7374,
      "sange": 7375,
      "christian": 7376,
      "fuoren": 7377,
      "affirmationis": 7378,
      "uuiha": 7379,
      "uuihe": 7380,
      "kehalten": 7381,
      "audire": 7382,
      "principibus": 7383,
      "ioue": 7384,
      "paul": 7385,
      "invenit": 7386,
      "bifora": 7387,
      "constat": 7388,
      "hold": 7389,
      "fratrem": 7390,
      "angelos": 7391,
      "argument": 7392,
      "depositio": 7393,
      "pontific": 7394,
      "uiuentium": 7395,
      "##aginta": 7396,
      "propositiones": 7397,
      "aquarum": 7398,
      "kerno": 7399,
      "quicumque": 7400,
      "dingolih": 7401,
      "uniuersalis": 7402,
      "ultra": 7403,
      "circumde": 7404,
      "questio": 7405,
      "gescah": 7406,
      "apostolus": 7407,
      "smer": 7408,
      "gigeban": 7409,
      "heretic": 7410,
      "communis": 7411,
      "ciuitate": 7412,
      "bidhiu": 7413,
      "cotti": 7414,
      "lapidem": 7415,
      "philosophia": 7416,
      "proprie": 7417,
      "stillo": 7418,
      "infinitum": 7419,
      "sanguine": 7420,
      "drof": 7421,
      "martyres": 7422,
      "reliqu": 7423,
      "gehuilic": 7424,
      "mercurius": 7425,
      "hazzent": 7426,
      "requies": 7427,
      "superbiam": 7428,
      "niud": 7429,
      "sumpta": 7430,
      "precepta": 7431,
      "tritta": 7432,
      "phariseorum": 7433,
      "nehabet": 7434,
      "matrem": 7435,
      "uxorem": 7436,
      "eocouue": 7437,
      "genamot": 7438,
      "urchunde": 7439,
      "fernumest": 7440,
      "flumina": 7441,
      "iocund": 7442,
      "extrinsecus": 7443,
      "auctor": 7444,
      "dextris": 7445,
      "uerborum": 7446,
      "selbez": 7447,
      "inmortal": 7448,
      "erthon": 7449,
      "melaſ": 7450,
      "alemahtig": 7451,
      "conficitur": 7452,
      "concupisc": 7453,
      "friðubarn": 7454,
      "circuitu": 7455,
      "univers": 7456,
      "zimelih": 7457,
      "alomahtig": 7458,
      "idcirco": 7459,
      "aƀ": 7460,
      "aquam": 7461,
      "aequ": 7462,
      "bad": 7463,
      "brah": 7464,
      "besti": 7465,
      "cunni": 7466,
      "educ": 7467,
      "euge": 7468,
      "feli": 7469,
      "gauu": 7470,
      "host": 7471,
      "iob": 7472,
      "iihet": 7473,
      "kest": 7474,
      "liter": 7475,
      "lesti": 7476,
      "mess": 7477,
      "misc": 7478,
      "mugi": 7479,
      "neri": 7480,
      "oli": 7481,
      "pidiu": 7482,
      "sero": 7483,
      "salt": 7484,
      "tid": 7485,
      "uil": 7486,
      "uile": 7487,
      "uobis": 7488,
      "vin": 7489,
      "wein": 7490,
      "##uorum": 7491,
      "##nissu": 7492,
      "##rih": 7493,
      "##ratus": 7494,
      "##pici": 7495,
      "##tamen": 7496,
      "##hin": 7497,
      "##hon": 7498,
      "##hel": 7499,
      "##zeg": 7500,
      "##vvm": 7501,
      "##ſon": 7502,
      "##wes": 7503,
      "##enis": 7504,
      "##enderunt": 7505,
      "##inti": 7506,
      "##inun": 7507,
      "##itit": 7508,
      "##itos": 7509,
      "thal": 7510,
      "thom": 7511,
      "thul": 7512,
      "indic": 7513,
      "ingen": 7514,
      "##aretur": 7515,
      "uuant": 7516,
      "##etum": 7517,
      "##etost": 7518,
      "quim": 7519,
      "quenun": 7520,
      "##elon": 7521,
      "ereren": 7522,
      "##digo": 7523,
      "##alb": 7524,
      "##ilen": 7525,
      "sinist": 7526,
      "sinnes": 7527,
      "alb": 7528,
      "allig": 7529,
      "##ases": 7530,
      "##asset": 7531,
      "##omet": 7532,
      "chinden": 7533,
      "##agono": 7534,
      "##osis": 7535,
      "##abam": 7536,
      "##uls": 7537,
      "##utis": 7538,
      "deda": 7539,
      "dehinc": 7540,
      "##atiue": 7541,
      "suach": 7542,
      "##ahi": 7543,
      "ent": 7544,
      "enna": 7545,
      "geant": 7546,
      "##igon": 7547,
      "heith": 7548,
      "mitte": 7549,
      "scat": 7550,
      "scio": 7551,
      "scanda": 7552,
      "diuis": 7553,
      "##ereht": 7554,
      "duon": 7555,
      "stad": 7556,
      "stell": 7557,
      "stande": 7558,
      "stoz": 7559,
      "uuercho": 7560,
      "forst": 7561,
      "spern": 7562,
      "prol": 7563,
      "profec": 7564,
      "exurge": 7565,
      "unsub": 7566,
      "allis": 7567,
      "seti": 7568,
      "##ftun": 7569,
      "nubes": 7570,
      "dicantur": 7571,
      "arc": 7572,
      "argen": 7573,
      "daranah": 7574,
      "utero": 7575,
      "##iches": 7576,
      "##tigi": 7577,
      "term": 7578,
      "##ahto": 7579,
      "##zzan": 7580,
      "##zzent": 7581,
      "##ariis": 7582,
      "##issem": 7583,
      "samarit": 7584,
      "fiendo": 7585,
      "vueliu": 7586,
      "alium": 7587,
      "gisce": 7588,
      "gisentit": 7589,
      "gisihit": 7590,
      "thehein": 7591,
      "biquam": 7592,
      "corrip": 7593,
      "##endent": 7594,
      "inthe": 7595,
      "intende": 7596,
      "##uct": 7597,
      "heilac": 7598,
      "gerihte": 7599,
      "thanen": 7600,
      "godun": 7601,
      "antat": 7602,
      "gratis": 7603,
      "filie": 7604,
      "dheru": 7605,
      "##iteri": 7606,
      "thino": 7607,
      "thinera": 7608,
      "superbi": 7609,
      "propon": 7610,
      "##iendo": 7611,
      "hele": 7612,
      "iuss": 7613,
      "iusto": 7614,
      "gilesti": 7615,
      "resti": 7616,
      "##entiae": 7617,
      "mohtun": 7618,
      "##scrip": 7619,
      "temporibus": 7620,
      "fird": 7621,
      "firw": 7622,
      "fuazi": 7623,
      "geuuaht": 7624,
      "uiribus": 7625,
      "brunnen": 7626,
      "geld": 7627,
      "scalh": 7628,
      "marcha": 7629,
      "iudeos": 7630,
      "uuisun": 7631,
      "horen": 7632,
      "aux": 7633,
      "interfic": 7634,
      "semetip": 7635,
      "himila": 7636,
      "lobot": 7637,
      "scoldin": 7638,
      "substantiarum": 7639,
      "asper": 7640,
      "liof": 7641,
      "numerum": 7642,
      "hohor": 7643,
      "ougent": 7644,
      "record": 7645,
      "discipulus": 7646,
      "chedenne": 7647,
      "qve": 7648,
      "lichet": 7649,
      "mortuis": 7650,
      "beneim": 7651,
      "uuegen": 7652,
      "operibus": 7653,
      "feci": 7654,
      "##ivit": 7655,
      "eristo": 7656,
      "alterut": 7657,
      "alterius": 7658,
      "giduan": 7659,
      "iudices": 7660,
      "##ornon": 7661,
      "qualitas": 7662,
      "emenda": 7663,
      "uuizze": 7664,
      "uueroldes": 7665,
      "uuellent": 7666,
      "saligheite": 7667,
      "agit": 7668,
      "##ittere": 7669,
      "affirmationem": 7670,
      "sciat": 7671,
      "adiunc": 7672,
      "beginnet": 7673,
      "kehalt": 7674,
      "tribu": 7675,
      "repet": 7676,
      "hoor": 7677,
      "uuinde": 7678,
      "##damus": 7679,
      "irstarb": 7680,
      "helagna": 7681,
      "luce": 7682,
      "uidentur": 7683,
      "gnadon": 7684,
      "ostend": 7685,
      "ostendit": 7686,
      "fleis": 7687,
      "uunder": 7688,
      "gumo": 7689,
      "fratribus": 7690,
      "aures": 7691,
      "feste": 7692,
      "chuninge": 7693,
      "uiuit": 7694,
      "hilu": 7695,
      "eigin": 7696,
      "dimit": 7697,
      "expet": 7698,
      "expect": 7699,
      "futurorum": 7700,
      "inimicus": 7701,
      "putas": 7702,
      "azelin": 7703,
      "hinan": 7704,
      "contingere": 7705,
      "##haftiu": 7706,
      "haƀas": 7707,
      "laudem": 7708,
      "forderon": 7709,
      "ultim": 7710,
      "unuuir": 7711,
      "iruuel": 7712,
      "torr": 7713,
      "heretici": 7714,
      "particulare": 7715,
      "missus": 7716,
      "custodiam": 7717,
      "cælo": 7718,
      "simbla": 7719,
      "sacerdotes": 7720,
      "anasihte": 7721,
      "crucifix": 7722,
      "tribulatione": 7723,
      "distrib": 7724,
      "prophetarum": 7725,
      "fatere": 7726,
      "xviii": 7727,
      "protector": 7728,
      "mercurio": 7729,
      "wizzod": 7730,
      "heliðo": 7731,
      "gradus": 7732,
      "ubermuote": 7733,
      "praedic": 7734,
      "pechennen": 7735,
      "circulus": 7736,
      "craftig": 7737,
      "oves": 7738,
      "diuuala": 7739,
      "agnosc": 7740,
      "zisamane": 7741,
      "prepar": 7742,
      "assumptio": 7743,
      "ungeskeiden": 7744,
      "euangelium": 7745,
      "antkenn": 7746,
      "geiihte": 7747,
      "vigili": 7748,
      "giloubi": 7749,
      "bauhn": 7750,
      "perier": 7751,
      "mostin": 7752,
      "carmina": 7753,
      "gagenuuerti": 7754,
      "iegelich": 7755,
      "abolgi": 7756,
      "ungiloub": 7757,
      "obprobrium": 7758,
      "bald": 7759,
      "bito": 7760,
      "cito": 7761,
      "candi": 7762,
      "dad": 7763,
      "douf": 7764,
      "damn": 7765,
      "gigiang": 7766,
      "iſ": 7767,
      "jar": 7768,
      "kim": 7769,
      "latr": 7770,
      "lip": 7771,
      "nun": 7772,
      "osc": 7773,
      "pig": 7774,
      "rah": 7775,
      "rio": 7776,
      "rach": 7777,
      "sere": 7778,
      "sche": 7779,
      "sacha": 7780,
      "tana": 7781,
      "talia": 7782,
      "talium": 7783,
      "uar": 7784,
      "ueter": 7785,
      "uitia": 7786,
      "vad": 7787,
      "versum": 7788,
      "wu": 7789,
      "wit": 7790,
      "west": 7791,
      "xp": 7792,
      "zan": 7793,
      "zihet": 7794,
      "°et": 7795,
      "##uhte": 7796,
      "##cun": 7797,
      "##cet": 7798,
      "##ak": 7799,
      "##reta": 7800,
      "##bare": 7801,
      "##pen": 7802,
      "##gu": 7803,
      "##tist": 7804,
      "##hun": 7805,
      "##och": 7806,
      "##zua": 7807,
      "##mes": 7808,
      "##ſo": 7809,
      "##fit": 7810,
      "##faz": 7811,
      "##fta": 7812,
      "##wit": 7813,
      "##erentur": 7814,
      "##inibus": 7815,
      "thahtun": 7816,
      "inz": 7817,
      "inhabit": 7818,
      "uuitun": 7819,
      "##uno": 7820,
      "##unno": 7821,
      "##orun": 7822,
      "##oret": 7823,
      "##stun": 7824,
      "##stunt": 7825,
      "##stra": 7826,
      "quater": 7827,
      "qualia": 7828,
      "quendam": 7829,
      "##uram": 7830,
      "##chis": 7831,
      "anx": 7832,
      "anagin": 7833,
      "erodes": 7834,
      "erubesc": 7835,
      "##uuaz": 7836,
      "##uual": 7837,
      "##idam": 7838,
      "nep": 7839,
      "nebe": 7840,
      "##ason": 7841,
      "chih": 7842,
      "chif": 7843,
      "chindo": 7844,
      "##osus": 7845,
      "##abun": 7846,
      "##ihan": 7847,
      "##ieho": 7848,
      "##ohs": 7849,
      "##ulit": 7850,
      "sup": 7851,
      "suhti": 7852,
      "enes": 7853,
      "gedi": 7854,
      "gezeichenet": 7855,
      "niom": 7856,
      "heile": 7857,
      "scu": 7858,
      "scer": 7859,
      "scilic": 7860,
      "##edar": 7861,
      "irchenn": 7862,
      "zeh": 7863,
      "stum": 7864,
      "stul": 7865,
      "stare": 7866,
      "##inget": 7867,
      "##seli": 7868,
      "goten": 7869,
      "fortes": 7870,
      "##rii": 7871,
      "herti": 7872,
      "uuanen": 7873,
      "iuden": 7874,
      "tharzua": 7875,
      "profer": 7876,
      "exper": 7877,
      "unsar": 7878,
      "therera": 7879,
      "theson": 7880,
      "thesero": 7881,
      "teuton": 7882,
      "dicis": 7883,
      "armon": 7884,
      "##auerit": 7885,
      "fersto": 7886,
      "peric": 7887,
      "princeps": 7888,
      "dinan": 7889,
      "##itatus": 7890,
      "##uota": 7891,
      "##ortost": 7892,
      "##obot": 7893,
      "##zzo": 7894,
      "keli": 7895,
      "leidi": 7896,
      "gesamen": 7897,
      "fristi": 7898,
      "fragen": 7899,
      "fronis": 7900,
      "trie": 7901,
      "alie": 7902,
      "alias": 7903,
      "##ennit": 7904,
      "facis": 7905,
      "genes": 7906,
      "uert": 7907,
      "biwer": 7908,
      "##ehet": 7909,
      "eiusdem": 7910,
      "obser": 7911,
      "rehtero": 7912,
      "farge": 7913,
      "##ideret": 7914,
      "amore": 7915,
      "ammon": 7916,
      "ordei": 7917,
      "##dita": 7918,
      "sagdun": 7919,
      "##isce": 7920,
      "##iscun": 7921,
      "peti": 7922,
      "guis": 7923,
      "filia": 7924,
      "merito": 7925,
      "consenti": 7926,
      "giho": 7927,
      "muod": 7928,
      "athen": 7929,
      "seruum": 7930,
      "sito": 7931,
      "diximus": 7932,
      "fuora": 7933,
      "fuisse": 7934,
      "geteta": 7935,
      "itm": 7936,
      "scalcha": 7937,
      "infide": 7938,
      "##culum": 7939,
      "marti": 7940,
      "iudea": 7941,
      "moder": 7942,
      "modseƀon": 7943,
      "drag": 7944,
      "petre": 7945,
      "petrum": 7946,
      "elliu": 7947,
      "horit": 7948,
      "giwon": 7949,
      "giwelti": 7950,
      "multitudo": 7951,
      "confitem": 7952,
      "suochen": 7953,
      "suochet": 7954,
      "nostre": 7955,
      "noe": 7956,
      "celeb": 7957,
      "slaff": 7958,
      "quisquam": 7959,
      "betont": 7960,
      "##uuerk": 7961,
      "caph": 7962,
      "heiligo": 7963,
      "uuurchent": 7964,
      "negat": 7965,
      "negare": 7966,
      "uuiolih": 7967,
      "ubeles": 7968,
      "ungel": 7969,
      "peccati": 7970,
      "quedente": 7971,
      "angusti": 7972,
      "patria": 7973,
      "faciant": 7974,
      "mortale": 7975,
      "predicatores": 7976,
      "primis": 7977,
      "teilis": 7978,
      "gilouba": 7979,
      "habeo": 7980,
      "postul": 7981,
      "huuat": 7982,
      "##illet": 7983,
      "machon": 7984,
      "altissimi": 7985,
      "persone": 7986,
      "ingredi": 7987,
      "uuizzi": 7988,
      "uuizzut": 7989,
      "intellectu": 7990,
      "buachon": 7991,
      "##beraht": 7992,
      "videre": 7993,
      "videntes": 7994,
      "skeident": 7995,
      "causis": 7996,
      "##boum": 7997,
      "uuiho": 7998,
      "uuihti": 7999,
      "occurr": 8000,
      "vvunt": 8001,
      "keuualt": 8002,
      "uurði": 8003,
      "appet": 8004,
      "fraget": 8005,
      "geskiht": 8006,
      "nullam": 8007,
      "helaga": 8008,
      "principium": 8009,
      "stric": 8010,
      "birun": 8011,
      "iuuuom": 8012,
      "laus": 8013,
      "coepit": 8014,
      "noctem": 8015,
      "noctur": 8016,
      "##mix": 8017,
      "irful": 8018,
      "nouit": 8019,
      "##uoret": 8020,
      "graƀe": 8021,
      "fratrum": 8022,
      "dispositio": 8023,
      "angelorum": 8024,
      "inphah": 8025,
      "inphahet": 8026,
      "uuorteniu": 8027,
      "tisen": 8028,
      "futuri": 8029,
      "heƀan": 8030,
      "perfectum": 8031,
      "ossa": 8032,
      "poenit": 8033,
      "cuningo": 8034,
      "casu": 8035,
      "triuuo": 8036,
      "ambahte": 8037,
      "antlingitun": 8038,
      "defens": 8039,
      "giangun": 8040,
      "haftet": 8041,
      "haftent": 8042,
      "sulica": 8043,
      "consequentiam": 8044,
      "cogitationes": 8045,
      "socratem": 8046,
      "torcul": 8047,
      "mennischen": 8048,
      "testamento": 8049,
      "commune": 8050,
      "canticum": 8051,
      "pacis": 8052,
      "egypti": 8053,
      "bisco": 8054,
      "hungar": 8055,
      "herosto": 8056,
      "uuirðig": 8057,
      "gimeinta": 8058,
      "felicitatis": 8059,
      "uirginis": 8060,
      "premia": 8061,
      "elil": 8062,
      "ivdic": 8063,
      "diabolum": 8064,
      "furiston": 8065,
      "zegat": 8066,
      "ſeſtein": 8067,
      "puerum": 8068,
      "keskehen": 8069,
      "lamp": 8070,
      "blinte": 8071,
      "houa": 8072,
      "psallite": 8073,
      "murmur": 8074,
      "enuntiatio": 8075,
      "##stir": 8076,
      "catho": 8077,
      "catheg": 8078,
      "stemma": 8079,
      "irfullen": 8080,
      "scow": 8081,
      "litter": 8082,
      "ecchert": 8083,
      "advers": 8084,
      "sacrificium": 8085,
      "uehementer": 8086,
      "verumtamen": 8087,
      "beðiu": 8088,
      "gressibile": 8089,
      "romani": 8090,
      "tristis": 8091,
      "churz": 8092,
      "liquet": 8093,
      "inuentionem": 8094,
      "jamar": 8095,
      "allelvia": 8096,
      "ſcilling": 8097,
      "widor": 8098,
      "exspect": 8099,
      "quondam": 8100,
      "hierosolim": 8101,
      "ellende": 8102,
      "clarific": 8103,
      "intellex": 8104,
      "planetarum": 8105,
      "scilicet": 8106,
      "24": 8107,
      "ari": 8108,
      "aeter": 8109,
      "ble": 8110,
      "boton": 8111,
      "cau": 8112,
      "centum": 8113,
      "dabo": 8114,
      "eid": 8115,
      "egen": 8116,
      "fad": 8117,
      "full": 8118,
      "gad": 8119,
      "gino": 8120,
      "hich": 8121,
      "huer": 8122,
      "hriuu": 8123,
      "ian": 8124,
      "ium": 8125,
      "ios": 8126,
      "kun": 8127,
      "kna": 8128,
      "kena": 8129,
      "lud": 8130,
      "line": 8131,
      "nat": 8132,
      "odio": 8133,
      "pud": 8134,
      "ue": 8135,
      "uiti": 8136,
      "væ": 8137,
      "zuue": 8138,
      "zalo": 8139,
      "ſim": 8140,
      "##uft": 8141,
      "##uper": 8142,
      "##bin": 8143,
      "##pun": 8144,
      "##pec": 8145,
      "##pisc": 8146,
      "##muoti": 8147,
      "##ſuin": 8148,
      "##erv": 8149,
      "##inent": 8150,
      "##itione": 8151,
      "thulti": 8152,
      "##iso": 8153,
      "##arin": 8154,
      "uuenne": 8155,
      "##orin": 8156,
      "sizze": 8157,
      "##azzen": 8158,
      "##amne": 8159,
      "##amentum": 8160,
      "##urrit": 8161,
      "ete": 8162,
      "eris": 8163,
      "ererun": 8164,
      "##htet": 8165,
      "##ilin": 8166,
      "##ilun": 8167,
      "neh": 8168,
      "nex": 8169,
      "chu": 8170,
      "chili": 8171,
      "choro": 8172,
      "##abi": 8173,
      "##aben": 8174,
      "##abus": 8175,
      "##abet": 8176,
      "##abantur": 8177,
      "##ulares": 8178,
      "debe": 8179,
      "##atiuo": 8180,
      "suht": 8181,
      "enf": 8182,
      "##rea": 8183,
      "geomet": 8184,
      "minun": 8185,
      "mineru": 8186,
      "##egan": 8187,
      "scro": 8188,
      "scinet": 8189,
      "scauu": 8190,
      "conqu": 8191,
      "irm": 8192,
      "irret": 8193,
      "##estes": 8194,
      "##raque": 8195,
      "habitu": 8196,
      "##leit": 8197,
      "abierunt": 8198,
      "selon": 8199,
      "##acul": 8200,
      "status": 8201,
      "adduc": 8202,
      "##ingi": 8203,
      "##ingit": 8204,
      "uuerk": 8205,
      "sprec": 8206,
      "##rich": 8207,
      "hert": 8208,
      "uuano": 8209,
      "einez": 8210,
      "##ocin": 8211,
      "tharana": 8212,
      "profic": 8213,
      "exe": 8214,
      "exig": 8215,
      "allon": 8216,
      "seuue": 8217,
      "##lichont": 8218,
      "##ftet": 8219,
      "##perit": 8220,
      "dicite": 8221,
      "arn": 8222,
      "##oue": 8223,
      "beu": 8224,
      "feru": 8225,
      "ferst": 8226,
      "utri": 8227,
      "utraque": 8228,
      "perc": 8229,
      "peruen": 8230,
      "press": 8231,
      "##ichun": 8232,
      "##tiga": 8233,
      "##undot": 8234,
      "##orton": 8235,
      "terrib": 8236,
      "suntono": 8237,
      "kelicho": 8238,
      "fior": 8239,
      "fiet": 8240,
      "vuunder": 8241,
      "denomin": 8242,
      "trem": 8243,
      "aliquam": 8244,
      "##alig": 8245,
      "anderun": 8246,
      "##enna": 8247,
      "##ennis": 8248,
      "vnz": 8249,
      "genadon": 8250,
      "corona": 8251,
      "intus": 8252,
      "furð": 8253,
      "##kea": 8254,
      "rehton": 8255,
      "##apu": 8256,
      "sublim": 8257,
      "niehtes": 8258,
      "oron": 8259,
      "orationis": 8260,
      "folgent": 8261,
      "parentes": 8262,
      "sagun": 8263,
      "heilta": 8264,
      "secunde": 8265,
      "suslih": 8266,
      "##annen": 8267,
      "dhiz": 8268,
      "meres": 8269,
      "##izzent": 8270,
      "uuesin": 8271,
      "animalis": 8272,
      "regi": 8273,
      "plena": 8274,
      "ueloc": 8275,
      "propinqu": 8276,
      "potentes": 8277,
      "##afte": 8278,
      "moht": 8279,
      "guoton": 8280,
      "duri": 8281,
      "##ithar": 8282,
      "geuuald": 8283,
      "geth": 8284,
      "getru": 8285,
      "uirga": 8286,
      "brinn": 8287,
      "briost": 8288,
      "wirdig": 8289,
      "giuuort": 8290,
      "finden": 8291,
      "##epta": 8292,
      "taranah": 8293,
      "modos": 8294,
      "petra": 8295,
      "veniat": 8296,
      "eleg": 8297,
      "##unnesam": 8298,
      "uuisse": 8299,
      "thiodo": 8300,
      "interitum": 8301,
      "giwissi": 8302,
      "mori": 8303,
      "mores": 8304,
      "multe": 8305,
      "confit": 8306,
      "suoze": 8307,
      "suohton": 8308,
      "minnera": 8309,
      "semine": 8310,
      "mannum": 8311,
      "##enget": 8312,
      "opt": 8313,
      "caiph": 8314,
      "creder": 8315,
      "negatione": 8316,
      "loca": 8317,
      "gemag": 8318,
      "##duom": 8319,
      "unguis": 8320,
      "peccatis": 8321,
      "lioƀ": 8322,
      "ruar": 8323,
      "lazent": 8324,
      "bigunnun": 8325,
      "nesci": 8326,
      "##caft": 8327,
      "hoha": 8328,
      "incor": 8329,
      "incarn": 8330,
      "incred": 8331,
      "manigero": 8332,
      "munera": 8333,
      "qvis": 8334,
      "unseriu": 8335,
      "primi": 8336,
      "mons": 8337,
      "totam": 8338,
      "capit": 8339,
      "eristun": 8340,
      "giloubu": 8341,
      "huuo": 8342,
      "caritatis": 8343,
      "machunga": 8344,
      "##oufet": 8345,
      "responde": 8346,
      "memin": 8347,
      "timere": 8348,
      "ingressus": 8349,
      "bruader": 8350,
      "neuuare": 8351,
      "heroti": 8352,
      "uocis": 8353,
      "laudes": 8354,
      "scientie": 8355,
      "occup": 8356,
      "geistes": 8357,
      "githig": 8358,
      "subiecta": 8359,
      "subiectum": 8360,
      "##escere": 8361,
      "irstan": 8362,
      "octa": 8363,
      "feor": 8364,
      "sorg": 8365,
      "sorgen": 8366,
      "helfare": 8367,
      "uuln": 8368,
      "generationem": 8369,
      "##pexit": 8370,
      "illumin": 8371,
      "oculo": 8372,
      "iniquitatis": 8373,
      "uuiðar": 8374,
      "argumentis": 8375,
      "collig": 8376,
      "inimicorum": 8377,
      "perfectus": 8378,
      "demones": 8379,
      "demonia": 8380,
      "kemeine": 8381,
      "disses": 8382,
      "triffet": 8383,
      "forasagon": 8384,
      "eruuir": 8385,
      "bringen": 8386,
      "wank": 8387,
      "tenebras": 8388,
      "##letum": 8389,
      "suscit": 8390,
      "priusquam": 8391,
      "refug": 8392,
      "chreftig": 8393,
      "fianton": 8394,
      "ciuitatem": 8395,
      "moysen": 8396,
      "##abiliter": 8397,
      "pauperes": 8398,
      "almahtigen": 8399,
      "philosophi": 8400,
      "uictor": 8401,
      "follun": 8402,
      "formid": 8403,
      "uuahsen": 8404,
      "tak": 8405,
      "biginnent": 8406,
      "boume": 8407,
      "heƀenriki": 8408,
      "malign": 8409,
      "scameg": 8410,
      "kindi": 8411,
      "qhuidit": 8412,
      "colloc": 8413,
      "festenungo": 8414,
      "cicer": 8415,
      "iniustit": 8416,
      "sursum": 8417,
      "nescio": 8418,
      "tabernaculum": 8419,
      "superbia": 8420,
      "hazze": 8421,
      "sumptum": 8422,
      "continuo": 8423,
      "conuertitur": 8424,
      "sermonem": 8425,
      "susceptib": 8426,
      "arabeiti": 8427,
      "ubermuoti": 8428,
      "maledic": 8429,
      "dadiun": 8430,
      "ewiniga": 8431,
      "circulum": 8432,
      "radic": 8433,
      "gihalota": 8434,
      "fundamentum": 8435,
      "repugnantibus": 8436,
      "oblitus": 8437,
      "philologie": 8438,
      "gehiez": 8439,
      "willon": 8440,
      "alouualdon": 8441,
      "lacrimis": 8442,
      "destru": 8443,
      "baptismum": 8444,
      "##arnaum": 8445,
      "dedicatiuo": 8446,
      "sluogen": 8447,
      "negoti": 8448,
      "antuuurta": 8449,
      "contradictorie": 8450,
      "sprihhit": 8451,
      "alawari": 8452,
      "##qhuetan": 8453,
      "deliber": 8454,
      "pecuniam": 8455,
      "fertiligot": 8456,
      "guallichi": 8457,
      "giheizan": 8458,
      "neuueiz": 8459,
      "smerza": 8460,
      "scandaliz": 8461,
      "observ": 8462,
      "ſimiliter": 8463,
      "21": 8464,
      "bellum": 8465,
      "cost": 8466,
      "frehte": 8467,
      "gut": 8468,
      "hem": 8469,
      "hat": 8470,
      "hande": 8471,
      "hetan": 8472,
      "hyp": 8473,
      "ix": 8474,
      "keg": 8475,
      "kote": 8476,
      "log": 8477,
      "leru": 8478,
      "lusti": 8479,
      "mec": 8480,
      "missa": 8481,
      "nel": 8482,
      "nasc": 8483,
      "odi": 8484,
      "pel": 8485,
      "rit": 8486,
      "ria": 8487,
      "sad": 8488,
      "semp": 8489,
      "slihti": 8490,
      "tidi": 8491,
      "uali": 8492,
      "uale": 8493,
      "ualde": 8494,
      "uestim": 8495,
      "vet": 8496,
      "vidi": 8497,
      "viderunt": 8498,
      "xl": 8499,
      "ſic": 8500,
      "##lent": 8501,
      "##lud": 8502,
      "##uimus": 8503,
      "##can": 8504,
      "##iores": 8505,
      "##ribus": 8506,
      "##rann": 8507,
      "##ee": 8508,
      "##pin": 8509,
      "##piter": 8510,
      "##gh": 8511,
      "##hont": 8512,
      "##kk": 8513,
      "##obe": 8514,
      "##ogo": 8515,
      "##for": 8516,
      "##erti": 8517,
      "##erim": 8518,
      "##ener": 8519,
      "##anches": 8520,
      "inper": 8521,
      "indan": 8522,
      "uuater": 8523,
      "uuap": 8524,
      "sicc": 8525,
      "##azet": 8526,
      "dierum": 8527,
      "unic": 8528,
      "unmez": 8529,
      "##eld": 8530,
      "##elot": 8531,
      "eter": 8532,
      "etsi": 8533,
      "##chero": 8534,
      "anc": 8535,
      "annis": 8536,
      "erstant": 8537,
      "##alda": 8538,
      "##htan": 8539,
      "##illo": 8540,
      "##uuordi": 8541,
      "alto": 8542,
      "altun": 8543,
      "##idere": 8544,
      "chet": 8545,
      "chim": 8546,
      "##imini": 8547,
      "##osum": 8548,
      "##ibili": 8549,
      "##olgen": 8550,
      "##quo": 8551,
      "suan": 8552,
      "##ahun": 8553,
      "meine": 8554,
      "##igemo": 8555,
      "##edens": 8556,
      "irth": 8557,
      "##izit": 8558,
      "habentes": 8559,
      "uuarhafto": 8560,
      "##entius": 8561,
      "##entias": 8562,
      "stal": 8563,
      "adsum": 8564,
      "##ingon": 8565,
      "##inges": 8566,
      "uueren": 8567,
      "foro": 8568,
      "foris": 8569,
      "##deren": 8570,
      "##riun": 8571,
      "iupp": 8572,
      "iupiter": 8573,
      "einf": 8574,
      "gide": 8575,
      "exs": 8576,
      "expro": 8577,
      "exalta": 8578,
      "unsen": 8579,
      "sezzen": 8580,
      "##lichaz": 8581,
      "tetig": 8582,
      "dicent": 8583,
      "artes": 8584,
      "arundi": 8585,
      "darba": 8586,
      "##ensis": 8587,
      "bef": 8588,
      "##oste": 8589,
      "perg": 8590,
      "##icha": 8591,
      "##icho": 8592,
      "##undit": 8593,
      "##zza": 8594,
      "##arios": 8595,
      "kebet": 8596,
      "johannes": 8597,
      "magen": 8598,
      "leides": 8599,
      "vuanne": 8600,
      "gese": 8601,
      "gesungen": 8602,
      "iouh": 8603,
      "iouuiht": 8604,
      "aliam": 8605,
      "sedet": 8606,
      "sedere": 8607,
      "ueris": 8608,
      "##eho": 8609,
      "nami": 8610,
      "cordibus": 8611,
      "##endes": 8612,
      "direc": 8613,
      "subia": 8614,
      "fara": 8615,
      "farle": 8616,
      "gibuntan": 8617,
      "orun": 8618,
      "##bien": 8619,
      "##eruntur": 8620,
      "habetin": 8621,
      "##iiii": 8622,
      "posita": 8623,
      "positionem": 8624,
      "meron": 8625,
      "merun": 8626,
      "huili": 8627,
      "hard": 8628,
      "animi": 8629,
      "doð": 8630,
      "dođ": 8631,
      "consor": 8632,
      "consuetud": 8633,
      "plura": 8634,
      "misk": 8635,
      "##ertur": 8636,
      "muazin": 8637,
      "##loſ": 8638,
      "gilusti": 8639,
      "heizo": 8640,
      "firs": 8641,
      "guotemo": 8642,
      "geuuis": 8643,
      "getruobet": 8644,
      "uirgin": 8645,
      "miin": 8646,
      "fluht": 8647,
      "kesehen": 8648,
      "scalch": 8649,
      "scalche": 8650,
      "uuerdan": 8651,
      "possis": 8652,
      "posside": 8653,
      "petri": 8654,
      "##ectvs": 8655,
      "veniens": 8656,
      "horam": 8657,
      "horta": 8658,
      "moribus": 8659,
      "suohtun": 8660,
      "loz": 8661,
      "slahet": 8662,
      "ubarlut": 8663,
      "uuelero": 8664,
      "untes": 8665,
      "uuurtin": 8666,
      "uuurdin": 8667,
      "negleg": 8668,
      "stuon": 8669,
      "ahtoden": 8670,
      "sym": 8671,
      "gemach": 8672,
      "unger": 8673,
      "##caffen": 8674,
      "ouge": 8675,
      "recte": 8676,
      "recess": 8677,
      "manigf": 8678,
      "nihilo": 8679,
      "##samii": 8680,
      "spracha": 8681,
      "ginuht": 8682,
      "freis": 8683,
      "benedi": 8684,
      "operum": 8685,
      "riuua": 8686,
      "tuoe": 8687,
      "sulin": 8688,
      "##ustra": 8689,
      "erista": 8690,
      "caritatem": 8691,
      "##ceat": 8692,
      "##ceiden": 8693,
      "##illa": 8694,
      "personam": 8695,
      "qualitate": 8696,
      "presenti": 8697,
      "psalmis": 8698,
      "separ": 8699,
      "septi": 8700,
      "videt": 8701,
      "bruo": 8702,
      "nimium": 8703,
      "verbis": 8704,
      "uocab": 8705,
      "thriu": 8706,
      "mugut": 8707,
      "adim": 8708,
      "##lihheru": 8709,
      "ungeh": 8710,
      "kehore": 8711,
      "fruo": 8712,
      "subiecti": 8713,
      "hoƀ": 8714,
      "irstant": 8715,
      "fidelium": 8716,
      "sapientiam": 8717,
      "muode": 8718,
      "nales": 8719,
      "remiss": 8720,
      "wizi": 8721,
      "noui": 8722,
      "generationes": 8723,
      "vocavit": 8724,
      "euuiga": 8725,
      "holdun": 8726,
      "oculus": 8727,
      "michelen": 8728,
      "iniquitas": 8729,
      "saec": 8730,
      "misselichen": 8731,
      "thegno": 8732,
      "dignus": 8733,
      "dolor": 8734,
      "bitter": 8735,
      "sprichit": 8736,
      "fuoze": 8737,
      "haltet": 8738,
      "freuuen": 8739,
      "dimidi": 8740,
      "propositione": 8741,
      "colum": 8742,
      "accidentibus": 8743,
      "mundes": 8744,
      "abbate": 8745,
      "irhuge": 8746,
      "kemein": 8747,
      "ketuon": 8748,
      "sententia": 8749,
      "accipere": 8750,
      "samanunga": 8751,
      "wilit": 8752,
      "trinitatis": 8753,
      "sexta": 8754,
      "mihileru": 8755,
      "suscepit": 8756,
      "ceciderunt": 8757,
      "hlud": 8758,
      "lacte": 8759,
      "wisun": 8760,
      "communem": 8761,
      "persecut": 8762,
      "chumftigen": 8763,
      "lapides": 8764,
      "blid": 8765,
      "cæl": 8766,
      "oues": 8767,
      "hosp": 8768,
      "infinita": 8769,
      "exempla": 8770,
      "kindes": 8771,
      "civitate": 8772,
      "gimeinit": 8773,
      "festenunga": 8774,
      "stade": 8775,
      "crediderunt": 8776,
      "vvurdun": 8777,
      "eddes": 8778,
      "giloƀon": 8779,
      "souuio": 8780,
      "##izeich": 8781,
      "iudæi": 8782,
      "##brochen": 8783,
      "nuptias": 8784,
      "managfalto": 8785,
      "appropinqu": 8786,
      "lefsa": 8787,
      "dimittere": 8788,
      "rauua": 8789,
      "conscientia": 8790,
      "officium": 8791,
      "liƀes": 8792,
      "tract": 8793,
      "isaac": 8794,
      "natiu": 8795,
      "gladium": 8796,
      "tuenthic": 8797,
      "fimf": 8798,
      "liument": 8799,
      "ratiocin": 8800,
      "chiscrib": 8801,
      "sepulch": 8802,
      "crvcif": 8803,
      "gisiuni": 8804,
      "determin": 8805,
      "irraf": 8806,
      "uterque": 8807,
      "synagoga": 8808,
      "elisabeth": 8809,
      "confitemini": 8810,
      "capharnaum": 8811,
      "iuppiter": 8812,
      "aeg": 8813,
      "bint": 8814,
      "bodo": 8815,
      "bogen": 8816,
      "bristet": 8817,
      "cac": 8818,
      "earum": 8819,
      "eorvm": 8820,
      "fisc": 8821,
      "fugi": 8822,
      "fahen": 8823,
      "genti": 8824,
      "gall": 8825,
      "hom": 8826,
      "hizza": 8827,
      "iunc": 8828,
      "jes": 8829,
      "jud": 8830,
      "kinde": 8831,
      "listi": 8832,
      "lop": 8833,
      "ligen": 8834,
      "menti": 8835,
      "mentes": 8836,
      "mnas": 8837,
      "nieo": 8838,
      "olim": 8839,
      "pim": 8840,
      "pider": 8841,
      "pull": 8842,
      "pizeich": 8843,
      "qhuu": 8844,
      "sw": 8845,
      "tic": 8846,
      "tell": 8847,
      "tales": 8848,
      "trium": 8849,
      "uo": 8850,
      "uent": 8851,
      "ure": 8852,
      "uentur": 8853,
      "uinum": 8854,
      "vz": 8855,
      "vine": 8856,
      "vinum": 8857,
      "vado": 8858,
      "win": 8859,
      "westi": 8860,
      "##lor": 8861,
      "##lau": 8862,
      "##uia": 8863,
      "##uate": 8864,
      "##cia": 8865,
      "##ient": 8866,
      "##iorum": 8867,
      "##iung": 8868,
      "##eo": 8869,
      "##gib": 8870,
      "##ditur": 8871,
      "##tv": 8872,
      "##mare": 8873,
      "##mach": 8874,
      "##vli": 8875,
      "##fa": 8876,
      "##ƀu": 8877,
      "##enen": 8878,
      "##engi": 8879,
      "inuuert": 8880,
      "##aribus": 8881,
      "##arentur": 8882,
      "uuec": 8883,
      "uuige": 8884,
      "uuissi": 8885,
      "uuesta": 8886,
      "##umet": 8887,
      "##emur": 8888,
      "siht": 8889,
      "##lik": 8890,
      "quiss": 8891,
      "quandam": 8892,
      "##amun": 8893,
      "diis": 8894,
      "unh": 8895,
      "unda": 8896,
      "unhol": 8897,
      "##urum": 8898,
      "##chem": 8899,
      "erb": 8900,
      "erhe": 8901,
      "##alon": 8902,
      "##allen": 8903,
      "##irin": 8904,
      "##irret": 8905,
      "##illig": 8906,
      "soð": 8907,
      "##uuilli": 8908,
      "sindes": 8909,
      "sinuuel": 8910,
      "nequ": 8911,
      "chn": 8912,
      "cher": 8913,
      "char": 8914,
      "chenun": 8915,
      "##agene": 8916,
      "##olf": 8917,
      "##anten": 8918,
      "##antemu": 8919,
      "##utes": 8920,
      "deil": 8921,
      "##atia": 8922,
      "##atiuum": 8923,
      "##unte": 8924,
      "suhte": 8925,
      "manna": 8926,
      "##ahanne": 8927,
      "eniu": 8928,
      "fons": 8929,
      "geo": 8930,
      "mevs": 8931,
      "meint": 8932,
      "meinet": 8933,
      "minro": 8934,
      "##igaz": 8935,
      "##icit": 8936,
      "##icul": 8937,
      "mitter": 8938,
      "mittem": 8939,
      "##edan": 8940,
      "irhu": 8941,
      "zeuu": 8942,
      "zebe": 8943,
      "##erebat": 8944,
      "duas": 8945,
      "habitat": 8946,
      "habeb": 8947,
      "habentibus": 8948,
      "habebat": 8949,
      "uuarb": 8950,
      "abuh": 8951,
      "aband": 8952,
      "absit": 8953,
      "selp": 8954,
      "stre": 8955,
      "stand": 8956,
      "stabat": 8957,
      "adpro": 8958,
      "aduen": 8959,
      "##ingen": 8960,
      "forna": 8961,
      "forahta": 8962,
      "fortitudo": 8963,
      "spect": 8964,
      "##riche": 8965,
      "##uoe": 8966,
      "uuanit": 8967,
      "iubil": 8968,
      "prov": 8969,
      "progen": 8970,
      "prouoc": 8971,
      "exitus": 8972,
      "unsig": 8973,
      "alleru": 8974,
      "sehe": 8975,
      "##lichu": 8976,
      "##lichor": 8977,
      "##ftes": 8978,
      "escam": 8979,
      "selbuualtig": 8980,
      "dicant": 8981,
      "##angel": 8982,
      "arith": 8983,
      "arunti": 8984,
      "dese": 8985,
      "bede": 8986,
      "beuuar": 8987,
      "ferr": 8988,
      "percip": 8989,
      "prut": 8990,
      "##ichet": 8991,
      "##ffi": 8992,
      "##ffan": 8993,
      "##liho": 8994,
      "samant": 8995,
      "magd": 8996,
      "magað": 8997,
      "lev": 8998,
      "leiti": 8999,
      "vuis": 9000,
      "gesihte": 9001,
      "gesuas": 9002,
      "##iturus": 9003,
      "gisih": 9004,
      "anderis": 9005,
      "anderemo": 9006,
      "##enni": 9007,
      "##ennen": 9008,
      "##ueris": 9009,
      "facite": 9010,
      "uerte": 9011,
      "ints": 9012,
      "##ogn": 9013,
      "oberen": 9014,
      "##keban": 9015,
      "##antiam": 9016,
      "rehtunga": 9017,
      "oratione": 9018,
      "##ancuning": 9019,
      "salta": 9020,
      "uuillun": 9021,
      "secus": 9022,
      "##inth": 9023,
      "christan": 9024,
      "peuu": 9025,
      "guata": 9026,
      "dhem": 9027,
      "dhir": 9028,
      "meren": 9029,
      "##izzi": 9030,
      "thineru": 9031,
      "pluu": 9032,
      "uuoltost": 9033,
      "miseros": 9034,
      "prope": 9035,
      "##ienge": 9036,
      "geban": 9037,
      "##loqui": 9038,
      "##ebam": 9039,
      "dixerit": 9040,
      "quaer": 9041,
      "firnam": 9042,
      "preti": 9043,
      "geuuit": 9044,
      "geuuir": 9045,
      "geuualte": 9046,
      "getate": 9047,
      "floh": 9048,
      "giuuati": 9049,
      "scalca": 9050,
      "##ept": 9051,
      "tagum": 9052,
      "sken": 9053,
      "phara": 9054,
      "iudex": 9055,
      "modar": 9056,
      "possum": 9057,
      "petit": 9058,
      "uuizi": 9059,
      "uuisen": 9060,
      "iungisten": 9061,
      "iungarun": 9062,
      "morg": 9063,
      "moraliter": 9064,
      "multos": 9065,
      "gimar": 9066,
      "semel": 9067,
      "semina": 9068,
      "nostros": 9069,
      "quementi": 9070,
      "legibus": 9071,
      "quisquis": 9072,
      "bette": 9073,
      "pectus": 9074,
      "curi": 9075,
      "redon": 9076,
      "ufan": 9077,
      "sehendo": 9078,
      "stuod": 9079,
      "truhtenen": 9080,
      "saligo": 9081,
      "ubelon": 9082,
      "sydera": 9083,
      "wollen": 9084,
      "ungem": 9085,
      "liob": 9086,
      "ruarit": 9087,
      "cub": 9088,
      "steph": 9089,
      "incre": 9090,
      "recor": 9091,
      "uolget": 9092,
      "patribus": 9093,
      "conced": 9094,
      "sprach": 9095,
      "##issimis": 9096,
      "ginu": 9097,
      "bluote": 9098,
      "statuit": 9099,
      "riuu": 9100,
      "neheinen": 9101,
      "teiles": 9102,
      "innana": 9103,
      "gidor": 9104,
      "sacr": 9105,
      "sacra": 9106,
      "##ornun": 9107,
      "wortes": 9108,
      "##indest": 9109,
      "##atorem": 9110,
      "crucem": 9111,
      "##cumu": 9112,
      "criste": 9113,
      "causas": 9114,
      "uoces": 9115,
      "sprechenne": 9116,
      "##spra": 9117,
      "quibusdam": 9118,
      "occul": 9119,
      "tiure": 9120,
      "barab": 9121,
      "githiu": 9122,
      "honore": 9123,
      "sahen": 9124,
      "frua": 9125,
      "prior": 9126,
      "kuoten": 9127,
      "sensum": 9128,
      "sensibus": 9129,
      "transm": 9130,
      "sazun": 9131,
      "labia": 9132,
      "labiis": 9133,
      "noctibus": 9134,
      "quanto": 9135,
      "gihorit": 9136,
      "uias": 9137,
      "benedicite": 9138,
      "equus": 9139,
      "passionem": 9140,
      "saul": 9141,
      "inphieng": 9142,
      "auribus": 9143,
      "wewon": 9144,
      "##ietis": 9145,
      "chuninges": 9146,
      "fuozze": 9147,
      "##skep": 9148,
      "salutari": 9149,
      "linguam": 9150,
      "uuazzar": 9151,
      "besu": 9152,
      "aquas": 9153,
      "heƀancuning": 9154,
      "particip": 9155,
      "adhib": 9156,
      "bethania": 9157,
      "gnade": 9158,
      "prouidentiam": 9159,
      "craftag": 9160,
      "mensura": 9161,
      "poeta": 9162,
      "sententiam": 9163,
      "sententie": 9164,
      "gahor": 9165,
      "servus": 9166,
      "triang": 9167,
      "##haban": 9168,
      "##stantet": 9169,
      "##minist": 9170,
      "haften": 9171,
      "questiones": 9172,
      "clamaui": 9173,
      "porta": 9174,
      "handon": 9175,
      "snium": 9176,
      "wisdu": 9177,
      "tvam": 9178,
      "bimiden": 9179,
      "huob": 9180,
      "hebbe": 9181,
      "abrahames": 9182,
      "arbitr": 9183,
      "obedi": 9184,
      "##nussi": 9185,
      "humilitatem": 9186,
      "persecutio": 9187,
      "greci": 9188,
      "pauperum": 9189,
      "pauperem": 9190,
      "lapis": 9191,
      "afur": 9192,
      "himilrichi": 9193,
      "spracun": 9194,
      "##haften": 9195,
      "lenzen": 9196,
      "sacerdos": 9197,
      "fallent": 9198,
      "penninga": 9199,
      "absque": 9200,
      "uuirðit": 9201,
      "temptatio": 9202,
      "false": 9203,
      "unmahtig": 9204,
      "calig": 9205,
      "purpur": 9206,
      "gruoz": 9207,
      "##rorsum": 9208,
      "opinio": 9209,
      "schirm": 9210,
      "rationale": 9211,
      "placet": 9212,
      "fluoh": 9213,
      "surrexit": 9214,
      "sibba": 9215,
      "##plac": 9216,
      "folgeta": 9217,
      "tym": 9218,
      "secundus": 9219,
      "exaudiuit": 9220,
      "gradvvm": 9221,
      "differentie": 9222,
      "tenebre": 9223,
      "terrarum": 9224,
      "giloƀ": 9225,
      "elemos": 9226,
      "phariseis": 9227,
      "lxx": 9228,
      "luzil": 9229,
      "zuuene": 9230,
      "nehabent": 9231,
      "moyse": 9232,
      "cognoverunt": 9233,
      "fundamenta": 9234,
      "adep": 9235,
      "##amnod": 9236,
      "sundigon": 9237,
      "scrifte": 9238,
      "keheizen": 9239,
      "euangelio": 9240,
      "fluctu": 9241,
      "dialec": 9242,
      "geiiht": 9243,
      "respice": 9244,
      "dulced": 9245,
      "satisfac": 9246,
      "esaias": 9247,
      "utrumlibet": 9248,
      "mansuet": 9249,
      "resurgere": 9250,
      "irteilet": 9251,
      "lougene": 9252,
      "obseru": 9253,
      "parabolam": 9254,
      "psalterio": 9255,
      "psalterium": 9256,
      "terminos": 9257,
      "firliaz": 9258,
      "monumentum": 9259,
      "iniuriam": 9260,
      "tuenthig": 9261,
      "lyb": 9262,
      "mosti": 9263,
      "blasph": 9264,
      "fortuit": 9265,
      "elocutio": 9266,
      "dilexi": 9267,
      "dubio": 9268,
      "proloquia": 9269,
      "uuelez": 9270,
      "adulter": 9271,
      "gimalanaſ": 9272,
      "promissionis": 9273,
      "essent": 9274,
      "managfalta": 9275,
      "gesezzet": 9276,
      "ewarton": 9277,
      "pilide": 9278,
      "imaginem": 9279,
      "dialectica": 9280,
      "circumdederunt": 9281,
      "thomas": 9282,
      "gilestid": 9283,
      "sempiter": 9284,
      "crvcifige": 9285,
      "arithme": 9286,
      "26": 9287,
      "boc": 9288,
      "bider": 9289,
      "cnu": 9290,
      "dahton": 9291,
      "ede": 9292,
      "emo": 9293,
      "ejus": 9294,
      "fes": 9295,
      "fus": 9296,
      "fate": 9297,
      "fles": 9298,
      "gun": 9299,
      "gul": 9300,
      "gec": 9301,
      "grehto": 9302,
      "haldan": 9303,
      "ko": 9304,
      "kere": 9305,
      "kich": 9306,
      "lia": 9307,
      "led": 9308,
      "leren": 9309,
      "mys": 9310,
      "nor": 9311,
      "pun": 9312,
      "pus": 9313,
      "paz": 9314,
      "pug": 9315,
      "pagan": 9316,
      "remo": 9317,
      "rinn": 9318,
      "roten": 9319,
      "rachon": 9320,
[...]
