[PAD]
[UNK]
[CLS]
[SEP]
[MASK]
<S>
<T>
!
"
#
&
'
(
)
*
,
-
.
/
0
1
2
3
4
5
6
7
8
9
:
;
<
>
?
[
\
]
^
_
a
b
c
d
e
f
g
h
i
j
k
l
m
n
o
p
q
r
s
t
u
v
w
x
y
z
{
|
}
~
«
°
·
»
æ
ð
÷
þ
đ
ħ
ł
ſ
ƀ
ʒ
ʾ
α
γ
ε
θ
ι
λ
ν
ο
π
τ
φ
χ
†
##l
##u
##c
##i
##n
##a
##r
##e
##b
##p
##g
##d
##s
##q
##t
##h
##k
##o
##z
##m
##v
##ſ
##f
##x
##0
##7
##ð
##ƀ
##w
##æ
##y
##đ
##1
##3
##9
##5
##2
##4
##ο
##6
##ħ
##8
##ʾ
##j
##ł
##ʒ
##ι
##λ
##γ
##α
##ε
##χ
##ν
##er
##en
##an
##in
##on
##it
th
##es
##is
in
##ar
uu
##ti
##um
##un
##em
##or
##us
##at
##et
##st
si
##az
##de
##li
qu
##am
di
un
nan
##ur
##ot
##el
et
##ch
an
er
##di
##al
##ir
##ht
##il
##ent
so
##uu
sin
##ro
al
##ero
##id
ist
##iu
ne
unde
##as
##om
ch
##ag
##im
##os
##ab
daz
##ib
##ih
##ie
##oh
##ul
##ol
##ant
ih
##ec
##qu
sie
##da
##ut
de
##ati
##unt
##ist
##emo
su
man
##ah
en
##re
est
##od
##ne
tu
fon
ge
me
ni
##ia
im
min
thaz
##ig
he
##ic
mit
non
##eg
sc
con
##ed
##ad
ir
##iz
##est
ze
##ta
##te
inti
diu
die
##ere
##ra
du
hab
uuar
##le
##uh
ab
##enti
iro
##io
##ru
iz
sel
##ili
##ac
st
ad
##ing
##be
##se
uuer
##ug
##omin
got
for
fone
sp
der
##der
##ri
sint
re
her
##uo
uuan
tho
iu
##do
ein
gi
dero
##oc
imo
thar
pro
ex
##orum
##so
uns
all
##que
se
##lich
##ft
es
nu
ther
aut
thes
te
ouh
mih
uuir
##per
##ius
zi
selb
dic
##he
##ang
##anne
taz
ar
des
dar
##ou
##ens
uuanda
sih
##are
##au
be
##ost
fer
om
ut
ub
per
pr
il
qui
is
din
domin
##itat
##uot
##ation
##ich
##tig
##und
##ort
ter
que
that
##ibus
##ci
thie
##ob
##ung
omn
##aht
thiu
mir
##ff
##zz
##ter
##rist
autem
uuas
##ge
##lih
sunt
##ari
then
##iss
noh
##ud
ke
demo
joh
sam
mag
also
cum
le
fi
sun
##den
##atur
##htin
vu
endi
ges
quod
##ell
fr
##bus
den
##alt
##eta
quad
##dic
tr
io
aber
ali
##era
dien
##ite
##ile
##to
##itur
gis
##ali
ander
chit
the
##iam
##cc
quid
dis
##go
##ont
hi
##enn
esse
vn
##uer
fac
gen
##ater
sed
thu
uer
bi
##eh
##ph
nam
eius
##ene
##vs
##ieht
cor
##ine
##and
##end
ill
##ion
##ina
int
##og
quam
##na
##ate
ob
fur
##no
sum
##ke
##atio
##lic
vnde
ioh
um
##anti
him
liu
siu
dir
reht
sol
##ap
sub
far
ip
ana
cont
##ider
##tum
am
themo
gib
quia
##ess
tiu
##iht
nec
nieht
or
##chen
fol
zu
##ota
##bi
##anc
##dit
sim
alle
par
lib
##ruhtin
sal
alde
sag
##ono
##uc
##ach
##isc
##tus
##erunt
uuil
enim
##entes
heil
sec
##oub
##cip
ger
nah
##omo
##gen
sus
##int
##uit
##isti
than
christ
##unc
habet
##ore
##emp
pe
gu
##ita
##vm
##ann
##ii
god
pos
ant
gr
uuaz
##rah
bon
fil
fili
##anta
war
uz
##tion
##fic
dh
mer
ube
##pp
##izz
gotes
##iter
inan
eum
thin
hu
har
uues
anim
do
reg
super
cons
danne
pl
gih
uuol
sic
uue
##ium
uel
them
mis
##ide
##ert
chad
prop
##enne
mu
##diu
##iti
thur
##ana
##omen
at
ser
##ien
homo
##ern
sit
geb
com
hel
ius
not
pot
##gn
geh
homin
ac
##lo
##av
gil
##dun
##eb
res
dix
fore
sia
ips
aft
enti
ane
##uuar
mid
##entia
##af
uuor
##ata
thero
to
mo
sanc
sar
qua
##les
heiz
##sc
##itas
fater
temp
fir
fu
##liu
sine
dei
##ugen
ende
##obis
guot
##als
dur
##ith
pre
##atus
umbe
##ein
dia
##erit
##oniam
id
##op
##ze
##arum
##aro
##atr
##sal
##quam
geuu
get
##ui
##tim
uir
br
menn
tie
mi
##etur
##reht
druhtin
fl
##gi
##anda
thia
hoc
wir
giuu
kes
ei
gel
it
##zen
##arn
fin
mal
##ans
thir
scal
uuerd
uuort
##rib
quoniam
##ast
##ep
quo
hier
uero
unsih
inf
##itate
tag
gl
tru
##ente
sk
uuard
##one
##cul
##itatem
dih
mar
tar
tero
filu
##ua
aliqu
##th
##amen
iuu
##ald
tes
ph
iude
##tun
uber
mod
##che
poss
##hten
deus
dr
##ato
pet
##rum
##mo
##ect
ven
sinen
uuero
uuiz
##ten
el
ecc
maht
godes
##unn
uuis
thanne
thi
##atione
ding
##ton
##eri
and
##irm
##antur
##tio
##ende
domine
nem
##eru
##isk
##uue
heilant
iung
hor
unz
au
manag
##inn
##irit
gote
eorum
##ele
inter
giw
mor
mul
conf
acc
hie
##endo
suo
allen
##atum
gim
##tit
##dig
##rohtin
ihes
minn
##uning
sem
nost
eo
after
mann
spirit
##urg
lu
##ationem
mud
nih
was
uuirt
selben
##ið
lo
thoh
uuerden
##eng
quem
dominus
##ete
unreht
doh
euu
no
leg
op
##tis
##eli
cel
##atis
##ibi
sl
quis
uuerdent
bet
fona
##licho
##uli
nals
ur
##ull
imu
##ino
##ahtig
ubar
muddi
##uuer
##annan
uuesen
sicut
##itatis
ca
uuel
pec
##ben
unt
##undum
ha
##untur
cur
red
selbo
corp
##agen
ego
uf
gif
ap
men
heili
##bit
##pro
vuanda
natur
##det
uuider
scul
##ores
dara
##unga
ergo
##inem
cre
allero
##hein
##stanti
himil
zuo
neque
tua
aff
under
##ara
uuur
##ugi
hiar
##lu
sinero
seh
muot
neg
##len
##rit
uuio
dixit
gab
##tin
##eren
##osit
##ichen
stu
truhten
lob
##eret
##chet
omnes
aht
us
nube
##imus
loc
psal
sali
##if
cog
scol
substanti
tur
##ies
##ba
tibi
##pon
ubel
sy
gem
chum
contr
##du
##ers
tue
wol
ung
habent
tuot
as
vobis
hus
pecc
hum
lio
##uen
##tiu
##entibus
sament
ru
##emu
mea
##ane
eos
laz
quidem
eis
##ram
bin
big
num
##ip
miser
nes
##ca
eg
lang
sina
alliu
hoh
##elich
##don
ihesus
ik
##entum
ig
qued
oug
##kon
ang
cu
ste
##ando
inc
##hta
rec
wer
##isso
uuerl
secundum
thuruh
uuanta
##ora
##entiam
amb
harto
##ida
hic
cl
uol
manig
pop
##dio
mina
nihil
##tiam
##lig
omnia
patr
##erum
##ini
##entis
dag
ina
##oris
faci
mun
##sam
##ibile
##ici
discip
bist
und
ched
conc
qv
##ue
##des
mihi
samo
sines
lich
van
spra
##rip
##heit
iam
##issim
mort
truhtin
manno
unser
oba
dec
fan
gin
nos
wor
sinemo
predic
ie
prim
bl
naht
##ulum
domini
fre
##num
mon
##ma
uuaren
illi
gang
##ris
##ale
##entur
igitur
bene
stat
##ha
neist
##ose
##ieo
krist
uueg
drohtin
tanne
##laz
##tu
##eris
ita
##idar
arg
thea
his
oper
bonum
potest
ri
cir
etiam
##ni
##pa
##inis
##aris
tot
##fte
necess
fec
sid
##sum
##me
##endi
nomin
##iv
##ron
erat
sing
##iec
cap
dannan
tuo
nehein
mine
nomen
sul
teta
##ust
uuarun
israh
uuile
tuon
teil
##ione
namen
comp
ma
##uon
erist
fure
##oro
simil
ea
hec
thih
chr
sela
theru
anderen
giloub
pra
##dan
inn
habe
thio
bech
heizet
israhel
post
##all
alter
##iden
huu
erit
##hte
##ante
omnis
glor
untar
gid
sac
##cho
iudic
barn
dem
##za
##orn
##alem
mich
##ren
##si
##inet
##isi
##til
dinero
eccles
##ihh
##oll
gisah
ini
lon
off
##abit
car
ten
##ce
##bum
##ill
##oman
aliquid
wort
##esti
rich
uuald
##oron
##ote
##ationis
themu
imp
##igi
duo
##ionem
worol
go
mach
diff
ante
alt
deo
##ouf
spec
##esse
pers
respon
vos
##uis
uuola
ber
##idi
##enten
mem
tim
##itu
ing
selƀ
qual
##entem
bis
em
sang
##igen
pres
ipse
iac
##ae
##bet
##ind
##itud
selbun
prec
eft
indi
##enta
##raft
##tionem
malt
##itum
uuizz
##unti
##ago
illis
intell
comm
bu
hal
dicit
##ber
##ator
uniu
fora
psalm
pas
##inc
sep
ziu
##mon
##ftig
##ito
##ehen
quað
christi
##uum
uuare
dicitur
mennisk
uuerol
cru
##ei
tuum
##zze
himel
git
tir
vid
##cum
gef
##cha
erda
proph
alles
dinen
##arium
bru
sen
##ko
haben
gerſ
nim
##ordi
##ire
##vn
##oton
##odo
rehte
##rus
##ande
##ura
##heite
uuell
##ates
neuu
note
crist
hero
ske
##din
##fec
thuo
uueiz
##otun
sprah
fuor
hugi
ver
##esten
domino
##ationes
fro
pater
##itis
##aria
##tione
caus
##hu
meam
gieng
temo
uoc
##ub
unum
##antes
meist
umbi
lau
thr
##abo
mennisc
salig
wio
##tes
##oso
atque
usque
ag
da
mahtig
zes
##itt
##itus
meum
uuirdit
odo
##bo
##ena
tuam
minero
spre
affirm
riht
##sp
##ula
deum
##ahti
##entie
selbes
semper
##euu
quibus
##urti
terra
uualdand
lie
uuih
##eth
frum
contra
ait
giz
mug
##sl
##oti
quadun
##alis
##ulis
sci
uuarð
##entium
##ific
ira
andere
nobis
occ
uen
vv
##get
fuer
##ure
chomen
geist
##auit
##zeichen
adi
ti
##het
meino
bar
dom
##duc
##tr
##tut
##amm
beg
nunc
nisi
pil
tamen
##lichen
##lihh
unge
keuu
##prochen
gith
tien
##ani
##aten
##atun
sizz
eina
ille
keh
li
##auu
uur
##orem
suis
herzen
##ll
##plic
##ulo
uuerde
fern
omnibus
trib
ecce
mari
##vit
exc
app
bo
hon
sap
##gon
##etan
chom
thara
sagen
bra
doc
sah
filius
fru
##sa
##lium
cham
meus
rep
liudi
subiec
quoque
ho
ler
mil
##rec
##ki
##esc
uuin
sign
##ala
##ult
eng
durh
audi
av
fund
za
##dam
##sus
##oni
uzer
zit
##xit
##lichi
thera
##ahta
dum
gest
inim
##oren
mines
##ige
frag
iohann
ign
##tem
irst
disc
miseric
fri
lat
oc
##bat
##gin
##set
##itun
##usalem
##qui
mei
prin
bre
eu
eff
fut
gir
##onis
##tibus
dies
##fto
gesk
uuille
fe
null
opp
##oribus
##ilis
##ido
##eder
terram
filo
helag
hant
pri
sor
##gun
##azz
##ulus
uuirdet
propter
ic
ich
##ime
burg
##fer
arm
princip
kuot
luc
uone
##lum
ins
str
fide
bir
dau
iou
uid
vest
##bis
chumet
sapi
gn
##crib
##br
etern
##quit
iru
petrus
sens
tunc
##vi
##chert
##isset
trans
animal
ost
saz
uzz
##ret
dera
iustit
cogn
lioht
inp
##ath
sibi
herro
himile
pediu
worolt
houb
muo
nal
pa
rel
habest
liut
lab
##ga
##dum
##tic
alla
gerno
uuolta
rem
##man
##enda
inv
##eton
##chi
suam
uuordun
iuuu
mannes
hina
san
uan
##ila
bif
misericordi
eam
la
this
##chent
##ilia
beat
##issa
bith
co
kel
noc
xx
##oli
##mi
##eter
ged
minen
const
christvs
tia
wiz
##ade
##ez
thing
##dici
##rost
##reg
ubi
himele
muat
uuerlte
quant
erdo
##alta
tuont
##zzen
thiz
inu
##abe
helf
apost
ew
fle
ga
lig
seg
##andi
uun
##htun
##osc
irf
dina
illa
necesse
getan
item
uide
##iun
##oran
##ides
minemo
scrib
folc
aftar
uirtut
possibile
ecclesia
nou
##los
uul
quas
pau
##la
##uor
##pra
##inen
##ilo
scrip
gener
venit
gagen
voc
wiht
##pe
##tor
##init
sinan
uuari
dinemo
illum
gra
##usti
herza
gihor
spiritus
cheden
tod
ui
##sel
##sequ
modo
benedic
bur
gali
##tific
##abat
prou
selbemo
fram
saget
uuesan
euuig
menigi
undar
gum
hol
ocul
zell
##dis
inquam
##umu
##deo
dico
fratr
michel
echert
##pic
##ano
star
##endit
sumelich
iniqu
iacob
##iuu
##ys
##atem
##ihet
##odun
disp
uuord
mik
nider
manne
selba
dicens
arbe
leit
##lico
natura
equ
pat
##unde
quare
##iles
##ento
sua
fortun
sunu
pharis
pass
gentes
let
oƀ
sund
tate
##ling
uuið
quamun
bil
test
##up
##bu
##ouu
##emer
uerum
ipsa
skinet
angel
argum
nalles
dan
sa
##res
##rim
inph
##ario
uueh
bediu
grati
los
mugen
vol
waz
##bar
##fen
##ona
##ches
##lex
galile
aur
dav
fals
fast
##enit
suum
##ica
##auerunt
omni
filii
we
##iet
##zi
##eron
uuieo
gehe
misse
sculun
theg
dign
aba
omnium
intf
ipsum
noti
similiter
dol
toh
trohtin
vel
aduer
einen
hominem
phil
uuurden
uuerlt
bit
lut
lic
##dium
dep
##ilih
##ihte
uuorten
dati
fest
roc
##isse
chuning
spri
iudici
einemo
##ungo
quae
auh
fuo
halt
pon
##ales
##enter
illud
christo
cuius
david
tis
uiu
##fti
##itam
uuah
##agin
##ihti
dea
tui
habit
##endum
fuar
uuideruuar
selƀo
rockon
gan
hil
ſel
inm
conuer
esset
vuaz
##alia
peccat
freuu
eig
fli
stim
wari
##eti
##ske
dim
##urt
##asti
##rium
dominum
giseh
namo
salut
ipsi
nemag
fecit
oƀar
carn
ling
##bant
##sit
##inum
##under
##oto
proposit
##avit
negatio
bechenn
col
##uont
sper
guati
accid
iter
##inde
##aren
##emes
##uua
aller
fiur
simul
##iii
uuazz
gehor
mund
ret
##yp
##inqu
##oten
heli
leid
uuideruuartig
eb
ful
lieht
##anden
##lius
##abitur
exp
dicuntur
magis
christum
ward
heizent
futur
mikil
vt
##tur
##undi
##amus
dex
##iste
##itates
terre
uuillen
animam
haec
##zeichenet
bes
cal
ratio
santa
##lin
mand
gelih
nioman
cong
stant
##angen
##issi
##uerunt
amen
anima
##ebat
intelleg
inimic
aqu
lera
##erat
##onne
uuid
##umque
##idu
heƀ
##egin
habo
abrah
thesa
parti
bib
cui
kind
mare
put
##vr
##ares
diem
##otes
##rog
##ahe
abb
adh
leb
anderes
thurh
hiez
beth
gna
hir
lant
##kan
##emus
##etis
soso
gesprochen
nomine
innan
contradic
az
##iat
diur
##liche
dine
fier
fieri
finem
corpus
prouid
##idiu
##nes
##nun
##oz
habeta
##derunt
perfec
ieo
dauid
asc
hin
os
rerum
uis
##uom
##pi
##fi
quos
##atibus
ster
zuei
thana
bona
##tionis
demon
craft
gat
mens
po
##nu
uui
eteuu
irh
furi
loqu
gerſton
##vnt
ſeluon
hunc
nol
tum
vbe
##lon
uuidar
quæ
alm
meo
liute
hominum
substantia
ambul
thisu
mus
ougen
pan
pal
##bun
##gan
inde
quh
mitt
uuerð
einer
allaz
##ionis
conting
tage
multi
syll
##itudinem
uniuer
affirmatio
cunc
eben
ker
kem
ket
vir
##run
quin
##agon
##uge
omne
vuieo
corde
##iones
##ogis
libe
christus
tara
patrem
offen
memor
avur
diss
oð
sent
##edi
##haf
quic
sequ
##licha
plur
haƀ
contrari
gau
hell
lec
pin
vero
quat
##teil
##ilic
hominis
laud
iohannes
cuning
gah
lum
##elih
##erd
diz
##edo
##adem
iud
desc
gibet
serv
iustus
dingo
muoter
licham
cas
hiu
mera
sat
tri
##hab
##kes
inquit
##unda
##stant
##lim
siniu
##omodo
##quid
##ign
##esta
foras
thene
uuilli
accip
maria
ambaht
gode
uniuersal
cy
ef
iemer
##uus
##bra
##ken
##azs
eruu
##aliter
##hton
albus
##adon
forder
saman
anderiu
antling
huat
bring
geloub
slium
wil
##uag
##aft
##zo
##iten
##aru
##ori
##usto
soc
def
##oder
##ebant
testim
opera
iouis
dor
giu
het
wan
##uet
##iga
##egen
giang
fers
denne
quidam
##chenne
hierusalem
iungir
mai
bithiu
iterum
aud
cet
ofto
tam
##min
##alti
heizz
##uoti
trin
contraria
del
fam
ia
tene
##torum
##kit
##aret
##oss
##abant
##abunt
quidu
gibot
zuene
hara
idem
substantie
ass
uuellen
sliumo
ibu
mahti
##atin
quomodo
##chenn
##erost
##imit
##ahen
##reh
##este
tharpa
sex
bez
sundi
alia
##andum
summ
rehto
folle
simon
warun
iudei
engil
mot
ro
ring
ul
upp
wanta
##lus
##ring
ind
##abol
manus
minan
eino
uuilon
haft
lango
circum
uueroldi
fuerit
oh
stig
tra
##let
##co
##ian
##iens
##men
##erent
##inon
ques
##aget
gez
mihil
leo
gesc
ord
guol
merc
dixerunt
infirm
##uuelih
riche
signific
quasi
bih
ped
vide
##aron
uuen
##idit
##ahet
##angeli
ubil
andermo
factum
susc
tempore
patris
cec
hau
ken
tant
uti
##uati
##iit
##nis
##gar
dil
unus
##elle
##uuor
forð
selbon
##angan
geng
apud
clam
mennisken
hl
ibi
por
tun
##uti
unuu
manif
##ege
uerbum
filium
muate
tode
tempus
sehen
causa
don
hand
lac
sn
wis
wunt
##uol
solih
##agan
iruu
beh
genus
giwisso
prius
syllogis
kuning
##itia
thit
##ros
ala
##uta
sui
sulic
tuis
miniu
consequ
zuein
regnum
##epit
wola
sprak
species
apostol
bal
det
ked
pu
pul
sm
sab
tv
##adi
##ezz
##qv
##ho
uuit
unte
mee
##aui
ferl
##uote
sunna
##ieng
homines
resur
##unnen
cogit
geding
ast
bim
huo
ju
met
##iis
##hen
##fe
quando
##cher
heb
ref
dicentes
##alten
guat
wara
dhazs
abraham
socr
testimon
cr
celi
gig
tor
##aff
##tan
##oda
##onti
##emen
##aga
##atiua
meis
minna
##izen
##ruob
##ilium
reda
arbit
##ationibus
mennis
oport
zesam
eternum
houbet
testam
custo
eadem
here
tab
uuunder
chre
ferro
diniu
liber
huius
##ectu
ubelen
uolunt
thrato
subiecto
bap
iun
les
obe
##nus
##tam
##ðe
##eres
inne
##azi
##chun
##altig
##idem
dedit
sue
sulih
##estum
herron
##uoc
fiant
##antibus
##iðo
cred
humil
commun
##osoph
vvuo
fruc
sundon
ciu
rat
tih
ziti
##bes
##xim
##inne
uuib
uuili
dilig
##chon
enig
##ehent
##essi
guate
antf
moys
duruh
taga
iudeono
celo
nesint
ougon
ieht
persec
uniuers
bid
bed
canti
ier
mont
pati
uin
##ban
##tra
uueder
##abis
##abil
scon
stern
zuiu
grec
tougen
luzz
chumftig
stein
manige
drohtines
##itudo
propheta
pauper
licet
particul
cot
gom
lap
miss
mater
nidar
pi
ruo
sv
##uas
##han
##ox
uuiht
##chit
erant
##ectum
suar
nio
strit
dicere
##ungen
sunnun
anderro
##loqu
stuont
almahtig
custodi
af
bli
can
fit
hanc
nemo
##cis
##war
##str
chun
##ulos
##rep
meos
##ader
allaro
dines
terti
##zzi
samoso
oratio
libes
sancta
gloub
##unni
nihein
himilri
syon
lichamen
sprac
necessarium
uuilleon
congreg
pac
##tos
##fet
sið
##age
##antem
##endet
hora
nostri
quedenti
chedent
gangan
##haft
diffinit
philosoph
cæ
hug
mut
taten
uor
uic
##uht
##ka
##mus
thion
uuon
una
unf
##ela
heim
uuart
stete
rex
disiu
facere
simb
##tiones
dher
propr
egyp
gloriam
worto
respond
pilatus
uzzan
iudicium
len
land
mere
ou
wes
##eine
##hib
div
album
##igo
habere
hera
desider
giscrib
foll
multa
discipuli
suln
sacerd
cognosc
aug
cer
ez
tannan
uera
zim
##ƀon
##elt
##ahan
conuen
##edit
duc
uuarheit
uuerch
amp
eivs
malum
##aster
faciem
uuege
gloria
bruoder
argumentum
gnada
bisc
fig
fall
gist
henti
hung
kum
na
##gent
anas
minus
uuara
form
sihet
##ffen
tres
liuti
thanan
dhes
legem
corpore
heiligen
cruci
herost
keuuisso
sprichet
uuahs
aer
hos
od
pist
penn
##ress
##pti
##mod
##arpa
##uste
##azen
##ami
##dir
mez
sama
zua
gihe
uuorden
druhtines
gimal
spiritu
nov
scolta
tribul
iustitia
##ossibile
dist
ideo
ka
mur
pru
stil
##lis
##uat
##ede
##tas
##ute
##utus
suff
geu
mite
uuarin
abs
##ugn
forte
##uotig
prom
##unden
leib
vuer
furder
ipso
misit
infin
drit
sangu
choment
misericordia
lingua
iungiron
resurrec
zesamine
dun
ta
##ric
##etun
##ste
quorum
##otin
era
chunt
##iho
##uog
allo
uuirð
##ahtun
suntar
keb
aliud
consp
iuuuer
euua
biginn
prophet
menniscon
dri
iuh
lugi
sis
wib
wurti
##dem
##enden
uure
##ectus
gech
niuu
scono
irk
zeig
abur
redi
prob
prof
##osta
fienda
sunder
frem
simplic
seculum
thines
plen
sancti
tempt
interrog
celum
mundi
alterum
machot
senu
boum
heƀen
fal
lun
mali
suu
##rem
##eman
quimit
unm
nehe
##isten
##istis
scaf
absc
exemp
##liches
pret
facit
uerba
sancto
guoten
contrarium
qvi
caput
meistar
mennisco
inven
fratres
dexter
ach
gar
iur
lust
uest
##pan
##falt
##alde
##atim
##egi
scam
irr
zeichen
exalt
##ungun
partes
sageta
uuelih
guote
brot
mart
slaf
uuerold
cali
fra
kin
lose
qhu
rhet
up
ine
inst
uuist
##eten
eno
mittiu
##gean
illos
boni
chaden
mahta
mahtin
##ullit
menniskon
uuehsel
baz
ci
coll
fel
hul
vi
##ras
##æc
sig
eth
##chan
##alte
chint
manduc
mein
medio
##ice
condit
diebus
exau
these
trad
factus
genere
folget
muli
##ernac
uuizen
minnot
gisahun
opposit
ierusalem
aper
bili
civ
dro
edo
fo
fuit
gio
pur
tro
##uam
##oe
sino
chl
chraft
##osita
uuerc
proc
thesaro
magist
sune
tran
facta
namon
dirro
##achon
seculi
filios
iustum
modum
veni
turb
humili
conclus
iamer
funden
guollichi
marty
gru
##uin
##uisti
##nam
##ror
##eſ
##of
##itio
incip
##ster
devs
##icem
conv
stunt
##uoge
deser
thena
diser
illo
consider
heizen
geuualt
kesprochen
mala
thiod
confess
gimein
mannun
spiritum
opin
worton
felic
sumeliche
fasto
adhuc
ev
festen
ketan
port
rum
sch
##ada
##ran
##kin
##wer
##won
##erc
##inam
##onem
##onda
##ord
##entit
##ado
spr
herz
einan
exult
##lichero
thesan
##ange
omnem
sunta
alien
##ogen
uirg
confite
lougen
monaster
goum
tiur
wuntar
rationem
ton
tac
##tina
##ðun
##estim
##orvm
##elli
##die
sinaz
##omes
##osa
hein
eines
prem
sunde
uers
furht
bonis
##ppe
tages
iuuih
##titud
lege
numer
populus
primum
mugun
birut
cic
eli
fat
gili
iv
ple
ration
sta
ting
##cim
##hti
##isg
inius
diabol
erdu
nonne
sce
irb
forlaz
spon
##oube
bezeichenet
samint
disen
furist
liudio
##acha
posse
plac
sanctum
uuerod
auur
lux
loco
gratia
summum
moyses
dul
ite
sti
xv
zeg
zala
ſeſ
##lina
##utio
##cu
##nit
##pf
##pes
##vl
##ondo
thina
##stuont
erf
zeich
prot
leð
alii
illam
intr
giboran
iustific
homine
firm
flu
uueros
andre
manage
lobont
munde
prima
respondit
buoh
gitan
oculos
uuidere
sabb
dru
gol
han
iuuar
kot
lug
sur
tre
zel
##ias
##zet
thol
##arius
##ames
erd
##dibus
chade
##ola
##ecumque
##untan
tuus
tuenti
diuers
##erea
uuerth
reli
thesumu
dicunt
namque
antu
gehu
##averunt
##eritis
drut
noster
scolda
halb
gerſtina
domum
mercur
tantum
abscon
deta
lus
leret
mac
nid
puer
rihh
tota
want
##bor
##ƀe
##ites
##itet
##esus
sib
##iri
##eros
##omer
##quis
sconi
##ingo
allem
allemo
##ungu
locum
nesc
##oseph
neuuir
friunt
pharisei
cant
dhe
gag
hazz
hæc
jung
kas
trost
zite
##iunt
##dom
##oug
##arit
##arta
##urte
##elos
##dil
##uuo
##uuert
sind
stan
stet
requ
cuman
sunda
zue
filiis
muater
seru
gebet
nostra
credi
assum
kristes
muge
##lihho
iustitiam
peccatores
buo
satur
teg
touf
zorn
##iant
##pl
##ser
##kkon
##ƀun
thine
##sta
##liz
##hter
##uui
chamen
suas
miner
duat
rei
rebus
sezz
mirab
##dicati
##alium
gibod
folg
huand
uuolton
gebot
hominibus
dingen
ihesum
##prob
himilo
nahtes
##nific
lerta
uidetur
patre
prouidentia
quinque
socrates
tabernac
rhetor
festi
hac
ner
net
penit
ty
uite
wizz
##uere
##disti
##ison
##art
##ulta
suos
habda
habdun
reuer
##lichemo
##ortun
bidiu
coram
intro
##antia
secund
suscip
thanana
superb
brut
kesk
##isken
##innan
luk
corporis
muote
populi
worolti
chome
bilde
nolite
contingit
luzzel
cop
haz
kib
mat
niu
tan
tiz
##ea
##ðu
##ði
##enan
##anas
uuat
##oth
supra
minist
rev
##lichiu
thesen
terren
quami
sump
##keiden
allez
uuillo
heileg
wart
dixi
sanctus
##tharpa
possunt
iungoron
minnon
minnota
quedam
fruma
labor
iuuuih
antlingita
oportet
exaudi
blu
iug
ore
rap
ratione
wur
zalta
##iem
##bon
##tost
##hit
##ƀan
##enim
unch
chor
##ihit
##olog
suiðo
manu
irw
unseren
##lichun
lex
##antium
interp
accep
unrehte
heilig
##sami
richi
##itudine
vvur
sizzent
##criben
thegan
stimma
helið
abbas
cast
nie
son
tem
##iang
##eper
##bent
##sper
##oen
##ode
##onam
thor
inuen
anti
##antis
##ecti
##redi
scaz
adam
##inga
dictum
vuar
intra
liuto
uueist
sancte
finst
mahte
##innet
nostris
numquam
discipulis
singul
zeseuu
fernim
principes
gumono
uuazzer
quhad
lichamon
rokkon
respondens
conspectu
kis
lam
munt
mamm
naz
pen
uitam
##batur
dig
unta
##chot
ano
sinu
sineru
supp
gedan
scalt
herren
iuih
einero
tein
ferm
##tigen
kelih
##ellen
##alibus
##uerit
genada
##endam
contin
susp
uirtus
wolta
mortis
blin
berg
scientia
domus
apostoli
todes
zellu
danan
conuert
cuncta
iudas
pedes
dere
domo
ed
ezz
hou
kan
lag
rihti
sli
##udo
##rin
##erna
##umes
quer
##rom
##idet
##icus
ird
giqu
proxim
arist
##iche
##geben
leide
leben
fiat
grad
sermon
ellu
opus
urteil
##issimum
circa
precep
inimici
constit
iniquitatem
assign
suscep
hauoron
chrefte
zueio
aet
cat
fah
ghe
ioseph
kar
lande
pub
ros
tin
vis
##uos
##su
##huu
##zit
##erun
uuissa
##undo
##alo
##entemo
##uuen
##uuir
chos
chiuu
##abuntur
##abilis
suert
##red
minime
exerc
nub
mihh
beidiu
##issent
samen
facie
sume
umb
siue
##iderunt
gibar
anime
atqui
iudeo
modus
ufen
turh
ecclesie
differ
giengun
liudiun
latine
muoz
burgi
disput
teneb
##modum
uureð
dat
gant
gentibus
gentium
horum
huue
lir
mentis
peg
##odes
##odem
dup
sede
arabe
priu
kef
trit
gisc
rehtes
solta
antw
thuru
uberm
dinge
nemugen
horn
nox
psall
ubelo
populum
lieb
sensus
fortuna
hilf
quicquid
hello
ces
eoc
fug
iag
kir
poti
rog
surg
widar
##rab
##ses
##mis
##anum
##anus
##anah
quecumque
ann
##dia
##ident
##iehet
##utor
##ista
estis
medium
irl
##teſ
##rup
deru
terr
aliis
##kean
faren
gilo
firn
male
elem
sculdig
doctr
inpossibile
pharise
volunt
quatuor
propria
murm
auer
dato
eigen
gina
garo
hende
lx
mou
uox
vitam
##cus
##inden
inb
uuuo
uuint
souu
##iug
##asc
chib
enunti
irg
##entiu
gotis
##ella
trag
pars
uuordo
##tha
iuuua
uuizent
luz
cael
redo
muotes
##ositio
lazet
itaque
totum
prae
praec
psalmvs
quaðun
dadi
ignis
misericordiam
beatitudinem
falsum
deprec
mandata
delect
donec
amplius
tuentich
10
cul
edi
mundum
sle
toll
zuu
##nessi
##sti
##hal
##erant
##eretur
##uni
##aze
##azt
##uri
erlos
##entus
##ibvs
tuas
geli
minu
diuin
##rac
forhta
iuda
thesemo
selbero
magna
solti
folke
##annes
thinan
consul
ipsis
giuuiz
possit
locutus
scoldi
bigan
nesi
mortem
truhtine
iudicio
skein
barno
nulla
xxx
ewin
demonstr
eteuuaz
testimonium
sternen
leibo
potius
ben
datun
eloqu
fare
iar
nibi
ora
uon
uet
##uan
##nan
##sis
##ins
##iton
thrit
uuif
##ordan
etelich
##chin
erl
erunt
erbe
##digen
alten
nehab
deinde
tuos
meg
meas
irre
uuarheite
ador
goto
unsere
ferah
preter
magnific
##altun
##ehsel
rehten
pechenn
antuu
##izzen
##itias
giuuet
malteſ
aliquo
andr
##innen
naturam
bluot
circul
singent
tuonne
machont
oculi
futura
geskihet
uzzer
leoht
hlut
public
cad
cra
dana
gal
ii
kne
mol
matr
nar
nul
ov
ra
sant
ual
uig
##non
##ts
##fac
##onte
##itatibus
##arent
##tiz
sil
##libus
##libet
##otum
etenim
ange
sos
##idis
##ahit
imper
##edere
uueret
prosper
allu
vuir
gescriben
simp
salv
habeton
filio
iusti
moy
##modi
cogno
ougun
uolup
populo
ginuag
ingegin
selƀon
septem
uualdandes
ungeuu
opposita
ewon
angelus
eigun
mulier
bono
cath
demu
uita
##uar
##not
##mu
##erte
thius
##esam
##arem
uuig
uuest
##tius
siin
##amin
diuu
uno
##urr
##otost
erest
som
nein
##asun
##omon
chies
##imo
geg
scin
##ize
duan
stem
##riuu
hered
ubele
denario
anderer
##ennes
##endere
salda
ubeli
gihu
gihal
potentia
iudeis
minnont
mannon
dages
disciplina
riki
sulen
cristes
verbum
adiutor
##ammati
milti
fundam
sapientia
thisiu
irfull
patri
weiz
freuui
ordinem
manifestum
wesan
agn
frist
gor
gic
hre
ole
ux
viv
zis
zungun
##iunc
##hes
##eno
##item
##esen
##arus
uuiti
##unne
##ame
##iret
tuge
sco
habde
##ilicho
stur
uuerchen
uueralti
ext
dicebant
bezeichen
ferti
ferte
##ahte
iogi
dise
disper
genuit
solum
grab
grammati
##izze
regn
propri
prep
getuot
##aldan
drin
nature
angegin
cup
illius
rike
giloubet
praes
innoc
excel
geskehen
helfa
uier
tisiu
accidentia
willen
alawar
testamentum
uuistuom
rihhi
ah
bat
bitt
eodem
fant
fine
huuer
handen
ioman
lit
liden
uore
ull
ware
zach
ſc
##uel
##cuning
##aph
##ex
##zug
##tium
##did
##ohti
manum
##ahh
##reit
tuorum
niomer
##iad
##estis
abiit
selts
explic
see
thesaru
quippe
##obus
omnino
gesið
alius
cordis
##ionibus
farl
fart
guato
grim
bonorum
dhar
proprium
middil
##scaf
aliquando
morte
currit
sehent
ahton
substantiam
turba
manigi
specie
buah
psalmus
vidit
pilde
nocte
peccatorum
carnis
bechennet
retrib
fulg
inimicos
multiplic
iudæ
ferloren
dextera
evangeli
zeichan
middilgar
ade
cens
caro
ec
ele
ire
iordan
lin
lihh
ok
ren
rot
uia
zor
##ios
##rag
##eat
##bem
##dot
##hol
##zan
##mit
##mun
##fun
##erot
##amn
##uuan
##idon
nef
##ulorum
deorum
nig
habes
adv
forhtun
##rific
dare
##ationum
samb
sundig
frig
gisið
farent
huic
regno
plan
##avi
ipsius
skin
multum
uuelda
uuelle
salige
peccator
mundo
##issima
nomina
sulun
riches
berge
qualitates
emm
##itudinis
repugn
uuillean
nullus
sapiens
paulus
scriptum
##ouuiht
##skepi
gisehan
tamquam
diffinitio
gagene
assump
eoco
denarioſ
11
bel
fing
iii
kat
kih
mel
of
##uig
##að
##bro
##pis
##dent
##her
uuiss
##atam
##uuiz
chund
##ihtig
##utum
dehein
##iston
megin
##icis
nondum
scri
scein
##admodum
##ruc
##inge
uuanent
einlu
allan
nupti
beati
perhib
kehe
suntig
frater
genam
bipes
obl
faran
ordin
dhemu
plus
druhtine
uuorto
iudeon
unzan
morta
quemadmodum
urch
redina
sculde
himiles
unges
steti
recip
clar
longe
uuizzen
cruce
spreh
fernomen
euangeli
arbeit
gratiam
falsa
philolog
hinder
panem
haƀad
contrariis
handun
zuiuel
interpret
mihhil
antwurti
middilgard
biz
purg
rad
##tet
##fal
##inu
##ese
##estig
##ise
##iske
##eme
##otan
anag
##entan
##aso
##osi
##ohe
##ohet
manibus
tuost
nieman
mittil
##egnes
##esto
ford
gik
thare
uuirs
selbiu
dicta
##ostun
sunes
disemo
ueritatem
biw
gibit
parad
sagent
mox
guotes
scalc
uuerode
gimuati
ihesu
uueldun
mendi
heiligon
geme
hohi
faciunt
potestatem
compar
huuanta
presens
fidei
constitu
##iune
##hafti
satanas
ordine
persecu
tertia
lengi
antuurt
jungoron
gheist
12
fab
gilih
jesus
kauu
lih
nib
ot
tul
tec
ſoli
##ierunt
##rn
##bantur
##pet
##tvs
##tura
##erint
##enun
##itte
##arf
##tia
##atores
##dige
soli
ald
chist
##agun
##ulti
##ahent
geuuar
medit
##egit
scone
irsl
##ester
duobus
##ilibus
fernum
ferlaz
##ationi
kech
fiund
##ellet
quadr
ueritas
faru
parte
partibus
christe
antk
thinen
reges
superi
consol
geba
firiho
flum
fluc
gelob
driu
petro
managfalt
semen
redd
stuol
stuant
ahte
##issimi
frew
uuega
circ
max
gidan
sacrific
iudicia
embar
psalmi
menniscen
saligheit
rihtuom
relati
beatitudo
zellen
starchi
sequitur
baptiz
fructum
egypto
penningo
##ressus
monasterio
cicero
gerſtinaſ
ced
evm
feh
gere
ioc
kal
kund
nob
ram
uob
vita
##nissi
##ƀi
##ƀen
##lie
##lici
##aman
dial
##elen
erh
##uuiht
ista
iste
chius
##anter
suig
gei
medic
##eget
gota
extr
seli
arb
feret
ferch
prest
magnum
gesaget
##ellum
tribus
contur
orn
uuila
harm
consum
gihug
respic
modio
brusti
malis
possib
heilante
access
huse
liohte
lazarus
faciat
decem
similis
mennisko
nimis
uocem
gizami
appro
armen
paulo
fortune
haltare
lichamo
ceteris
gedingi
giscriban
suffici
absol
dulc
##cuius
tegegnes
aetern
auc
auuar
biu
citi
cern
fag
fader
hinnan
kiuu
lis
oda
satis
tal
uit
uos
ueh
vm
vig
viam
verum
##lun
##lend
##uiu
##rio
##bil
##terea
##kid
##ſt
##xerunt
##ank
##ines
##inot
##itionem
indig
uualt
##liez
diap
##ilit
##uuu
##ibilis
tuom
gebe
heit
einiu
esa
selber
beð
bezz
fert
utrum
primus
illic
##ahton
lef
lebet
quoddam
andera
disa
obana
salu
peidiu
gress
dhiu
regen
uuolti
propterea
gilou
##ebit
modi
sanctorum
templo
iuuer
phili
queman
redinon
sehan
daga
monach
toto
sule
compl
imple
uuellest
verba
mugin
occid
honor
braht
vestra
uund
arbeite
uuehsal
dimitt
accidens
bethiu
uuerðan
lumen
casus
uniuersaliter
maior
motus
uppan
behuot
montes
svper
luna
conclusio
dhea
##ouget
modioſ
ba
cam
drost
gre
hore
iehen
lif
lante
mente
on
pes
roman
rauu
trist
uider
##stig
##hi
##verunt
##xta
##isa
indu
##arie
##umus
##sto
##sten
siben
sibun
##azta
##decim
##urus
##hto
##illi
##uuon
singen
neo
##abor
sieh
##uton
deb
mans
maneg
imagin
##igun
##adun
##adot
irlos
dua
selo
adn
spah
spuotig
heri
extra
uuirdo
arstant
peri
quodsi
##altan
iog
ioge
quidit
genera
gengun
namun
liutin
orationem
regul
sermo
resurg
modic
mohta
tempor
templum
iudeorum
aufer
##titudo
unrehtes
gifullit
credit
huses
peccata
egan
hoho
gange
membra
neuueder
fernemen
honestum
ignor
irster
nullum
kuotes
quantum
uirtutem
gihorta
leitet
mundus
forasago
cetera
heizzent
testimonia
##abilem
sacerdotum
zimber
prud
neuuirdet
temper
giquetan
chiuuisso
angeli
mittilgar
dissim
guoti
ku
kip
louf
oph
pir
pisc
rih
weg
ſuin
##lag
##cit
##nos
##rat
##riu
##rie
##bvs
##phe
##tul
##vv
##ſſ
##indet
##itati
##isgen
##arb
##lia
quar
diete
##ilon
##uuun
chir
##ima
##ule
##qua
defic
defec
dedisti
suaz
tuent
##icum
##icam
mitten
irs
irteil
dubit
forma
uuannan
giuuar
dicat
arst
##ensio
beit
pron
gesehen
alicuius
##onten
sagde
guates
godo
gram
regni
consili
consci
muas
muates
##itiis
thurah
seruus
potentiam
gehie
temporis
flag
##gian
kesc
malo
malos
##epi
uuerodes
morgan
confirm
acced
loug
slahta
lobon
gemeine
asp
bigon
numero
manigiu
predicati
##mez
habeti
offic
carne
seni
uoce
liez
##ethar
sizzet
liƀ
gumon
gisehet
propositio
futurum
heizzet
trac
pulch
grece
heƀencuning
neheina
huldi
magister
numerus
vmbe
philipp
adnunti
danta
eas
fati
fog
huot
iiii
kuol
lere
most
rect
will
##uant
##cam
##ik
##aus
##ger
##muati
##ƀo
##erta
##esper
inuoc
##usque
##oter
##elin
##eles
alouu
##imur
##abatur
##ecus
siehet
debet
medi
niouuiht
hear
conp
iuer
tharf
isa
##ungan
cumit
fient
fienden
suno
frono
alio
gisp
obs
solus
##chendo
libert
nahor
bonus
regis
geben
##uuard
tief
aliquis
##innent
locus
substantiis
asaph
miserere
increp
werk
manigen
##sama
blint
monte
nominis
impl
altero
presci
pascha
sazta
keloub
inuicem
helfo
uirtute
bechennen
dext
aqua
gahun
cyth
uuirðid
uolupt
tugede
iogiuuelih
atum
bro
ek
fand
fides
nati
natus
ori
ris
sist
tuu
uere
uari
uilo
##loub
##con
##cem
##pere
##git
##dus
##har
##oedi
##mum
##itie
inest
inop
##arun
uuam
##urn
##chest
erera
##illen
##entorum
soci
chur
##imet
##antan
deduc
suoh
succ
ente
##rexit
tug
gegeben
duom
haba
##ingtharpa
reiz
herton
unsera
##ften
thesun
beuu
##osten
ferit
ubile
kep
fiure
facti
uerb
##andan
sollic
parabol
hue
hareta
serui
gehug
idis
geuualtig
uirgo
##rehte
finf
finis
##eps
venerunt
confund
nostrum
celorum
curet
corpora
psalter
declin
kriste
compreh
carm
intellectum
##cumque
skef
causam
geiste
mariun
signum
iohannem
segen
starch
passione
angelis
galilea
gehorta
contradictio
##hafte
plures
descend
significat
lacrim
iuno
sternon
gouma
tinges
diabolus
abscondit
doctrina
ginada
sambazt
nibu
maxime
conturb
iogilicho
cert
dot
fidem
hinc
lide
pis
rur
riu
tit
##uun
##nas
##bir
##bunt
##dest
##habit
##verit
##fin
##ƀid
##anen
##ones
##esso
##ume
##etin
##etas
##stin
unre
##elit
erip
aliter
##idan
##agog
##abile
##igin
scand
irbar
selbe
sto
adu
spe
##dera
thesoro
dicatur
ard
bechenne
ferg
termin
vuele
frido
furdir
sumus
summa
orden
libro
saluum
christes
bonos
##tionibus
thinun
thinemo
gihortun
uelut
##averit
mode
firin
giuuer
giuuald
gla
##unnon
##unnies
celesti
sluog
apoll
uuurten
sehs
cuð
dage
##issime
decl
duodecim
nimet
herodes
dauides
relinqu
gagenuuer
festin
iudicii
carnem
irhug
uuillion
bringet
dilec
montem
suarz
gechose
sunderigo
furhtent
gold
duplum
dit
dest
fun
fatum
guo
gara
kah
kre
kle
lav
pol
peh
past
pall
pitt
rin
svm
tat
tol
via
vider
##rot
##rent
##rorum
##ku
##zun
##ve
##ania
##areth
##unna
##amur
##ures
##urah
##ira
##enton
##uuel
sinera
##idero
##iuoc
neuuer
nequit
chind
##iebat
##untes
##untun
ene
enon
##igan
##edon
##edem
uuarth
foraht
exter
estim
dicam
arf
##aub
##ristet
fiunt
vuelich
##ellent
anderest
giburti
grabe
uuazer
dhurah
regem
consilium
help
uuordon
toug
firli
possess
venite
uuise
managa
##eteſ
cura
menegi
##bitis
gemein
humana
numquid
ouga
patres
sprachun
truhtines
monum
fecisti
huuanda
iniur
persona
bisgo
intellectus
himela
fuerat
liqu
uurðun
engila
ignem
cognou
inuenti
liget
seggean
uirtutum
arbeiten
weist
inmort
uniuersale
sundigen
##qve
baptis
uniuersali
cantic
ouir
hunger
simpliciter
mirabilia
supplic
lirn
narr
moysi
tuenth
14
ara
eisc
fim
iure
ly
mos
mest
misset
missi
nach
oder
rest
rationis
site
tati
##ax
##rut
##hent
##kis
##ket
##odi
##met
##ðan
##anis
##isit
##arten
##tiens
##usten
##atorum
##etes
silu
annu
##didit
sole
sose
##uues
##idin
##ihe
delic
##isto
mane
##oden
minno
##iges
scaff
coniunc
forn
forahtun
splend
##riki
sea
teile
pring
##unge
##issu
gesah
##ello
frat
hiuu
solis
amor
zueli
saga
uuillon
waru
plat
att
gebur
##eben
ipsam
uuorte
martha
multis
unrehtero
curr
redemp
##bitum
creatur
mortal
blas
##tuom
necessitate
habeat
becheret
altera
long
speciem
person
timor
precip
gefrum
prophete
sprechent
discern
houbit
relatiua
invicem
wizist
generatione
oculis
galileam
aduers
salutem
prouidentie
##fix
contrariorum
lumine
dormi
keding
chunne
pacem
figur
resurrectione
qhued
civitatem
sundea
requir
edific
nullo
grammatica
13
dod
gile
gast
hint
iah
iehent
lad
lium
lert
lone
rab
rati
radi
vul
vii
vox
yp
ær
##lut
##leg
##nissa
##rig
##eisc
##pinqu
##sen
##ker
##kie
##vc
##wa
##enum
##itiam
thri
##arna
##atu
##lien
quot
diut
eterna
eru
erth
##diun
##entero
##uueder
ale
##idum
##idus
neb
chle
##aba
##uto
dedicati
##reib
gelicho
##ico
scirm
irz
diuina
duent
##uhtig
fort
spil
herta
uuane
sezze
##licher
arch
arma
##auf
perm
persequ
##ungon
keist
samaso
magnus
uern
ueritatis
##phit
obar
##lica
liudeo
rehta
solt
solem
gibur
folge
folkes
simile
partem
liberum
salb
sago
sagenne
gerot
pezeichenet
hueteſ
conspic
muos
##iendi
##eban
ipsorum
giuuesso
findet
maris
uuize
eloc
giwaro
mors
multitud
suochent
gimu
nostro
luft
euuin
legis
sluo
##inemnit
affec
truhtenes
syn
##duxit
bigonda
ouget
mannolih
predicatur
ieiun
primo
necessaria
necessario
giloubtun
huuand
ecclesiam
##uisse
gitruob
rihtet
hanton
sorgun
vestrum
generatio
saar
helias
famili
##erosten
syllogismus
arbitrium
fructus
glouba
thionost
sanguinem
preterit
lustet
zeseuuun
urteilda
tenebris
##insecus
irslagen
að
best
ce
hang
huc
jam
ki
lið
milia
mohti
pav
uiam
vade
##iatur
##eliu
##bur
##bas
##hor
##anan
##anes
##onot
##itin
inqu
uuie
uuende
##tici
dilex
unc
ande
ero
erðu
nego
chis
chisc
chunn
##imen
##imum
##iebant
##anto
manege
megi
mino
mitti
scouu
irch
##izet
dub
duot
uuarf
uuaron
##leem
abdicati
sten
uuerh
proloqu
allel
##ftin
thesses
dicimus
dominvs
faciam
genomen
sedes
ueram
ueritate
corda
corrup
##ogon
obenan
oboedi
furlaz
solton
saldon
grot
dhen
dhuo
huor
gehore
getuon
giuuelih
tago
##ector
mahton
uuison
hiezen
minnu
unrehto
quisque
uueldi
gifrum
gifiang
studi
##ersum
wolle
werde
disciplin
qvid
thioda
caritas
altare
sepe
gerſtin
fuorun
cause
uenit
sizzen
appell
sahun
iohannis
bredig
effic
thingon
scriptur
fortunam
thegana
aduersum
chuninga
cunctis
quicquam
laudate
bezt
uueneg
manifest
ruof
formam
heroston
dexteram
confitebor
rhetorica
aristoti
##halb
antuuur
consumm
spuotigo
sambaztag
canticvm
age
bos
cit
crim
ep
haf
ieh
kit
kil
nav
rom
wen
ſcul
##llen
##ria
##bam
##tat
##vis
##xisti
##ervnt
##ender
uuet
uuele
sich
##azua
##deon
quale
##elti
##dian
##alter
sodom
##uuet
##uuid
siner
sinem
chede
##agi
suau
enero
##nea
nið
##iae
irri
##izo
##tein
diuine
duit
duos
##uhn
statim
adul
uueralt
spes
##uof
tharod
existi
therero
theser
uuirdig
arsl
perman
kez
keis
vuannan
alios
dispon
quamuis
furhten
umm
ordo
orator
sage
secunda
regum
gihi
uueliu
gehalt
##ebo
tohter
##scepi
##timus
truht
aliqua
eldi
##unnun
##uueht
iungaron
accus
gimah
lof
menda
sculd
uuurte
gabi
ahtot
salida
dago
faciet
qvoniam
mortuus
captiu
maxim
##allet
diffin
bism
indign
##inceps
rihte
tier
kehor
boeti
brahta
hof
effici
strid
laque
beatitudinis
uirtutis
uultus
sumelichiu
conuers
eban
abbatis
bethleem
contradictor
forderen
##igaſ
fama
uppig
utique
gloubo
himilriches
simblum
folleg
biscof
uuahsmon
gimalana
promiss
dunchet
irkn
signa
sprihh
tiurida
hanigaſ
huueo
hlutt
aristotiles
bab
fas
fau
funtan
gero
gas
ies
ieg
kraft
motun
mela
run
rob
svnt
vestim
zam
zunga
##iph
##got
##zent
##vt
##fol
##wio
##wiht
##erin
##enam
##ankon
##indo
##arch
##arvm
uuemo
##tica
##tice
sii
##lif
##amo
dii
##elet
etelih
err
erlo
##alen
##iro
singo
sinemu
alem
##iui
##iuit
chore
##imis
##ibit
##ecta
suor
suad
suorum
##ahs
imb
##icu
##egini
scel
conu
zehen
due
dux
habint
abund
state
forstuont
reh
relic
uuanne
iuxta
##doſ
seo
ess
nuzze
diccho
dicebat
##heiti
##osto
ferre
perpet
mirac
##ffe
sunton
##arii
##issimus
fifte
vues
vuara
gespra
geskeiden
trah
gisaman
hiet
uerbo
uerbis
##endun
obsc
obliu
liuten
contemp
folgen
follon
salmo
sustin
hui
huilic
gihort
helago
gehalten
homini
sanctis
##rehto
fluo
flamm
wirdit
kesezz
malorum
infer
inferi
skinen
##aldon
uberuu
suohta
semin
slah
uuelde
gabe
ahto
egis
quedet
concess
##issimo
prime
necessitas
singula
singulis
eristen
similes
gilouben
michil
##ihhan
impossibile
diffic
berga
timore
ingegini
sepul
octo
girati
uuilleo
principio
fideles
fidelis
iustitie
misericordie
wizun
sumelichen
loset
fuarun
gehoret
futuro
ascendit
ambulare
panes
panis
hella
audit
syllogismi
alaw
baldo
uoluntas
sconen
tougeno
anasiune
condition
incipit
convers
deserto
iustificationes
toufi
heliðos
nazareth
iagilih
hereditatem
zorne
emmiz
bizein
antuurtita
ſolidoſ
declar
gimuato
aha
cotes
cillen
dabit
ja
kn
kap
kotes
lim
maz
nunti
oderunt
pit
pag
racha
sare
uast
ſanc
##ues
##cos
##equ
##pit
##ges
##qhu
##via
##fr
##flu
##erdo
##anz
uuo
uuach
##atos
##dean
##deat
quarum
##amane
unera
##elun
anan
anali
##iliter
##entu
##idun
chan
##ulte
##dati
deli
manen
manet
##odon
##odit
gegin
geouget
niun
imm
confic
coniug
habenti
uuarlihho
abol
##iost
##ruo
standen
fortitud
uuanet
uuanest
einzen
einote
tharazua
exist
allun
seu
##ensus
pereg
perdit
##undon
##cif
##cium
##ahtin
fieng
aliena
uerit
##enez
##andam
umquam
liud
subs
faret
farlaz
contrist
amar
gibest
orbem
##bium
libera
seculo
geriht
habetun
pez
guod
guater
posuit
##iengun
sanctific
first
predig
gele
quotiens
uuardh
##iskes
managf
giwuag
acceper
spiritaliter
quement
celestis
pecun
corpor
naturlicho
naturaliter
negationem
wolti
igne
ougta
steine
werkon
clau
##samo
concup
gangen
##hafto
potestas
nomini
israhelis
glorie
qualis
herod
sprechen
begagen
liaz
fernem
brach
brahtun
hodie
engilo
frageta
fragetun
frið
helagon
lucem
straz
iouem
gnoto
eternam
houbete
##ticam
wizit
fleisg
passiones
salutare
oðar
hiutu
sundige
crv
testamenti
huiusmodi
siðor
zeigot
transe
stunta
sabbati
finstri
suspensio
simplex
fertilig
praesum
zachari
ſcill
circuit
rursus
hintar
existim
coh
cust
cote
dahta
drac
flo
guu
gri
gaf
hap
huuelih
iħ
iiho
lero
losta
pene
uƀ
wid
xii
yr
zil
##ientes
##biu
##dur
##hus
##kiu
##kke
##ðen
##ƀa
##we
##erem
##erda
##engen
thanc
uua
uual
uuag
##une
##orm
##aton
sio
##azin
##amini
unam
##elis
##elte
anni
eron
erch
##ilem
sinn
alti
##eroso
chorn
##ibunt
##istun
suester
meorum
melius
##aden
habens
uuarlicho
forht
forhton
rein
reper
uuanan
prosp
exsp
dici
beiden
perfic
samad
gesezz
frago
aliorum
gisiun
gispra
bium
##phon
namin
##andem
##endat
##ionum
liutes
dirig
farg
amic
gibu
##bian
parv
pariter
libri
pech
pezz
gual
uzan
dhera
##izza
thinro
consc
prophe
poterit
gehile
totius
idest
gloube
truog
modis
##ectis
loqui
beton
himilisc
peccatum
quedante
unserro
postea
huuaz
glori
micheli
altere
respons
quales
prophetis
begri
chame
avtem
fundun
noctis
ewar
ligent
vocem
zellent
equiuoc
uuiðer
aurum
freuuent
##urtet
intellegitur
gaudium
uuilliad
lesan
antfeng
uindic
uuonet
conueni
resurrectionem
prophetam
exemplum
herzin
herzon
diuersa
penitentiam
kibet
wurtun
thorpa
mammunti
elementa
uuizentheit
##ehselot
kneht
ginuagi
araug
truhtene
fiftein
aque
aaron
bot
batun
cuot
cess
cato
datin
fet
faz
fere
fell
greg
ginemnit
has
hort
lou
lichen
mah
nit
nau
nota
ol
pili
pect
sese
uinc
von
viii
wanne
ym
zen
zaltun
##iko
##bri
##pur
##pta
##dos
##dere
##tvm
##tores
##kun
##mir
##mos
##ða
##wen
##onon
##onde
thig
indiu
##aran
##ementer
##orsus
##eto
quon
quanta
quatun
digi
ern
ere
erg
ersl
##dien
##irun
##ilet
sindun
nech
##asa
chido
##imon
##imvs
##abili
##olum
##unta
suazi
mansl
tuen
geeisc
með
heu
scrut
screib
coniec
diuid
habitus
##uhti
herasun
uuandon
eine
einun
##ensum
bein
perf
perse
ilent
##ciam
##isses
keu
geske
gesehent
triu
tria
hieroso
vnser
facile
##andon
sola
oris
salus
salomon
secula
pedibus
gub
uzlaz
thinu
thinaz
servi
geborn
geburte
potens
##ebatur
##uuart
durftig
gladi
venerit
uuizagon
ell
##unnie
uuisa
iungron
confus
queme
corporibus
lobes
scoldun
turpe
ungim
human
hohen
steina
fecerunt
similitudinem
giloubit
israhelo
postquam
machota
selƀes
qualitatis
uniuoc
psalmum
christiani
crucis
alleswio
##estenot
ungelih
appar
lerun
mildi
ziten
gestat
lucis
sapientie
##bras
xxv
##regit
uideatur
nideren
geheiz
geheizzen
fuoz
tise
uiuific
stimmo
##etip
salutis
ascend
musica
uuerðen
offeno
cyllen
maiest
gengit
##ruobet
zuiualt
landes
crucif
giheiz
inequ
martyrum
iteuuiz
gehuili
brutl
lukke
copul
terrena
gedancha
chiboran
gelirn
giuuizscaf
explicit
anagenne
parady
talenta
modicum
opher
consilio
philippus
cythara
obscur
aru
cvm
deter
euen
fem
gie
gare
hy
hals
kab
lan
lid
lach
leng
lido
ode
oft
pif
senti
tale
tatun
vic
vber
zih
zalt
ſiu
##lam
##ior
##bitur
##dist
##hiu
##mien
##muotig
##ven
##xi
##jus
##inus
##itiu
thun
inl
inesse
uuiu
##tib
##ors
##usc
##ustin
##del
##dei
##liihh
quati
##amon
univ
##urge
##otis
##elo
anal
erst
##uualtig
sinne
alte
nege
##ome
chic
##ages
##ageta
##ulas
##ole
suer
suft
mano
manuum
##aha
esto
tuarum
gelich
imag
##iger
heime
sculi
irra
irge
diuitias
habdi
fors
##derit
##dost
prohib
theso
##anga
sihest
feruu
fersl
ubilo
pertin
percus
dominvm
##tigo
##ortes
##ffet
##zzin
suni
gesp
quodam
framm
gisaz
facies
illatio
##ioni
intenti
rehter
farst
sagda
habetis
posuisti
antreit
filiorum
dhanne
huan
animas
plant
heizit
##sce
##scaft
temple
tempora
durft
giuualt
gelo
fines
infern
tagon
mannilih
lobe
euuon
celos
undertan
lobo
chumo
woltun
ungil
ruarta
stedi
steig
werdan
clari
claus
populos
undur
qvod
unseres
predicantur
drohtine
potestate
tote
tuondo
complex
glorific
sacram
gisahi
##oufit
qualiter
qualitatem
half
himeles
videns
bruod
##vnd
##spring
sciens
occas
fuerint
barne
reple
irstuont
insip
vester
pax
iuuuan
scribe
nouum
scriptura
geheizen
intfieng
aduersa
aduersus
hilfet
freuuet
liehte
lebent
perfecta
eteuues
irhohet
loquitur
sententi
pluribus
descrip
apostolis
mennisgon
humilitate
diligit
gomman
materia
diffinitionem
giheil
dritta
prophetas
suuiðo
folgetun
monasterii
gilim
plebis
sabbato
zeseuua
sermones
uuuocher
chiesen
gorio
cupid
seltsani
eocouuelih
philologia
gemeitun
dialecti
accesserunt
pronunti
zuelif
baby
emmizigen
iħs
aus
besc
cen
dra
eic
ege
garu
ion
last
mero
mob
nut
pih
pere
pari
piet
tet
tatin
util
wih
xi
xvi
zoh
##lem
##cod
##nisse
##rvm
##bris
##ss
##tent
##hinc
##kent
##ouh
##zta
##fare
##xerit
##enge
thru
##orta
##orsum
##usta
##atan
##atvs
quit
unst
ungi
unman
##ileg
sosama
##uuis
##uuua
##ase
chi
che
##osite
##osuit
##ulg
##olo
deos
sulich
suae
manc
manda
meli
nieth
improb
minaz
scit
##eden
diufal
diei
uuariu
self
##ilius
stod
##seƀon
spel
herte
exiit
unsem
selbin
darana
beide
beatus
ferli
ferse
uter
prorsus
##tige
##undet
##zzet
##lihti
vuur
geseh
hiaz
##ennet
uerbi
corn
coronam
##endas
illorum
intel
integ
summo
sumelih
gibor
zuif
simili
gern
guiss
godas
antlaz
huar
animo
animalia
dohter
regna
uuolchen
serp
##iengen
gebent
helpa
gehoren
gilau
##afti
sanct
fateres
geuuisso
flet
geluste
scalka
druta
neme
nemen
nemin
iungeron
horo
horis
unzi
unzin
euuigen
noli
opes
opfer
urspring
caec
heiligun
himilis
underske
uuurde
stup
ahtont
wolt
ungu
humiles
##ipot
egredi
langu
quedent
quedanti
ambig
discipulos
qvia
ginoto
ginadon
capite
composit
praep
habeant
barnun
iniqui
##illis
##igiang
bisu
buent
verb
##ubarn
##ubesc
thrati
frumu
gizam
scientiam
uener
begonda
breostun
feht
gnuoge
bifangan
thinge
quantitas
quantitates
fleisc
seggian
uirtutes
grau
benedictus
sagetun
disposit
misseliche
bitet
besuo
mandatum
inimicis
abrahe
thesaur
bibot
palam
virtut
memoria
gaudio
descendit
samanungu
##uetud
##erosta
videbitis
##uuorfen
unuuizz
consequentia
apostolorum
ferlorn
humilitatis
bedu
tertius
himilriche
gimalan
gimalena
confessio
xvii
leðes
buohst
stetit
wizzi
keskihet
matut
finstarn
voluntatem
eloquium
matris
irfullet
scowon
ulla
gesiðos
retribu
planet
mortalium
sprehh
aeternam
irloset
rihhe
bigondun
apollinis
synagog
indiuid
23
22
aro
cn
cib
cav
date
fis
gro
gruob
iesus
lar
lerit
my
mentem
nath
romo
sati
sort
trip
talis
uesten
vs
vere
wi
zime
##uad
##cir
##rati
##eorum
##sang
##zes
##muo
##fl
##xa
##eribus
##aniu
##anemo
##inan
##inas
thus
initio
uuing
uuall
uuido
##uss
##etate
##azze
unb
unk
unius
##urſt
erge
##iron
##uuit
alom
neuue
##ass
chid
##abeth
##abiles
##ibiles
##ihu
suerit
ena
niazen
impro
scis
iram
irsc
habitum
abul
abys
##entior
stati
##ingun
uuert
spati
spera
refer
hercul
iudit
unscul
alloro
##lichot
therer
theses
dict
arme
beidero
##undun
tertio
omnipot
nohhein
magn
magno
leu
leita
fiundo
gesl
trur
sedem
cornu
##endon
##endis
##endus
intuit
obprob
fursten
iohanne
umbra
orbis
zuiv
salom
uuill
uuilliu
thanna
guisso
positum
uzouh
##izzet
regula
uelle
ueluti
thurst
geboten
helle
iustorum
potuit
gehuu
actu
##afan
durst
durno
idone
idcir
##zeich
geuuor
phoe
uuizeg
elis
mahtun
andar
nement
managu
managen
giwurti
morgen
accepit
lufte
loque
unrehten
betot
betota
underen
locis
saligen
scolti
turp
ruach
langet
inclin
chedendo
monstr
gangenti
rik
maius
carc
goda
speci
sange
christian
fuoren
affirmationis
uuiha
uuihe
kehalten
audire
principibus
ioue
paul
invenit
bifora
constat
hold
fratrem
angelos
argument
depositio
pontific
uiuentium
##aginta
propositiones
aquarum
kerno
quicumque
dingolih
uniuersalis
ultra
circumde
questio
gescah
apostolus
smer
gigeban
heretic
communis
ciuitate
bidhiu
cotti
lapidem
philosophia
proprie
stillo
infinitum
sanguine
drof
martyres
reliqu
gehuilic
mercurius
hazzent
requies
superbiam
niud
sumpta
precepta
tritta
phariseorum
nehabet
matrem
uxorem
eocouue
genamot
urchunde
fernumest
flumina
iocund
extrinsecus
auctor
dextris
uerborum
selbez
inmortal
erthon
melaſ
alemahtig
conficitur
concupisc
friðubarn
circuitu
univers
zimelih
alomahtig
idcirco
aƀ
aquam
aequ
bad
brah
besti
cunni
educ
euge
feli
gauu
host
iob
iihet
kest
liter
lesti
mess
misc
mugi
neri
oli
pidiu
sero
salt
tid
uil
uile
uobis
vin
wein
##uorum
##nissu
##rih
##ratus
##pici
##tamen
##hin
##hon
##hel
##zeg
##vvm
##ſon
##wes
##enis
##enderunt
##inti
##inun
##itit
##itos
thal
thom
thul
indic
ingen
##aretur
uuant
##etum
##etost
quim
quenun
##elon
ereren
##digo
##alb
##ilen
sinist
sinnes
alb
allig
##ases
##asset
##omet
chinden
##agono
##osis
##abam
##uls
##utis
deda
dehinc
##atiue
suach
##ahi
ent
enna
geant
##igon
heith
mitte
scat
scio
scanda
diuis
##ereht
duon
stad
stell
stande
stoz
uuercho
forst
spern
prol
profec
exurge
unsub
allis
seti
##ftun
nubes
dicantur
arc
argen
daranah
utero
##iches
##tigi
term
##ahto
##zzan
##zzent
##ariis
##issem
samarit
fiendo
vueliu
alium
gisce
gisentit
gisihit
thehein
biquam
corrip
##endent
inthe
intende
##uct
heilac
gerihte
thanen
godun
antat
gratis
filie
dheru
##iteri
thino
thinera
superbi
propon
##iendo
hele
iuss
iusto
gilesti
resti
##entiae
mohtun
##scrip
temporibus
fird
firw
fuazi
geuuaht
uiribus
brunnen
geld
scalh
marcha
iudeos
uuisun
horen
aux
interfic
semetip
himila
lobot
scoldin
substantiarum
asper
liof
numerum
hohor
ougent
record
discipulus
chedenne
qve
lichet
mortuis
beneim
uuegen
operibus
feci
##ivit
eristo
alterut
alterius
giduan
iudices
##ornon
qualitas
emenda
uuizze
uueroldes
uuellent
saligheite
agit
##ittere
affirmationem
sciat
adiunc
beginnet
kehalt
tribu
repet
hoor
uuinde
##damus
irstarb
helagna
luce
uidentur
gnadon
ostend
ostendit
fleis
uunder
gumo
fratribus
aures
feste
chuninge
uiuit
hilu
eigin
dimit
expet
expect
futurorum
inimicus
putas
azelin
hinan
contingere
##haftiu
haƀas
laudem
forderon
ultim
unuuir
iruuel
torr
heretici
particulare
missus
custodiam
cælo
simbla
sacerdotes
anasihte
crucifix
tribulatione
distrib
prophetarum
fatere
xviii
protector
mercurio
wizzod
heliðo
gradus
ubermuote
praedic
pechennen
circulus
craftig
oves
diuuala
agnosc
zisamane
prepar
assumptio
ungeskeiden
euangelium
antkenn
geiihte
vigili
giloubi
bauhn
perier
mostin
carmina
gagenuuerti
iegelich
abolgi
ungiloub
obprobrium
bald
bito
cito
candi
dad
douf
damn
gigiang
iſ
jar
kim
latr
lip
nun
osc
pig
rah
rio
rach
sere
sche
sacha
tana
talia
talium
uar
ueter
uitia
vad
versum
wu
wit
west
xp
zan
zihet
°et
##uhte
##cun
##cet
##ak
##reta
##bare
##pen
##gu
##tist
##hun
##och
##zua
##mes
##ſo
##fit
##faz
##fta
##wit
##erentur
##inibus
thahtun
inz
inhabit
uuitun
##uno
##unno
##orun
##oret
##stun
##stunt
##stra
quater
qualia
quendam
##uram
##chis
anx
anagin
erodes
erubesc
##uuaz
##uual
##idam
nep
nebe
##ason
chih
chif
chindo
##osus
##abun
##ihan
##ieho
##ohs
##ulit
sup
suhti
enes
gedi
gezeichenet
niom
heile
scu
scer
scilic
##edar
irchenn
zeh
stum
stul
stare
##inget
##seli
goten
fortes
##rii
herti
uuanen
iuden
tharzua
profer
exper
unsar
therera
theson
thesero
teuton
dicis
armon
##auerit
fersto
peric
princeps
dinan
##itatus
##uota
##ortost
##obot
##zzo
keli
leidi
gesamen
fristi
fragen
fronis
trie
alie
alias
##ennit
facis
genes
uert
biwer
##ehet
eiusdem
obser
rehtero
farge
##ideret
amore
ammon
ordei
##dita
sagdun
##isce
##iscun
peti
guis
filia
merito
consenti
giho
muod
athen
seruum
sito
diximus
fuora
fuisse
geteta
itm
scalcha
infide
##culum
marti
iudea
moder
modseƀon
drag
petre
petrum
elliu
horit
giwon
giwelti
multitudo
confitem
suochen
suochet
nostre
noe
celeb
slaff
quisquam
betont
##uuerk
caph
heiligo
uuurchent
negat
negare
uuiolih
ubeles
ungel
peccati
quedente
angusti
patria
faciant
mortale
predicatores
primis
teilis
gilouba
habeo
postul
huuat
##illet
machon
altissimi
persone
ingredi
uuizzi
uuizzut
intellectu
buachon
##beraht
videre
videntes
skeident
causis
##boum
uuiho
uuihti
occurr
vvunt
keuualt
uurði
appet
fraget
geskiht
nullam
helaga
principium
stric
birun
iuuuom
laus
coepit
noctem
noctur
##mix
irful
nouit
##uoret
graƀe
fratrum
dispositio
angelorum
inphah
inphahet
uuorteniu
tisen
futuri
heƀan
perfectum
ossa
poenit
cuningo
casu
triuuo
ambahte
antlingitun
defens
giangun
haftet
haftent
sulica
consequentiam
cogitationes
socratem
torcul
mennischen
testamento
commune
canticum
pacis
egypti
bisco
hungar
herosto
uuirðig
gimeinta
felicitatis
uirginis
premia
elil
ivdic
diabolum
furiston
zegat
ſeſtein
puerum
keskehen
lamp
blinte
houa
psallite
murmur
enuntiatio
##stir
catho
catheg
stemma
irfullen
scow
litter
ecchert
advers
sacrificium
uehementer
verumtamen
beðiu
gressibile
romani
tristis
churz
liquet
inuentionem
jamar
allelvia
ſcilling
widor
exspect
quondam
hierosolim
ellende
clarific
intellex
planetarum
scilicet
24
ari
aeter
ble
boton
cau
centum
dabo
eid
egen
fad
full
gad
gino
hich
huer
hriuu
ian
ium
ios
kun
kna
kena
lud
line
nat
odio
pud
ue
uiti
væ
zuue
zalo
ſim
##uft
##uper
##bin
##pun
##pec
##pisc
##muoti
##ſuin
##erv
##inent
##itione
thulti
##iso
##arin
uuenne
##orin
sizze
##azzen
##amne
##amentum
##urrit
ete
eris
ererun
##htet
##ilin
##ilun
neh
nex
chu
chili
choro
##abi
##aben
##abus
##abet
##abantur
##ulares
debe
##atiuo
suht
enf
##rea
geomet
minun
mineru
##egan
scro
scinet
scauu
conqu
irm
irret
##estes
##raque
habitu
##leit
abierunt
selon
##acul
status
adduc
##ingi
##ingit
uuerk
sprec
##rich
hert
uuano
einez
##ocin
tharana
profic
exe
exig
allon
seuue
##lichont
##ftet
##perit
dicite
arn
##oue
beu
feru
ferst
utri
utraque
perc
peruen
press
##ichun
##tiga
##undot
##orton
terrib
suntono
kelicho
fior
fiet
vuunder
denomin
trem
aliquam
##alig
anderun
##enna
##ennis
vnz
genadon
corona
intus
furð
##kea
rehton
##apu
sublim
niehtes
oron
orationis
folgent
parentes
sagun
heilta
secunde
suslih
##annen
dhiz
meres
##izzent
uuesin
animalis
regi
plena
ueloc
propinqu
potentes
##afte
moht
guoton
duri
##ithar
geuuald
geth
getru
uirga
brinn
briost
wirdig
giuuort
finden
##epta
taranah
modos
petra
veniat
eleg
##unnesam
uuisse
thiodo
interitum
giwissi
mori
mores
multe
confit
suoze
suohton
minnera
semine
mannum
##enget
opt
caiph
creder
negatione
loca
gemag
##duom
unguis
peccatis
lioƀ
ruar
lazent
bigunnun
nesci
##caft
hoha
incor
incarn
incred
manigero
munera
qvis
unseriu
primi
mons
totam
capit
eristun
giloubu
huuo
caritatis
machunga
##oufet
responde
memin
timere
ingressus
bruader
neuuare
heroti
uocis
laudes
scientie
occup
geistes
githig
subiecta
subiectum
##escere
irstan
octa
feor
sorg
sorgen
helfare
uuln
generationem
##pexit
illumin
oculo
iniquitatis
uuiðar
argumentis
collig
inimicorum
perfectus
demones
demonia
kemeine
disses
triffet
forasagon
eruuir
bringen
wank
tenebras
##letum
suscit
priusquam
refug
chreftig
fianton
ciuitatem
moysen
##abiliter
pauperes
almahtigen
philosophi
uictor
follun
formid
uuahsen
tak
biginnent
boume
heƀenriki
malign
scameg
kindi
qhuidit
colloc
festenungo
cicer
iniustit
sursum
nescio
tabernaculum
superbia
hazze
sumptum
continuo
conuertitur
sermonem
susceptib
arabeiti
ubermuoti
maledic
dadiun
ewiniga
circulum
radic
gihalota
fundamentum
repugnantibus
oblitus
philologie
gehiez
willon
alouualdon
lacrimis
destru
baptismum
##arnaum
dedicatiuo
sluogen
negoti
antuuurta
contradictorie
sprihhit
alawari
##qhuetan
deliber
pecuniam
fertiligot
guallichi
giheizan
neuueiz
smerza
scandaliz
observ
ſimiliter
21
bellum
cost
frehte
gut
hem
hat
hande
hetan
hyp
ix
keg
kote
log
leru
lusti
mec
missa
nel
nasc
odi
pel
rit
ria
sad
semp
slihti
tidi
uali
uale
ualde
uestim
vet
vidi
viderunt
xl
ſic
##lent
##lud
##uimus
##can
##iores
##ribus
##rann
##ee
##pin
##piter
##gh
##hont
##kk
##obe
##ogo
##for
##erti
##erim
##ener
##anches
inper
indan
uuater
uuap
sicc
##azet
dierum
unic
unmez
##eld
##elot
eter
etsi
##chero
anc
annis
erstant
##alda
##htan
##illo
##uuordi
alto
altun
##idere
chet
chim
##imini
##osum
##ibili
##olgen
##quo
suan
##ahun
meine
##igemo
##edens
irth
##izit
habentes
uuarhafto
##entius
##entias
stal
adsum
##ingon
##inges
uueren
foro
foris
##deren
##riun
iupp
iupiter
einf
gide
exs
expro
exalta
unsen
sezzen
##lichaz
tetig
dicent
artes
arundi
darba
##ensis
bef
##oste
perg
##icha
##icho
##undit
##zza
##arios
kebet
johannes
magen
leides
vuanne
gese
gesungen
iouh
iouuiht
aliam
sedet
sedere
ueris
##eho
nami
cordibus
##endes
direc
subia
fara
farle
gibuntan
orun
##bien
##eruntur
habetin
##iiii
posita
positionem
meron
merun
huili
hard
animi
doð
dođ
consor
consuetud
plura
misk
##ertur
muazin
##loſ
gilusti
heizo
firs
guotemo
geuuis
getruobet
uirgin
miin
fluht
kesehen
scalch
scalche
uuerdan
possis
posside
petri
##ectvs
veniens
horam
horta
moribus
suohtun
loz
slahet
ubarlut
uuelero
untes
uuurtin
uuurdin
negleg
stuon
ahtoden
sym
gemach
unger
##caffen
ouge
recte
recess
manigf
nihilo
##samii
spracha
ginuht
freis
benedi
operum
riuua
tuoe
sulin
##ustra
erista
caritatem
##ceat
##ceiden
##illa
personam
qualitate
presenti
psalmis
separ
septi
videt
bruo
nimium
verbis
uocab
thriu
mugut
adim
##lihheru
ungeh
kehore
fruo
subiecti
hoƀ
irstant
fidelium
sapientiam
muode
nales
remiss
wizi
noui
generationes
vocavit
euuiga
holdun
oculus
michelen
iniquitas
saec
misselichen
thegno
dignus
dolor
bitter
sprichit
fuoze
haltet
freuuen
dimidi
propositione
colum
accidentibus
mundes
abbate
irhuge
kemein
ketuon
sententia
accipere
samanunga
wilit
trinitatis
sexta
mihileru
suscepit
ceciderunt
hlud
lacte
wisun
communem
persecut
chumftigen
lapides
blid
cæl
oues
hosp
infinita
exempla
kindes
civitate
gimeinit
festenunga
stade
crediderunt
vvurdun
eddes
giloƀon
souuio
##izeich
iudæi
##brochen
nuptias
managfalto
appropinqu
lefsa
dimittere
rauua
conscientia
officium
liƀes
tract
isaac
natiu
gladium
tuenthic
fimf
liument
ratiocin
chiscrib
sepulch
crvcif
gisiuni
determin
irraf
uterque
synagoga
elisabeth
confitemini
capharnaum
iuppiter
aeg
bint
bodo
bogen
bristet
cac
earum
eorvm
fisc
fugi
fahen
genti
gall
hom
hizza
iunc
jes
jud
kinde
listi
lop
ligen
menti
mentes
mnas
nieo
olim
pim
pider
pull
pizeich
qhuu
sw
tic
tell
tales
trium
uo
uent
ure
uentur
uinum
vz
vine
vinum
vado
win
westi
##lor
##lau
##uia
##uate
##cia
##ient
##iorum
##iung
##eo
##gib
##ditur
##tv
##mare
##mach
##vli
##fa
##ƀu
##enen
##engi
inuuert
##aribus
##arentur
uuec
uuige
uuissi
uuesta
##umet
##emur
siht
##lik
quiss
quandam
##amun
diis
unh
unda
unhol
##urum
##chem
erb
erhe
##alon
##allen
##irin
##irret
##illig
soð
##uuilli
sindes
sinuuel
nequ
chn
cher
char
chenun
##agene
##olf
##anten
##antemu
##utes
deil
##atia
##atiuum
##unte
suhte
manna
##ahanne
eniu
fons
geo
mevs
meint
meinet
minro
##igaz
##icit
##icul
mitter
mittem
##edan
irhu
zeuu
zebe
##erebat
duas
habitat
habeb
habentibus
habebat
uuarb
abuh
aband
absit
selp
stre
stand
stabat
adpro
aduen
##ingen
forna
forahta
fortitudo
spect
##riche
##uoe
uuanit
iubil
prov
progen
prouoc
exitus
unsig
alleru
sehe
##lichu
##lichor
##ftes
escam
selbuualtig
dicant
##angel
arith
arunti
dese
bede
beuuar
ferr
percip
prut
##ichet
##ffi
##ffan
##liho
samant
magd
magað
lev
leiti
vuis
gesihte
gesuas
##iturus
gisih
anderis
anderemo
##enni
##ennen
##ueris
facite
uerte
ints
##ogn
oberen
##keban
##antiam
rehtunga
oratione
##ancuning
salta
uuillun
secus
##inth
christan
peuu
guata
dhem
dhir
meren
##izzi
thineru
pluu
uuoltost
miseros
prope
##ienge
geban
##loqui
##ebam
dixerit
quaer
firnam
preti
geuuit
geuuir
geuualte
getate
floh
giuuati
scalca
##ept
tagum
sken
phara
iudex
modar
possum
petit
uuizi
uuisen
iungisten
iungarun
morg
moraliter
multos
gimar
semel
semina
nostros
quementi
legibus
quisquis
bette
pectus
curi
redon
ufan
sehendo
stuod
truhtenen
saligo
ubelon
sydera
wollen
ungem
liob
ruarit
cub
steph
incre
recor
uolget
patribus
conced
sprach
##issimis
ginu
bluote
statuit
riuu
neheinen
teiles
innana
gidor
sacr
sacra
##ornun
wortes
##indest
##atorem
crucem
##cumu
criste
causas
uoces
sprechenne
##spra
quibusdam
occul
tiure
barab
githiu
honore
sahen
frua
prior
kuoten
sensum
sensibus
transm
sazun
labia
labiis
noctibus
quanto
gihorit
uias
benedicite
equus
passionem
saul
inphieng
auribus
wewon
##ietis
chuninges
fuozze
##skep
salutari
linguam
uuazzar
besu
aquas
heƀancuning
particip
adhib
bethania
gnade
prouidentiam
craftag
mensura
poeta
sententiam
sententie
gahor
servus
triang
##haban
##stantet
##minist
haften
questiones
clamaui
porta
handon
snium
wisdu
tvam
bimiden
huob
hebbe
abrahames
arbitr
obedi
##nussi
humilitatem
persecutio
greci
pauperum
pauperem
lapis
afur
himilrichi
spracun
##haften
lenzen
sacerdos
fallent
penninga
absque
uuirðit
temptatio
false
unmahtig
calig
purpur
gruoz
##rorsum
opinio
schirm
rationale
placet
fluoh
surrexit
sibba
##plac
folgeta
tym
secundus
exaudiuit
gradvvm
differentie
tenebre
terrarum
giloƀ
elemos
phariseis
lxx
luzil
zuuene
nehabent
moyse
cognoverunt
fundamenta
adep
##amnod
sundigon
scrifte
keheizen
euangelio
fluctu
dialec
geiiht
respice
dulced
satisfac
esaias
utrumlibet
mansuet
resurgere
irteilet
lougene
obseru
parabolam
psalterio
psalterium
terminos
firliaz
monumentum
iniuriam
tuenthig
lyb
mosti
blasph
fortuit
elocutio
dilexi
dubio
proloquia
uuelez
adulter
gimalanaſ
promissionis
essent
managfalta
gesezzet
ewarton
pilide
imaginem
dialectica
circumdederunt
thomas
gilestid
sempiter
crvcifige
arithme
26
boc
bider
cnu
dahton
ede
emo
ejus
fes
fus
fate
fles
gun
gul
gec
grehto
haldan
ko
kere
kich
lia
led
leren
mys
nor
pun
pus
paz
pug
pagan
remo
rinn
roten
rachon
sne
sera
temer
tatim
uitiis
uesper
vac
vult
valde
vesper
wel
zag
##lan
##lob
##uitur
##cas
##cta
##cchen
##cui
##iel
##ielt
##nt
##nesse
##narius
##burg
##buntur
##biad
##pre
##gest
##dh
##sk
##titias
##hug
##kare
##vu
##va
##fo
##fan
##far
##ðid
##wet
##erre
##anna
##inos
##onota
##itium
##isu
insp
##arte
uuere
uuite
uuunna
##umen
##orte
##use
##ustum
##atha
##azan
##dea
##lio
##lige
quu
dile
unw
##chor
##christ
erde
error
erster
##dific
##alun
##irent
##htost
##ilitate
sokean
##uuin
##uuizz
sinro
alta
##idens
neuer
nehabit
##asi
##ommun
##agot
##ibr
##ohaft
##ules
##ulisti
##olon
##ollo
##olgan
deg
dehe
sug
mank
end
##neg
meer
meina
nide
niemer
##igot
heui
##icas
miteuu
condem
irde
irrit
##izent
zeihhan
uuaran
selu
stata
admon
##ugit
##ugta
forg
forsit
##uost
einin
einuueder
exac
exulta
nuzzi
uuirdest
diceret
dicamus
##angi
##angta
arh
arstuont
##auen
##auba
##ostost
ferlius
ubere
ubili
pertr
pertur
periit
ilet
dino
##tigun
##undes
##undem
queat
queque
##ariam
samon
lebo
fiar
fiel
vuola
gesunde
quodcumque
fren
quadam
alicui
gisu
gisezz
discum
vnder
##uerat
facto
faciendi
genc
uertic
##endero
##endens
##ogit
##ogun
suma
rehtemo
fard
farendo
anaf
anauuert
amm
zuisken
zuisgen
secuti
nahiston
christin
godan
posit
posuerunt
antec
bonam
dhero
meret
meritis
thinin
thinumu
hardo
animali
superfic
consist
plin
pluot
plato
miserunt
miseri
##ertis
serag
geboren
helpe
poterat
gilad
##afen
sanctam
fuore
durah
##ither
preuen
idol
geuuunnen
uirtu
mieta
miſſ
##rehten
fluu
wirt
kesungen
kesures
gelazen
geloube
malus
##riben
hierus
tagun
truge
marie
posset
uuizenne
##tendo
elect
thiota
horien
auar
interdum
giwe
confring
confestim
suozi
gimang
eouuiht
manni
euuidu
noch
opere
##elig
celis
slahto
uuelono
uueldin
cursus
corporum
gifu
apo
sculdi
sculdigen
credo
sehet
##ritud
ahtet
uses
loci
locutio
contrarie
peccato
rub
rutil
bigrab
##eliches
incon
munti
##iciens
undanches
iaman
mortui
giner
ginad
##tuor
operis
toten
tothes
necessitatem
necessitatis
fecerit
capitis
bechn
alteri
gidati
sacerdo
iudicare
##ihhun
offan
caritate
uualdande
##oufti
specul
perspic
responderunt
buet
dicitis
##atoribus
vident
seno
nimit
##vnc
herodi
thrin
rihta
occidit
fuerunt
nuncup
githahti
excus
excommun
brast
doce
milites
uuines
audientes
gesto
friðu
girihti
sorgon
strala
fidelibus
ioui
transili
laba
lachen
kelazen
xxi
quantitatis
uidebatur
noua
nouem
graui
gihordun
holz
iacobum
leitent
letitia
##linga
danih
wazar
fastun
dignitas
intfiang
lutre
chuningo
inmacul
peccatoris
dimitte
fiures
uuazzeren
liehtes
##undida
mandatis
congru
putant
hirti
contradictiones
diurida
poena
loquor
ambulat
musicus
quhed
mittemo
uuerðad
memoriam
gaude
quattuor
geloubo
tradidit
gezogen
mercedem
videant
cecitas
iruueget
apostolos
tva
hebbiu
hebbian
arbitrio
uoluntate
uniuersa
uincul
tougeni
cotch
blide
chuninc
thionon
certe
certum
conuenit
biscirm
figura
##tasse
dritto
drittun
sanguinis
plenitudo
lunam
neheizet
exemplis
preterea
frau
instrum
oppositis
bilidi
thiodu
confessione
portas
alienum
rationum
furistun
uuerthin
lusta
pueri
##elosen
saturni
sezzet
tyrann
secundis
secundarum
vvurdi
inueni
nazaren
houe
proximo
proximum
lebenden
urteildo
susceptor
arabeit
arabeito
priuatio
ubermuot
souuaz
uuizentheite
thritten
andremo
caduc
santun
##ederez
prospera
diuual
oleum
bezeichenent
iordanis
##iskefti
relatiuis
diapason
regulae
mittilgart
mittilgarte
liƀu
heƀencuninges
libertas
prescientia
atume
tuged
tugedo
abscondito
platonis
rabbi
vultis
elocu
multitudine
gitruobit
pavl
abdicatiuum
grotte
analiute
zacharias
custodit
maiestatis
crucifig
gehuilikes
gilimphit
cottidie
thalam
anaginne
iudeno
teutonice
iuuuomu
hypoch
ſicloſ
inperfec
stuonden
blasphem
dilexit
forsitan
excommunic
20
aeris
aure
ban
bich
cand
ceru
cunne
dant
dona
eð
eht
eog
edes
ezzen
eidem
fen
flih
funtun
ham
hendi
kast
klag
leste
luste
mende
pest
ping
pess
pugn
rate
ruc
reth
set
slo
satun
sungen
sachon
tali
tandem
uater
uestig
wunna
zun
zah
ſint
##lang
##uod
##cin
##ces
##elic
##bere
##po
##prah
##das
##sibus
##serit
##hem
##hurſt
##zest
##mann
##menta
##fu
##fon
##xerat
##wo
##enkit
##aner
##ander
##inat
##onum
##ondi
##onibus
##onald
inch
inpon
uuaht
##tir
##emn
##orot
##orgen
sige
silo
sive
##liden
quena
queth
##amet
##amento
dieten
uner
unuer
unme
##uret
##urdi
##urre
##urni
##elinqu
anah
erue
erbar
##alum
##alah
##aldo
##ilt
##ilitas
##entin
##entot
##rop
alsus
nequam
neoman
##asse
chat
chru
chrum
##ositi
##ulli
##antin
##ecto
##ecchet
##ecill
##quin
##datio
deon
dede
##istet
suade
manot
##odan
tuan
gelic
gezi
med
mezz
mevm
media
##iali
mithont
nona
scimus
scire
scona
contig
conter
##edentibus
irqu
irstir
ablaz
##ioda
stella
adt
uuerco
forl
spring
derelinqu
sintun
rech
reine
refic
herb
##uoz
uuang
einest
prouen
expe
exhib
unsero
unsundi
##lichan
##lichon
##licheru
mihila
zierda
dicimur
desem
##ensi
bezeich
##oston
ferror
feruuorfen
iltun
##undin
##undero
##zzun
kebe
vuie
gesu
gesat
gesch
##ellit
frah
frith
##altet
trun
giseg
disiunc
vns
facte
facio
genge
generis
genitus
genuoge
uerro
##andero
##endest
ober
furhte
summi
solv
subdit
faranne
ambit
gibo
paruum
heilan
heiles
heilag
secret
secundo
##inthi
pede
pezeichen
guunnen
anth
anthe
gras
fill
warin
dhrin
thinero
haren
harent
hartor
regione
conserv
plerum
uuolda
uueinon
misere
##erton
##diui
thurftig
notin
acer
actibus
##avdi
respici
dixisti
dixisset
moti
tempal
fuaz
guoto
durch
##einit
mið
giuuit
gelte
gelegen
itin
findit
infl
infelic
glob
aliquibus
##that
drio
petram
uuizist
uuizago
elegit
##unnan
##unnes
anduuordi
nemet
##iska
##iskun
auf
managun
##innu
giwalt
multorum
confiteri
suozze
eouueht
mannan
unrehtemo
euuu
nouo
oporte
quisso
urst
##uuerdo
uuelemo
curam
gifeh
heiligin
neges
gabun
locuti
psalmo
syri
##tiuum
nesol
egressus
hohesten
quedan
inclina
recon
receper
manigfalt
populis
populorum
conclud
qvam
decet
potestis
totus
##roni
eriston
giduat
saca
##illam
impii
differt
antequam
membris
sanges
presentia
precios
eftha
halben
pasc
uuerolt
uuerolti
vidisset
gefestenot
brutig
senatum
uuella
herodis
fuorta
unumqu
meista
meister
laudis
mahtigna
odouuan
liebe
lieben
frummien
ueneris
barb
exclam
appare
honores
lerent
milt
mille
##escit
signis
audierunt
##oniis
fragon
irstanden
disced
discrep
misericors
latini
effectum
geskah
nullis
oppon
sorga
insign
uidere
vestram
##brorum
sensibile
sensibilis
transire
##ticus
inuti
generibus
voce
grav
iniquitate
leitit
passibiles
argumenta
inphangen
gratias
losen
galileu
aurem
falsam
misselich
intfahit
aduersis
bitent
luto
ponam
ponere
tiser
habitant
stimna
bechennent
bechennest
retrorsum
aquis
puto
diemuoti
contradictionis
diurlic
perfecti
sterno
ambulans
musarum
kerot
ketuot
dissip
oðrum
sentit
gaud
gahi
eruuel
defunc
dorm
iungiro
audisset
##erostun
sundiun
ringe
circumd
tradi
gesciehet
dilat
tunchet
snelli
baldi
tvo
##qvam
mennischon
iunonis
ratissa
antfahan
bedarf
particule
tertium
congregatio
pace
hugiskefti
foller
certo
tribulationis
distinc
stille
infinito
resurrectionis
plenum
lune
uestra
felde
aperuit
biliði
foed
foedere
turbas
felicitatem
tonus
sundeono
sponsus
zegant
zegangen
sabbatum
zelita
tholon
antuur
mercurii
neuuirt
netuot
penitentia
uuatares
minister
ministri
antiqu
slie
constituit
assignetur
catonis
nubibus
umbir
differentia
uureða
psallam
##raben
caelum
deprecationem
giuuiznessi
eloquia
thritich
ferahes
uigil
cognov
##uaric
uuiget
adiutorium
friste
zisper
rikea
emmizen
ſolidum
vitae
extrem
possibili
possibilia
approb
complac
uideri
temporalia
creditis
zimberot
irslu
kuollichi
eripe
ordeno
firinuuer
gladio
irhugeta
dilectionem
kahes
cognoui
annuzi
bismar
obliuisc
pagani
ſancti
fargaf
fetta
ernest
gubern
inequale
percussit
insipi
unsemfte
fersehent
myster
abulge
uuerthe
felix
gauuisso
heithaft
auxilium
ungeloub
hriuuig
refugium
mecum
benedixit
adpropinqu
condemn
##onaldre
plerumque
25
bas
bant
but
bere
blic
cle
cell
canc
cult
datur
datum
euuar
eiec
eduxit
fa
fid
gire
huge
iauu
kor
kele
kunni
las
lect
liste
mam
ment
maro
nv
nest
nac
nete
niden
nord
oliu
pom
poc
pap
punc
raf
rates
suuar
tili
trep
talibus
uim
uie
uare
uell
uine
uall
vb
vent
vera
wint
xiii
zie
zins
zurn
°qu
ædific
ſpec
##uz
##cor
##cie
##nen
##adig
##rare
##ragan
##ech
##ezze
##bim
##pfen
##gr
##gith
##dat
##tarum
##ture
##kero
##oper
##mah
##ſc
##ſtharpa
##ðer
##waz
##wanne
##eram
##anaz
##inorum
##inna
##ondon
##itibus
##eson
##isen
##isot
inlum
##ariter
uuine
uuendi
uuito
##tien
##emor
##emuot
##usent
siz
sion
##lix
queritis
##amb
diamet
unnu
undir
##othe
##elten
##chu
##chel
##dion
##alu
##allo
sinin
singe
alam
neuuar
nezzi
chil
cheret
##agent
##osce
##abimus
##ibet
##ihest
##iez
##ohh
##ulari
##eceb
##dadi
##utam
debit
deuor
##atile
suaro
suið
manere
##ahid
eniga
##rex
tuene
fontes
gew
geden
gelichen
meti
niet
minnea
##igheite
hebit
heue
heuig
##ega
scitis
scazz
scuof
##ades
##adas
##izoh
diuitie
##erebant
habuit
habende
uuarm
abe
abst
abiec
abande
##rupti
##aci
sted
stodun
stabil
adm
adal
forge
fortasse
spar
spem
spir
##deris
##deret
##rix
##riis
repro
refec
herizoh
einu
einunga
prodig
exi
exavdi
seque
uuird
artis
desiu
##ouon
ferz
ferlo
fersp
ferbrochen
dominica
##ichel
##issum
kei
keant
johann
samn
cumid
leite
vuile
gesahen
fridu
tret
dienont
anderan
theo
theot
quidis
vnreht
##uerint
genem
bik
##iehten
intuu
intph
inthab
sumer
solo
solche
subsequ
subalter
farli
farenti
farenten
gibi
ort
oren
ortu
orbes
folla
paruu
sagitt
##ucchet
gerst
gerih
sustul
christvm
antvv
bonvm
uze
uzar
##tioni
dhu
huila
hareton
doðe
conson
consilia
uuollet
sicuti
uelis
##erten
athan
seruo
seruit
situm
comed
helde
notam
potentie
gehenn
giloube
##ebas
##ebantur
resol
respexit
ipsos
##uuardes
##scað
tempest
firdan
firsp
guotan
preuaric
##einet
geuuer
uires
uirum
brotes
tiefi
flor
flanz
##giun
giuuitun
keskeiden
finibus
uuortene
infra
truob
aliquant
##ther
tesamne
pho
modul
##cheit
##cheda
venire
uuiso
thior
thiornun
andres
##iski
heilantes
manages
confid
semiton
nostram
spiritvs
spiritalis
spiritales
spiritalia
unrehter
leges
optim
sluag
urde
uuela
uuelon
redinu
gifuag
gifrem
sculden
afferte
negationes
stuppe
stupf
loboen
usum
scolde
turftig
geman
chumest
contrario
wolles
habenten
aspic
humane
ruah
rukke
laze
lazarum
bigiht
biginne
miseriam
langsam
cuat
recchet
wergin
uoluc
nihilum
dagon
faciens
concep
liche
mortalis
mortuos
truhtinan
ginath
predicatio
predicatum
predicationes
nahta
montibus
beneplac
rietun
singet
singuli
teilo
similitudine
giloubent
giloubta
praht
posteri
iudicat
impiis
timentibus
timorem
emend
sanguis
preces
precepit
uuizzin
commou
septim
gitru
herode
fuoret
sprekan
liebes
##ulisper
chomener
domvs
##tring
##lihhera
githan
githankon
kehuc
mariam
excess
excogit
sahe
subiectis
audivit
euentus
geskehent
biru
uidit
gnot
##criban
ostar
inpun
inposs
paulisper
uanitatem
lavs
kelobot
xxii
thinges
segg
uunt
uunden
uulc
uultu
scripta
benedictionem
fratris
##picis
dispens
leitta
bilos
danna
danches
volo
voluerit
auri
geheili
thegnos
intfah
uuortener
festum
ganz
hilti
eigist
##skefte
dimisit
gisehenti
propositum
speraui
liehto
dextra
calum
stantenti
marean
diemuote
dauidis
ostium
sterron
eteuuio
palm
uuerðe
contingens
ebenm
viri
virg
quintus
##edific
haƀit
gelouben
geloubet
heizzit
delinqu
engilos
ringa
indr
pedum
haubit
tanto
sprakun
arbitrii
uuunderlih
lesen
uuibe
patientiam
grecos
gomun
himilriki
uuoneta
unfro
ouch
divina
certa
zimb
ducit
kuman
giheilit
linguae
biginnen
biginnit
bouma
falle
suuig
neheine
kindon
manducare
chlaga
conven
stunton
desertum
alienis
uirgine
goumon
##ellien
premium
sponte
placitum
erfull
surge
treget
reliqui
friunta
cantate
credimus
sezzent
reuert
reuerentia
suscipere
revers
heilegon
digna
ezzan
##huuila
choson
disputare
liebera
murmor
auert
praecip
irref
leohtes
silber
miltida
uxor
bezeichenen
propriis
propriam
speciebus
##ragn
skinent
uuisson
recipit
persecutione
gelobot
stuole
feho
respicit
fagar
gressus
honorific
grebir
imaginatio
irsterbent
quartus
senioribus
gisprah
vuelez
lavd
neuuerdent
helpu
bisgoff
fratri
familias
preteritum
aðal
bestat
navic
suauis
gihiaz
boetii
boetius
vestimenta
forstuontun
gihortut
difficile
bizeinot
subsist
praesumat
responsur
begrifet
uzlaze
brutloufti
paradyso
pertinet
descriptio
babylon
improbos
fletus
sortem
hercules
phoebus
niudlico
terminum
antkennien
periermen
xpist
widorort
knada
sprecan
githigini
dimidium
sniumo
arithmetica
mystice
pertrans
apodic
pavlvs
iauuethar
nidenan
athanas
15
agen
adiu
aze
brist
bile
bodon
cri
coc
cera
cale
couf
cunnies
dam
data
dele
elim
eandem
fato
fisg
gno
gav
gurg
gando
hur
hunt
huh
hare
hwer
ieman
kie
kru
kali
kaf
kif
lod
late
lern
lostost
nil
nag
natr
odit
ogun
pic
pate
ran
rug
rinc
siti
sana
sendi
suuor
sendet
tang
uota
uesti
uona
uffen
vbi
ventur
wider
wafan
xiv
yd
zo
zoc
zene
ſi
##lant
##lect
##uisset
##cere
##ique
##nia
##remo
##bari
##dag
##sim
##tine
##hc
##zu
##zton
##mina
##muote
##vervnt
##ſa
##faren
##ðar
##ym
##đo
##enk
##inch
##inota
##itan
##itorum
thult
thulta
##esit
##espere
inin
inuuid
##tie
##tior
##umon
##unst
##ement
##orono
##atas
##atess
##atoris
sigo
##dele
##lies
quali
quarta
quonam
didic
diabo
uneben
##uren
##urbi
##elose
##chont
anab
ando
anter
anna
ersp
ertha
##digi
##alle
##alden
##alitas
##ilta
soh
sinna
alton
altitud
alex
##idera
istis
##iuer
ned
nequa
##oment
chere
chouf
chunde
chinde
##agogis
##imi
##imber
##abar
##abas
##abul
##aberis
##iber
##uldi
##olos
##ectio
##quh
##dahta
dedi
deohe
deorsum
##ahhan
enan
##odin
##odque
tuomes
geliche
meinit
imago
minin
minera
minemu
minumu
##igene
heid
heuue
##ican
##icorum
##egot
scad
scuo
scari
scibile
scande
concul
conex
##adis
irte
##estun
zein
diues
diuitiis
dudum
habenne
habendo
uuars
uuarer
uuarlico
abah
##acon
##acis
##acta
stuc
strom
admodum
admir
uuerches
uuergh
##ugin
forun
spuot
##richi
reuoc
herit
heres
herisc
herote
hertuom
##uob
uuande
iudam
einon
einis
einemu
proici
produc
unsan
##lichera
esur
tex
uuirde
uuirdu
uuirdige
selbomo
dicente
dictio
dictis
dicentem
##heide
##heftet
ars
arte
arhe
artific
archenn
desuper
##auimus
fergeben
perp
peruer
pren
terris
terras
keuuar
samene
samfto
cumana
leonis
fif
fiang
##dendum
vuemo
quodamm
trut
iouueder
gispro
gisehen
gisihti
##uers
factis
genadig
sedal
uerus
##ehsal
##pha
##phen
##phin
name
corrupti
##andus
##endatur
##endite
quamin
sumiu
farf
farad
contum
tiuf
simlun
allelicho
salbun
sageton
sect
##uitas
pep
peperit
uuazere
rege
superflu
plor
plint
plane
gihuu
gihol
gihalt
sicvt
uueliche
gebr
geburt
compon
helli
iustic
iussit
potes
potent
potentem
gehortost
moab
quaed
quaecumque
heize
##sco
templi
temporum
fuari
durn
durfte
##ithon
##eino
##uique
flam
fleg
wirđ
giuuat
giuuand
geladot
scalches
tagen
sker
skie
skirm
mars
possumus
uuizin
ellen
##unnet
thiot
andero
horent
auis
manago
managero
managiu
interi
giwer
confort
gime
##diger
##engin
quemen
quemet
novi
legeta
celitum
slahen
beto
betti
urr
urlag
ubarmuati
##uuerd
untaz
reddam
corpori
heilige
crede
nequeunt
affectus
ahta
ahtent
ahtost
gemar
gemugen
liobon
lazest
numeri
miseria
nesp
nesin
eggiun
angust
recto
werl
werden
facivnt
munus
munist
discipl
discipulorum
qvem
unsermo
decern
frequ
freison
gangent
singulos
capti
tuoen
mak
eristin
chriu
giloubo
erito
iudicabit
inique
iniung
lonon
lones
lonot
##abitis
##illit
woroltring
responsum
memento
##indent
intellectvs
septent
gitoufit
tirro
videtur
niman
skeiden
skeidet
veritate
verbo
uocibus
sprechan
affirmatione
rihtit
gizim
gizellen
anderez
occulta
adiuu
##lihhan
##lihhin
##lihhes
githu
lik
uurdun
tribvl
appon
appreh
honorem
docens
sahha
hoƀid
uuineg
uuinster
audiens
audiuit
zitin
igni
ignosce
fride
breit
effectus
geskihte
priore
uidentes
vestri
sapientes
gnuog
petruse
sensatum
sazen
uzzana
##athem
relatio
labore
iuuuere
sanum
sanitas
uanitas
biforan
cooper
xxiii
thingo
ligit
uunsam
irfullit
uideo
scriben
folcskepi
uultum
paucis
uix
uiol
benedicti
burge
holoc
iniquitates
iacobes
nideror
patitur
passio
gratie
voluit
galilee
galileo
auro
geheizze
dignitate
dignitates
dignitatibus
intfangan
intfiengun
dolorem
biten
bitit
lutter
##isseda
iudiciis
fuozen
fuozzi
tisa
uuahset
##skein
carnales
retin
ebdom
expedit
futuris
lebeta
lebente
anderesuuar
bethsa
hirta
contradictionem
diuri
uisum
uisus
craftu
mensa
palest
paldo
dissol
##edie
lumina
luminis
servos
casum
willo
##oriis
fersu
fersah
trinchen
summam
simonem
engilon
motu
ullo
indulg
circumcis
stigen
mihilan
leohte
gescehen
uuenegen
porro
porte
syllogismis
consequens
pulcher
smah
astra
bimide
cras
arbitror
uoluntatis
credere
humilem
vvuost
uniuersalibus
cantici
montis
particulari
stritet
siðon
huggen
heimortes
uuartent
fallet
herosten
novem
stilli
##steig
kebot
irkanta
zeigota
profund
fremede
boumen
pretor
scama
irraten
exaltabitur
calicem
frav
inex
drom
tranqu
convoc
gimeini
opinione
rumo
uirginem
confiteantur
tonum
sundeon
furhtet
ivdici
plebem
staðe
diabolo
stir
andreas
gehuhte
lustun
lussami
rihhes
##quisque
neuuirdit
hazzot
tabernaculo
rhetorice
terrenis
heilegun
intravit
penitus
supplici
conuertuntur
dereli
irdisken
exercit
pegri
annos
annorum
firnim
inbl
uuuoch
caelorum
skeinda
bluotes
hluttr
galau
somnum
oleo
extoll
excelsus
iordanen
nigrum
peccatoribus
richesot
chundet
scrift
einluzz
sprehhan
gemeina
persecutionem
kauuisso
tecan
meditatio
quadragin
superiora
circuli
noba
chiuset
aeternum
cernere
vigil
esaiam
utrumque
lefsen
saluator
monachus
impleatur
occidere
defecerunt
fatig
moste
alouualdo
alioquin
parabolis
geuualtigen
confundantur
irbarm
giuuerðen
tolle
nequitia
helpono
fornic
pringent
mortalitas
ratiotin
aleib
salbota
preterito
mittilig
abdicatiuo
disciplinam
scripturarum
disponit
eldiron
efficientia
iesu
relictis
cillenius
peregrin
acceperat
begagenet
fernement
brachium
gehileih
gladius
ungimah
apparuit
brutlou
gelirnet
hym
ſiuon
thunkit
frammort
intentio
##vndvm
mandauit
underskeit
verbvm
uestenunga
zuival
lestien
vindic
biquami
semetipso
alterutrum
erubescant
kelirn
huergin
exeuntes
giuuortan
tetigit
directim
septies
adimpl
cælorum
uohtun
mittemen
pluuiam
##loquiis
uerticem
meretric
superficies
miſſa
mannikin
rethor
dhrinissa
unumquodque
ſpecſuin
bristit
##atesseron
nequaquam
quodammodo
ak
auuer
aedific
bati
buh
bicu
cun
cli
cos
cab
cund
duu
das
dabitur
eigi
epic
fuot
funda
fahet
fað
gente
gahe
hn
hag
hut
hist
had
hru
huuar
iom
iesse
iord
kuu
kid
kos
kant
kang
kert
kern
kuis
keron
kieng
lv
lati
loub
lidet
more
murg
nere
natum
pens
pend
pane
pito
pup
rie
roub
rationes
roz
sita
sata
sende
sauu
tau
tanti
tinen
tregit
uv
uph
uasa
vil
wat
walt
wila
westa
zer
zur
ziz
ſeh
##lonis
##ube
##uetan
##crip
##ivm
##iente
##ruu
##ragen
##eos
##ehe
##eina
##barn
##por
##gel
##scip
##sisti
##tri
##tate
##kenti
##kno
##zeb
##ment
##manne
##mate
##mentis
##vo
##fent
##fut
##foll
##ðon
##yr
##eran
##eras
##enon
##enes
##enahtig
##anu
##itag
##eso
inr
inui
inscrip
uuom
uued
uuost
uuop
uuiste
uuendet
uuederez
##uma
##uns
##emper
##emini
##orp
##ustig
##etsi
##stri
sill
siune
##azo
##azent
##lian
##liuto
quoc
quinqu
##amite
diatesseron
unti
unter
unth
unreh
##uru
##uro
##urz
##eler
##chos
##chili
##chota
anne
aning
andir
eren
ereta
erða
erhaban
##dius
##dida
##aldi
##irrit
##htero
##ille
##ildot
##entun
soł
##uuiu
##uueg
##uuila
##uuizze
##roz
##rogen
alum
##idot
##idos
istud
neut
chne
chich
chana
chunden
##ageti
##imam
##osam
##abilia
##abvnt
##iben
##ibot
##iegen
##olget
##antun
##antemo
##dad
devm
deisu
##istin
suarum
manegi
enemo
ensti
##reuu
##nee
tueli
tuif
tuena
gelim
geƀa
meze
nic
nidi
nicod
minor
minore
##igr
##igit
heuet
##icos
scar
scie
scant
scato
scorp
conuoc
iratus
irdis
irasc
diuites
habebit
uuarte
abel
izzit
sele
selda
seldon
##ilio
##ilich
##iliche
##acia
##aculum
stene
stantes
steten
##ingent
uuerke
uuerche
foru
fores
fortis
forliez
spato
##derum
##rift
rechen
reino
relig
heriston
einaz
einic
giengen
tharinne
procul
exurg
unsalig
therro
uuirkean
zioro
dicebatur
##heiz
##angon
arl
art
arcum
arlos
desan
desin
##ouit
sihit
##auun
ferf
ferren
fertr
ferhes
ubiles
permit
peribunt
isti
isra
diner
##itatum
##undene
##ahten
##lihhe
thenke
thenken
keze
magad
magni
lebe
fianta
vuan
gesihet
##ellon
##altin
tristi
tramite
iowanne
##itebat
gisamnod
##onton
hii
hietun
##enno
##ennent
genitiu
##andis
illuc
illeceb
inth
intuer
obera
obtul
sumere
umba
directum
rehtemen
soll
soltin
contemn
##iderit
amici
ambitum
gibiu
##essa
##esses
ortus
orationes
organ
##chende
##bikie
salm
salmon
saluos
sageti
##ache
##acho
##isca
heila
geronne
thankon
##itavit
positio
antl
ants
grem
fillet
uzeren
##tionum
huore
animum
animorum
regionem
conseru
plas
plate
gihel
uuoltin
##ertet
muosi
thurft
thurfti
ath
athe
servit
##ienda
situ
sitis
gebanne
iustos
notdur
gehaft
##ebunt
respl
uuorde
uuordu
quaerit
firiuu
guota
##itha
idume
geuuare
gete
getane
uiri
giuuadi
kesp
kesah
keske
kescriben
geleget
##arnessi
uuerdhe
uuortum
hiericho
tageliches
ski
skimen
uuardon
uuardos
mara
aliquem
##thi
##aldes
iudeam
driz
dragan
dreso
petunt
petont
thik
thiarna
##endebat
##erubim
##iskiu
iungeren
iungoro
horr
horet
managoro
giwisse
multo
multas
accar
minnesam
mannis
legere
opibus
celestes
slap
slahte
urc
currus
gifi
giful
apollo
heiliga
sculut
##ritæ
uuiolichi
lobesam
scolo
turbe
chumit
wollent
unguot
ruam
lazzent
numeris
misertus
lange
hohon
hohesto
ambo
facias
##issimam
mortuum
mortales
nosse
worahta
predicari
predicato
primogen
blandi
freisa
fecisset
##endid
##ronom
singem
similem
innen
israhelite
barnes
deme
##sidi
##till
##tilis
##ollot
offici
##illon
##illum
goz
anteph
altar
membrorum
qualitatibus
bisuu
preced
uuizzagon
##bergon
sepeli
septu
videte
gefreht
senatus
##ordia
skepf
frost
causarum
mahtigi
mahtige
mahtigen
zesuuun
spreche
affirmationes
uuihemu
frumono
gize
gizalta
uenire
adiuua
adipisc
barme
excell
honest
lerde
##escunt
audiunt
irstuant
discre
euun
euentur
euangel
prioris
##azzon
strite
biruor
uides
transl
transfer
ostron
ostoron
ostrun
liohtes
iuuuaro
beatitudine
xxiv
gedr
muatw
fleiskes
uideas
uidebantur
uulg
pauca
gagenuuert
benedictione
burc
burtig
euuigo
michela
equale
passionis
letabitur
bild
testatur
inphahit
volumus
falsis
depuls
fuoti
fuozi
habitare
fuarta
inmut
stimmon
gisehent
salutaris
bechennenne
colon
sperare
sperabo
uuazzero
gehorest
uuideruuartigen
mikilu
calli
stantan
intellegit
putare
abbati
hinana
mensam
eteuuenne
noluit
ambulabat
muse
mittero
mittundes
multip
keriht
oðra
oðrun
sequuntur
haƀes
lectiones
hiuto
accipit
accipiat
accipiens
##braht
forderont
bringit
bringent
gelouba
defin
deflu
giangi
audistis
ceteri
tametsi
trinitate
iawiht
queso
questionis
infirmitatem
uuenan
uuenege
ubilero
ceci
utile
unusquisque
##uuord
hlau
sulicun
detrah
puls
tvvm
astronom
metem
mennisgen
oportere
zesamene
herebir
credunt
creditur
humilitas
ciuitas
diligenter
enigan
uinf
tougenen
chumftigiu
cotan
strites
almahtiger
custodire
bliden
bliði
sanctae
cælum
hugu
proprio
desiderium
augustin
ampli
uuordene
still
dritten
niuuue
temptatione
interrogavit
invenerunt
achuste
lustsam
lustsami
zeichenen
ethes
ethio
manducat
oppositorum
troche
procedit
venient
turbam
humiliatus
felicem
festenot
schinet
sprung
herzun
exultabunt
tingis
irbolgen
forlazzan
furista
furisto
firmamentum
goldes
iuuara
tholodun
nescitis
dheodun
troste
##elosi
buoch
buochen
zornes
tabernacula
hazeta
tanches
ministr
sumptis
heilego
chorus
castellum
antichrist
blindi
proximi
leideg
preceptum
##uuirf
##reditur
exercitu
umbeg
tritten
cesari
surgens
irlosta
praecep
zuuisgen
diuinitatem
ewinigen
ueteris
nehabint
preteriti
andreru
prosperis
cognovit
uoluptas
patriam
rikeas
innocentiam
uuistuome
uuistuomes
turbae
evangelion
eleu
gisiðos
gisiðea
chundent
mortalibus
claritas
forderosta
tulerunt
kechose
stuantun
frewen
relatiuorum
iocunda
prestare
accessit
complect
behuoto
neouueht
debita
manegiu
iogelih
irsterben
flagell
accedens
prescientiam
risibile
##loubit
##hard
deducet
scandalum
irbarme
aduentu
terminus
vuelee
celestia
kreftig
krefti
pastor
pastores
vueliche
siluƀ
delicta
creatura
figurata
irzellen
multitudinem
proloquium
alleluia
scripturas
citim
romana
weneg
##enderet
ummahti
diffinite
contempl
conditionalis
cillenio
ſancte
geginwer
fortitudine
peregr
gerihtet
acceperunt
fernemenne
straza
transeat
fragode
fragoda
conuenienter
fellit
meðmo
gubernac
pifol
repleti
babylonis
xix
chiquh
melior
giborgan
finstarness
cibum
nathanah
vsqve
durnohte
pontifices
geantuu
profecto
aspera
vigilias
gediemuot
proferre
ferstozzen
leidir
itmalen
poenitentiam
hierosolimis
aeterna
eteuuar
utriusque
denominatiue
caiphas
cicerone
exsurg
subiaceat
remissionem
aegyp
judas
pizeichinet
dialecticam
exacer
ferliuset
uirtutibus
hierusoli
biscirmi
hypochritæ
lestean
eruueleta
zisperi
neuuarin
navicula
elimos
conculc
urresti
septentri
uuinsterun
holocaus
fravili
quadraginsim
nicodemus
biruorta
chiquhedan
19
18
aſ
ain
auu
auue
aust
aho
bor
bom
bore
bendi
boto
boten
badun
centen
caten
dentes
dentium
dusent
eze
egi
edil
euntes
eundem
fod
falt
fenum
gera
gap
gign
gliz
hlu
hano
hrom
iaro
iomer
kli
kam
kint
karo
korn
kabe
knot
list
lugen
latus
lagen
laster
mist
matur
mna
mota
nas
pli
pip
rim
rig
rou
ramen
richen
raten
rationibus
ses
svs
sach
sav
tou
tono
toub
uas
uenti
uidi
vinc
vespere
wig
xpe
zito
zeno
ſpi
##las
##lac
##uens
##ueh
##uanti
##ubit
##uethar
##ix
##iantur
##rv
##rarum
##een
##eus
##eas
##eant
##bot
##bal
##bre
##beri
##pus
##piam
##gis
##gelt
##datur
##dine
##dono
##sos
##qvit
##tare
##torem
##hant
##kil
##ougen
##oian
##zin
##zon
##zil
##zig
##morum
##muot
##mari
##fle
##xis
##ximus
##ƀes
##erere
##erota
##ertim
##eniu
##anorum
##onia
##itti
##itor
##ithe
thahta
##isus
inno
insidi
##arer
##arto
uuaf
uuast
##oria
##orotun
##usa
##ussi
##etatem
##stern
##stedi
siquid
##azu
##azun
##deus
##deono
##lid
##amu
##amvs
dio
diga
dieto
uni
unr
undon
##uros
##otet
##otut
##eliti
##chum
##chiu
##chunga
anst
annum
erre
ereg
erra
erke
erdun
eruuer
erstuont
erhafti
##dii
##dimus
##irn
##iris
sou
soph
souuer
##uuano
##uuillig
sinere
##rob
alah
alliz
##idas
isto
chus
chal
chalt
cheli
chundida
cherubim
##osan
##ihhe
##ihtigen
##iech
##ulun
##ulatus
##olan
##ollen
##antero
##ecch
##ecche
##quir
deitatis
deinceps
dederit
sud
suare
suara
manon
manes
manas
mansit
enen
enar
enez
##redo
geda
gedun
gedu
gelichiu
geƀan
meid
niem
niht
nigen
niwiht
minne
##igero
##ignific
heiter
heiden
hebet
##icta
##icumque
mittit
nonam
scadon
coniung
##edes
##edos
##adet
irren
##izel
##estit
zeli
zehan
##teo
##tean
diuer
diuum
diuinam
##rahton
duen
duam
duabus
habdin
habemus
habebant
uuares
uuarra
abim
##entibvs
##ruog
izs
##ilichen
stag
stelle
stellet
adol
##ingu
forhten
spac
##riƀan
##rikea
rede
reue
requi
hertin
herito
hertan
uuann
eineru
tharasun
proiec
exul
excip
seil
seui
seƀon
seiton
esuri
thesum
selban
diceretur
##angont
arƀ
aruu
arab
arge
arbor
desemo
deseru
##auero
beatum
ferh
ferdi
ubert
ilta
ilton
##itatur
##ichi
##tiger
tertiam
##ungi
omnibvs
##teret
##geo
##geti
##geat
##issedo
keouget
samun
maged
cumen
fieru
fiunda
fielun
vueg
vuio
vuider
gesieho
##ellun
##ellam
fron
frustra
tragen
alibi
gisund
gisauu
gisuas
hiem
hiare
genado
sedens
ueri
uerst
biuu
biwar
##phun
coron
corusc
illust
obenahtig
furn
##keon
##antie
solu
solte
faruuar
farsa
farman
farlet
gibe
gibereht
##essit
niehte
oratur
ortum
paratum
partur
libet
libbi
liberi
libbian
salub
salmen
##ucti
##ucia
##uceorum
##iscum
##iscop
heilagen
heilegen
germ
gerstin
##gendo
sustine
peide
peitet
guodo
godlic
anton
bone
uzana
dhoh
dhinem
meridi
##ppo
##izzo
##izzes
thinaro
huetes
harum
animalium
superius
consec
consignific
uuelicha
atriis
seren
gebar
gebiu
gebote
commo
notth
gilegit
##afot
uuorhta
uuordan
toht
sanctos
sarf
quadi
firma
firlaz
fui
duru
preu
getana
getrun
brote
tiezo
mix
druhtinan
flect
giuuis
giuuir
kesaget
gelusten
##zenen
finde
findest
malitia
scalk
uuerdant
uuerdint
hierem
truobe
skid
skimo
martis
marcho
aliquoti
phitag
drat
drati
drato
veniet
venissent
elegi
neman
nemahti
##isko
iungo
iungiston
auene
##innit
interro
giwis
giwati
giman
##digot
minneren
nostras
luci
novit
legit
celsa
beteta
urte
curit
redem
redde
gifre
gifragn
mendic
nequeat
##ritudo
gaben
studio
usa
scoltun
gemm
##ersa
wollet
humani
humanum
liobo
##aneos
lazen
lazzet
languor
languere
angil
cuate
cupi
incol
recta
rectum
ambahta
uolle
uoluit
##ligit
faciemus
samolih
lichez
unserem
ginam
worte
predicare
montium
monstra
operantur
singill
capita
sulent
##uonti
prahta
bechandon
israheles
gidua
gidatun
##ornen
##ollon
longa
##otez
implic
impiet
altissimus
presc
presentiam
presertim
eftho
commin
commod
##berg
psalmorum
septen
septimus
christianis
gitriuu
videtis
gefesten
veritatem
##huſon
##ubuit
##uburg
thrid
saliga
agat
agatur
mahtigo
affirmationi
terrae
lieui
frumenti
scioro
fuerant
adipis
barg
pilato
##lihhun
##lihhero
keuualtig
##atenus
uurti
uurdi
excep
chomene
bracia
chamin
reput
hoi
leron
lerenti
##escat
uuink
durhk
zites
disco
discept
latad
breiti
giru
opposite
helagun
priora
##azzo
##imeda
kuota
kuote
lucern
insurg
birn
dauidi
uidet
vestro
vestris
sensu
transf
uzzar
woroltenti
muoze
muoza
relin
labores
laboris
remedi
iuuues
iuuuar
sanus
codic
xxvi
##mian
wizod
##roste
##rosten
##abeti
helfan
flex
##oscit
getanen
getaniu
uideantur
vocatur
grauis
benedicat
benedictio
burdi
burdin
sagetost
euuigheite
oculorum
starchen
starche
sumelicher
mikila
arbeito
leittun
equalis
pharisæ
sunden
testes
inphiengen
galileus
##ziko
misseh
trohtines
deput
depreh
fuozzen
ponti
cuiusque
##ftid
fuarin
fuarit
inmob
conuertit
gisehente
carnes
color
uuazzere
gehorent
mundb
mundbur
retro
leidsam
ebri
fulle
mikilon
calor
congress
aquil
partium
putat
diemuot
##aheit
lebende
lantscaf
fieriu
ascens
ascenderunt
mensis
poen
poete
tumul
almahti
musas
mittunt
kerta
oðer
plurimum
contrarietas
gaudia
laudabo
gahes
serve
servis
saty
forasagono
uuillio
uniuersales
forderot
forderota
antlingota
wille
wanu
audite
##altidu
assid
##rehti
sextus
follez
motum
rouh
rogo
ringen
uppen
stige
stigun
mihilemo
infirmis
infirmitas
infirmitate
haud
diluu
forðuuardes
clamavi
snello
##uole
syllogismo
kuninge
puah
gedingo
astandan
metu
torqu
uoluntatem
bapt
fructu
beden
cantico
patientia
pauperibus
pik
stuontun
almahtigo
almahtigin
canis
congregatione
pacific
cælis
uorlaz
uices
##uhtsam
unfru
desiderat
desiderio
cognoscit
duces
fallax
gistuant
kumen
novum
novissimo
pruad
suffrag
promp
iuuueriu
biginnet
iuhu
wibe
redim
probabilem
profundum
falso
unmaht
exemplo
pretere
inveni
achusten
uestre
slafe
kindo
enoch
uuehsela
colla
oppositum
oppositio
proced
transc
considerandum
confessionem
felicitas
rumuburg
exultatione
alieni
confitebitur
tonantis
furhtenten
gilicho
sceid
proteg
leða
intrat
zelitun
tuentihc
reliqua
##borgen
cantabo
buoche
saturati
tabernaculis
penitentie
superbos
lukkiu
matre
rever
revel
bluomon
wurtin
unchunt
unchre
fernimo
penet
fermul
fermento
queritur
fahent
chosot
sedecim
priuatione
firnfoll
phariseus
voluntas
chiburdi
enuntiatiua
luzila
caelo
caelis
culpa
ueteri
irreden
pechenno
pechennet
publice
ualet
simplum
ungeuuando
mulierem
##muate
somn
chiesenne
disciplinae
regnare
regnvm
innocens
litere
evangelio
##holan
nefas
ofono
nuptiis
ordines
comparatio
persecutionis
otmuati
aldres
fiundun
fluctus
fluctibus
relatiue
suigeta
selida
absoluta
diapente
monachi
regulam
prudentia
defecit
suazo
gehiezze
seniores
pulchra
adnuntiabit
implere
cythar
uoluptatem
finfzug
abscondita
bechenneda
ordena
celestium
neuuerden
arfullit
iniuria
currere
mortalitatis
personarum
ladota
persequentibus
uernim
affectio
dilexisti
corruptionem
uuenegheit
episcop
iehendo
ſculdi
permanet
oratorio
eldibarn
captiuitate
irknatin
hluttru
miracula
miraculis
flammis
kesezzit
inferno
declaratiua
##fluht
guodan
flode
uƀil
gisprac
pecheret
prophetia
uindictam
araughit
geeiscot
persev
euenire
odeuuano
infernum
auster
ferlies
indiuidua
improbis
statigi
omnipotens
gehuuilic
specierum
quimu
spernit
heleand
emendaverit
expetenda
crucifixus
witzo
inzundet
supras
irfulle
catholic
catholica
cathegoriis
scowot
adversus
intellexerunt
kenada
furður
capitula
logna
riaf
saduceorum
unicuique
eterne
subiectiua
chiscriban
sepulchrum
vineam
firnamun
githiuto
triangulum
hebbean
tympan
instrumentum
sloz
uestigia
oðrumu
irsluagi
heithaftono
fiducia
mammon
gehennam
calumni
diaboli
scarioth
gebreste
wirđriun
tranquill
ivdicivm
hymnum
iordane
ſehs
israel
firiuuit
callias
nathanahel
quadraginsimae
siquidem
requiem
heritogo
notthur
adipisci
mundburd
17
ahti
bem
bod
buit
bita
bros
baga
buni
cro
centes
coti
cunnie
dent
dang
dann
dentibus
dadun
duuid
eili
eque
edit
elig
eme
eedem
fom
fou
feb
funde
gh
gentem
gilic
hun
hot
hle
hius
hog
hortun
iec
ivs
idit
iura
ibo
ibant
jn
jaro
joseph
kist
kisc
kana
kagen
kouf
lem
liv
lidi
loth
mad
mentibus
nen
oti
pent
pia
pith
piuu
qh
rer
ruot
rete
sene
santi
sono
suue
sungun
tom
tig
tenne
uri
uana
uiderunt
vit
viu
vert
vesti
won
wahs
wak
đer
##loh
##lara
##lust
##uur
##uir
##uetur
##uungan
##cot
##nin
##rid
##rite
##pu
##psum
##preh
##dro
##dru
##dite
##dage
##tot
##hic
##hest
##heri
##hugi
##olih
##mar
##modo
##mannes
##vd
##vtvs
##flih
##festig
##ðo
##wig
##wert
##yll
##οn
##erz
##eralo
##enken
##anenti
##aniam
##inz
##itetur
tha
##esb
##esis
##esare
##ises
##iset
##iserit
inci
inliu
inuuer
inpro
##arot
uuind
uuamm
uuala
##tid
##ticul
##unu
##orht
##orane
##star
##strit
sidon
sizo
##azig
##debat
##lida
##lizen
##liko
quap
##amine
diin
diern
diop
dionis
dilige
undi
ungen
unlium
##urs
##uris
##urun
##urten
##urtit
##urfen
##otta
##eldi
##elingun
##cht
##char
##chus
##chomen
anno
erp
eram
eruue
erchenn
erbes
##alet
##iren
##htit
##htes
##entota
sinc
sinum
sinun
alli
alos
altum
alarum
alaha
nez
nechit
neouuiht
undecim
chin
chena
chidit
chunnen
chunni
##imorum
##imentum
##ositas
##abimur
##ibe
##olv
##olen
##olas
##olta
##olle
##ecundi
##quidi
##utte
deot
deest
dedu
deiec
dederunt
debent
sueg
sulichero
suerte
manens
manendi
##odot
##odos
##odoh
##neti
tuanne
tuenne
tubun
gegn
geein
geoug
mezze
minon
minis
minvs
minimis
##igeru
mites
nonn
##egon
scab
scaden
##edera
irru
irac
irsp
zeiz
diuf
diuinis
##rauit
##rahta
##rahte
duet
duplic
duxerunt
habund
habente
habbiad
uuarđ
uuarliho
abdi
abbi
abesse
##entiis
##rud
##ruader
seld
##ilii
##aco
stor
stro
stri
station
stater
stans
statum
stando
struc
storet
ads
administ
##seo
##selig
uuerent
uuereton
gotheit
spro
spie
spend
splen
deriu
reita
herten
heredit
heristen
herran
herrin
##uoget
iuch
einh
einera
einigan
giƀ
tharft
prout
exar
exivit
unsca
unsalda
sequi
seiten
seuues
##lichota
##fter
escas
autum
##peret
ziphe
dicas
dicendi
dictiones
arre
aruue
arsteig
arloubit
darf
##auc
##aupa
beel
beðe
ferge
fersc
fergon
ubicumque
perdi
quidi
isen
##itata
##tigot
terni
ternarius
quede
##ahtdigen
##zzon
suntring
##issis
##udit
##udun
kea
keuuer
kelim
same
samin
magede
cumi
cumque
lep
lez
lepro
letific
fieret
sunne
##atura
vuelih
gesce
gesaze
##ellis
denche
denique
gisiht
giscu
theon
quidni
##ontes
##ueritis
faceret
facerent
factvs
generum
genimet
genideret
uerl
ueret
uerlaz
bip
##phan
##phent
correp
##endin
##endos
illas
inton
intri
intemper
quamvis
obli
obtin
obanenti
furstuont
furliez
furira
himene
liuget
liudeon
rehtu
solent
solchen
solitus
farc
contenti
amorem
ammir
##essio
orare
ornam
folliu
zuc
simonis
alleem
parare
parentibus
libris
sala
salz
saldo
##onoda
##ucam
##achot
##iscapu
uuilsal
##oubit
nahe
thann
thank
christen
godis
godaro
poscit
filivs
uzenan
merora
thinon
huohe
hart
animos
animarum
regan
regibus
superbum
uuelichiu
uuelichu
misisti
propag
muaz
thurƀun
thurfut
serm
##erni
siten
gebildot
comedit
helliu
iusta
iustitias
notum
notas
actus
gileg
##ebor
##ebet
resist
motibus
quađ
heizest
fuisset
##ithi
pref
umbef
##einta
idola
##ope
geuuerd
geuuehselot
getuont
brie
brunnon
tieuel
flod
floribus
giuuisso
giuualdan
keseh
kesunde
findan
finitum
findist
uuortin
uuortun
infah
infortun
skal
##oneheite
marc
tarana
aliquod
##thu
iuuent
iuuuon
uberteil
modag
possint
dror
druh
peteta
petitionem
##mode
venio
veniam
venisset
uueroda
uuizogon
##unnenne
uuisit
uuisso
uuisota
uuislico
dinges
andrem
##iskon
iunger
iungen
iungest
iungesten
unzuiu
managan
managemo
morð
multus
suoz
suochit
minnoton
semitas
lubr
lucif
mudde
niheina
##eteilet
euuangeli
##elid
celer
betan
betotun
urk
untazs
haur
cursum
corpvs
gifti
gifah
gifliz
menden
naturali
naturalem
naturalis
uuiders
sculdic
zuouuert
zuofluht
sehenne
sehende
negem
gabar
stuola
ahtota
usu
turon
turft
ubelero
ungime
humilis
ruina
ruachon
lazit
##caff
egison
langa
langse
hohan
##elichemo
angul
angest
angulares
steinen
werd
werko
patrum
faciatis
munda
##samot
concor
spracho
decor
decus
ginahid
woraht
predicta
primas
freuton
gangante
beneimet
argente
argentum
arguuilli
potestates
riat
riihh
nominibus
neheines
neheiniu
neheinemo
neheinest
teila
teilet
compositio
giloubon
innot
thiob
becher
alteratio
huuil
eritis
glorios
gidru
iudicandum
micheliu
##ihhit
richo
impletum
altari
altaris
timebo
ingang
selƀun
iacobis
precor
maltes
uuizzago
uuizzumes
commend
commota
commemor
halon
halte
pasch
passus
crucie
himelis
gitellien
senis
nimest
##ordium
neuuesen
skeid
skeinen
frowon
meistun
lauda
agite
daer
sprech
rihten
rihton
rihtest
rihtare
##spel
##spell
##ethon
uenere
ueniet
ueniat
vvu
barun
domos
beginnent
begraben
pild
##lihhiu
##lihhemo
ungez
githanc
kehiez
uurta
tribet
marien
excit
apparet
boio
doctores
##kian
uuinist
uuinter
uuinden
signorum
signif
audierit
audiendi
fundasti
##onias
gester
oct
breu
breuis
breiten
effug
giruor
giredo
fehten
priores
##azzi
ictu
burgilun
armis
insol
insult
gnado
transg
ostende
sazton
saztost
##retis
muost
muozzin
liutet
remitt
iuuuera
sanitatem
uanitate
bifiang
beatos
coqu
kelougen
ubique
quantitatem
uuntr
uidebit
scriban
scribis
scribun
scribent
uult
pauci
##lakan
script
vocat
vocari
vocabitur
graf
gihorda
euuiges
euuigun
holdon
leiten
fortunas
pharisein
letentur
letitiam
argumentorum
dancho
inphang
inphahent
inphienge
galileae
dignum
dignitatis
dolus
dolore
festina
sprichu
halten
eigan
eigut
flieg
fliuh
flize
fliehen
stimnu
propositionibus
propositionum
colles
sperauit
simulac
gehori
##liusit
##turus
##turam
intelleguntur
inimicum
uuidon
bibit
mareon
putes
anderesuu
bethaniam
ascun
hinauf
demonium
loquuntur
loquentur
tumb
almahtdigen
indefin
ketru
virum
oðran
plurima
plurimis
contrarias
lectio
leczun
cuninges
servo
accipe
ambahtes
forderora
antlingenti
geloubent
dormit
wanana
##egenot
auditum
trinkan
trinkit
##erosto
sextam
sundigo
sundiono
ringent
ult
##ringe
stiga
stigan
gezelt
infirmata
significatiua
cecum
kenomen
kenuoge
tunche
manifeste
snel
snell
syllogismorum
kedan
puero
pudic
cogitauerunt
judeon
refert
socrate
gigara
liberabit
liberauit
##altigiz
credite
vvuof
ciues
diligunt
tagalihhin
patiantur
patientie
uuederiz
particularis
missilih
svo
striten
almahtige
##wart
philosophorum
uicibus
respondere
dives
divers
desiderant
zimig
conuenire
ducere
biscop
gistuont
kumid
odor
kauuerdo
##edele
leibe
sanguinum
dunchen
biginnan
zeigon
zeigont
redion
rediun
redihaft
probitas
temptationem
interrogabant
fallen
achusti
iurat
uestrum
exaltat
exaltare
uuista
felis
ether
meinta
exaudisti
foenum
gioff
purp
chlago
venientes
venientem
##ofun
incipiens
convert
deserta
confessus
festenon
lougenen
premio
eliach
fatera
rationalis
stadi
iniustum
iniustus
sceidet
irburet
forlazan
sponsi
dulci
iteuuizz
stiag
##vlvs
erfullit
intrare
intrinsecus
buohh
gitanu
druag
golt
zelit
tholode
reliquit
drutth
##quisiui
hazzeta
ziteilit
seruorum
credidit
netru
introivit
secundam
lukken
matri
mathe
tanquam
revert
laborat
theganon
inuenit
singularia
mammendi
gedanchen
eddo
slið
aristot
catone
catoni
karitas
tinero
disputatio
uureðaro
pegagen
peginnet
giscrip
hornen
horngib
doctrinam
lxv
irgangen
praev
praecepit
tollere
##half
xxxv
benign
fareuua
etelicha
eteliches
antuuurte
circulo
nulli
ovibus
somni
stemna
patriarch
olei
preposit
drinkan
innocentes
ahon
ahsel
ullum
##ahhun
gesiðun
fulgur
adelien
censes
lihhamin
renou
renunti
sambaz
repugnantia
kihaltan
meld
uuissin
sceinda
einluzze
perhibent
obliti
mortali
fordero
biwankon
frewida
sacrificia
ramet
uoben
##ƀiuuard
medicus
harmes
sufficientia
biutan
uundron
behuotet
campi
spahida
mittilgartes
wega
##ſſcon
conscientiam
kescah
predicatiuo
officio
huotet
conpunc
libertatem
tiefeles
tuulif
solliciti
sollicitus
comprehendit
titulus
scandala
aduentum
dilectio
garauu
pallas
pittemes
viderit
##uuelon
eneas
estimas
vuelichiu
possessionem
supplicio
coniuncta
splendore
hiuuiski
redemptionem
personas
lerton
lertost
chlein
dedicatiuum
uernomen
kiqhuetan
inquies
corruptio
oboedientia
furlazan
gifiangi
bredigon
criminis
hafta
hafte
stridor
laqueo
biscofa
sprihhu
##icualtigiz
abundantia
rehtiu
perpetuum
conversus
knoto
analiutes
subsann
amaric
firstand
managfalten
coher
gehileiche
uindicta
ferebatur
fellun
ymnum
ereda
erslagen
coniectura
perfect
triuget
humanam
uniuoca
uiuifica
cyllenio
crucifige
femina
lachan
zihen
##liihhin
analit
chicche
prohibet
ferslindet
antreitida
antreitidu
sacramenta
occasum
lastar
cheis
mancunnies
ferliesen
cornua
uuolchenen
praepar
verborum
retributionem
cnoto
fisgo
gruoba
vsque
uuingar
ergezen
unsculdig
intuitum
intuitus
idonea
loquebatur
christianos
paulolum
alemahtige
universam
aƀand
brahti
weinon
suachit
stellas
recordatus
emendationem
craftigost
iegelichemo
ueteres
vadit
westin
nebechenn
genesi
celebr
vvuntar
heƀanriki
biscowon
elilenti
litteras
fadar
pudore
chiliih
peruenire
furðor
crederetur
incorrup
eruuirdig
ancille
exprobr
exprobra
gesezzen
consuetudinem
manigfalte
hluduig
tractatur
natiuitatis
irrafs
jesum
vzer
soðlico
geoffen
magdal
barabban
##skepie
wisduames
dulcedinem
pugill
paganis
vespera
miteuuiste
perturb
gisezzit
discumb
gestozzen
uincula
##mannon
##ropter
mezzu
bezeichenn
urstendi
umbiring
poculum
##ambul
scazzes
subalternum
phoebo
githanko
inpossibili
uulcanus
lavdate
periermeniis
venturus
deoheiti
iusticie
disciplinis
##athemati
bicubitum
zizania
inration
aningeralo
chanaan
foruzan
augustinus
amplivs
sprungez
pifolahan
gediemuotet
exacerb
elimosinam
nasci
biwarb
oraturio
consignificat
hieremiam
aliquotiens
lichezera
singillatim
mundboro
suprascrip
duuidaro
quapropter
gegnungo
giruorit
ada
aest
arom
bell
blo
bisk
birit
bella
care
centur
cvi
ceper
crehto
dal
dabat
dabis
eh
eer
eici
ehti
eloquiis
fum
fic
fana
feng
fotun
fahe
fahan
gam
gia
gens
gorn
gige
hr
hio
hvm
hald
hunda
hros
homer
hrio
hengen
henge
hizel
ij
idi
iiht
ilico
iaren
iagon
jare
kec
kach
kange
lot
labo
litus
lides
lident
muh
morum
mesta
melle
milium
nides
nationibus
og
ouer
odan
pv
piu
pant
pone
pale
pign
rut
ric
rac
rint
rata
rif
rose
rarta
rahh
sante
tanta
tuue
tinn
treg
tileg
uro
uag
uac
urist
uisc
uane
uzze
uaren
uesta
ueste
uarent
uibr
vers
wiu
wie
wach
wunn
wisi
yper
zest
zug
zuge
zodi
zuhti
°a
##lahte
##uah
##uomo
##cti
##cili
##iur
##iest
##nod
##rang
##rono
##rita
##ratum
##rici
##roten
##ressi
##eon
##eam
##eatur
##eze
##ezen
##benti
##beta
##pr
##par
##posit
##pula
##pfet
##gia
##dens
##san
##son
##suo
##tane
##his
##homin
##hida
##hhan
##kar
##kot
##kos
##kere
##kanne
##kii
##kuning
##zog
##zuc
##zunga
##zehen
##menne
##mata
##vimus
##vtor
##ſton
##fro
##fre
##xere
##ðit
##ƀad
##wi
##wan
##wun
##đan
##erg
##enc
##anim
##inisc
##itere
thag
##isum
##istig
inte
insc
induc
inbr
inprob
initium
##arne
##arra
##arbe
uuihte
uuuotig
uuohs
uuedar
##tiun
##tidem
##umbe
##undig
##unste
##oras
##orab
##orio
##usi
##atro
sioh
sile
sipp
sihte
sizit
sidera
##azit
##liut
##liute
querunt
quath
quuat
querebant
##amf
##amenta
dion
dich
dige
dirip
dierna
unir
unra
uning
unse
undo
unitate
unende
unxit
unfer
unnot
unruo
unuuerd
##urit
##urchet
##urfun
##elde
##elta
etth
ettha
##cham
##chom
##chene
##chlicho
anar
erri
eruc
ereron
erðe
erhafte
##dim
##dianum
##ilti
##entemu
sohte
solicha
##uul
##uuih
##uuig
##uuui
sinon
sinagog
albi
alatum
altiu
albo
istam
##iuz
neu
neimo
neonaldre
##omis
chile
cheren
chestig
cherta
chauf
##osti
##abimini
##ibo
##ohan
##ularum
##olg
##olge
##antum
##ectionem
##ectibus
##quala
siechen
deduxit
##atiu
##atior
##atiui
##atiuam
suel
suari
suahta
suona
manoda
##ahchot
enum
eniz
##ref
##reif
fonte
fontem
gede
gelichi
geƀen
nich
niazan
minores
##igiu
##igas
##igeng
heine
heina
helig
heidin
mitta
scl
scuh
sciam
scith
sciv
scoz
scado
conte
iruuer
irskein
##estem
zeih
##tea
##raht
duorum
duont
duemes
habin
habui
uuaro
uuarist
uuarba
uuarmi
##lean
abende
abgr
abhomin
##ruit
##ruag
##iliu
##ilide
##ilikes
stang
stante
stabit
stentit
stabilis
adest
aduoc
##ingere
uuerah
uuereta
uuerko
uuerfen
##ugo
gotheite
forc
forđ
forlet
spur
spot
spere
sparo
spei
spenit
##derat
##riam
##riel
##richet
sinthes
reit
reuel
##uodi
##uocher
uuana
uuandun
iub
iube
iudon
einiga
giung
gienge
##ocan
probus
proser
prolix
prostern
extim
exha
unsu
unsa
sezzi
seola
seorsum
##lichemu
tef
tehein
mihilo
uuirth
##perent
zier
ziero
dicet
dicerent
##heoda
arz
arus
arca
archa
arster
arstig
desa
desol
desinit
darinne
##ensiones
sihuuaz
beata
beche
beheftet
##ostin
feria
ferle
ferri
feraht
ferrost
fertan
ferhol
perl
pertim
pertul
peribit
præ
prandi
preno
dinem
dominabitur
##ationibvs
##ichot
##tigia
##undus
##undam
##orto
##orten
##ciores
##ahtot
mira
##ffin
##zzelingun
##issun
kebi
keqhuetan
keauc
sami
samno
samelich
samuel
magu
lewes
fiere
fiert
fiðan
sunn
##aturus
gesunt
gesagen
gesahe
gesiehet
gesazta
gesundot
gescaffen
frisk
freson
denuo
denchent
denchenne
trane
trago
trahit
truuu
trigin
aliarum
##eraſ
dienot
gisal
gistil
giselit
##alii
##aligen
anders
anderlichi
theh
quiddam
##ontem
##ontero
##ennu
##uerem
facundi
genius
geniuu
genoto
genesen
sedit
sedentem
uernum
biet
##phes
corone
coroll
corrog
##andas
##endorum
##enditur
##inaſ
intuuer
intlaz
quamdiu
obst
furuuer
furstant
fursta
##kead
##antius
himo
liub
liudon
dirige
rehtor
rehtungu
rehtnussi
solen
sollem
subl
subau
subter
subito
fars
farm
faruu
fargi
farames
farise
contro
contrit
amare
amicus
orig
orbe
folgo
follen
foldu
zuht
simone
simla
simphon
allelih
allelichen
parc
paruo
partic
saluus
salmin
sagitte
##isco
##iscon
##iscram
uuilo
uuillin
heilet
heilago
heilegin
heilogo
securus
geron
gerat
gerta
gereta
gerecchet
##gena
susce
##intet
peit
posui
antse
antuuar
anttat
antthat
##rahti
bonvs
filiam
waren
meror
meritorum
##izzan
thinum
huoh
huemu
huarf
hujus
haret
uueset
uuesendo
regin
regitur
superum
superven
consim
consens
plag
gihet
gihugi
gihaltan
uuolc
uuolla
uuoltist
uuein
uelit
##ertin
muðu
thuro
##iengin
siton
sitim
sittien
gebir
gebro
gebre
gebod
gebenne
gebende
gebete
geborgen
iussa
potu
potuerunt
gehien
gehuge
gehillet
actum
##lozen
gilum
##ebitur
dixeris
##uuarf
##aftiu
topicis
sanctu
heizi
heizint
heizmuoti
##sca
##sconi
templa
fuoro
##liuti
deific
##ugende
durum
idisi
geuue
geuuin
geuuiehten
gethu
brust
flug
fluit
flore
##giangi
thiadi
wirken
giuuon
giuuentit
kesaz
kesamen
kespan
geleg
geldan
finster
finuiu
finftun
uuerdin
infeli
infangen
infieng
glau
glauu
skimon
marit
aliqui
phis
iudeus
##cheite
peton
uuizun
uuizagen
elel
elcor
ecco
andra
andran
nemaht
nemahta
nemugin
hord
horti
horas
horre
horsamii
unzalah
##elech
giwan
morn
mora
mortific
suoche
suocho
gimelta
minnos
semet
nostrorum
spiritalem
loqvit
quemque
unrehtaro
legen
legita
slogun
urag
urheiz
##ullen
##uuertig
caeli
curs
curare
curavit
reddit
redino
gifast
menes
menigin
heilic
naturis
naturlih
sculin
crefte
credis
credamus
affect
afflu
affectum
uuurðun
sehenten
muoto
##ritus
gabut
gabriel
studium
stuzzelingun
salidon
substantias
substantiae
turbis
ubelmo
ungir
ungilih
ungloub
peccare
liobes
ruaf
ruoder
rubro
##aneem
lazo
lazze
miserum
miserie
neske
langan
hohe
hohun
ougo
angila
steit
incess
incerta
recchen
ambros
uolati
facientes
muneribus
concilium
lichi
sprachen
##issimorum
mannoliches
decore
ginoman
ginado
worahtun
predicata
predicatione
predicationibus
primam
blinde
nahto
gangente
beneimeda
statu
argenti
operuit
operatus
riwet
circu
necessitatibus
singenten
neheinero
teilen
teilta
chriech
praua
becherta
##allon
##allum
##allot
iudica
demum
##tilit
ecclesiis
longin
##abitvr
tenere
##otean
impet
duohta
machoe
personis
respondeat
bergen
beresb
##idici
timentes
timuit
timuerunt
##ituper
ingress
ingagene
qualm
bispra
presentis
iacet
##itudines
uuizzit
uuizzanti
##untilih
commut
halbe
halden
##atori
psalmom
christiane
christiano
vides
gefaren
bruti
neuuan
neuuehsel
skeinet
fuorin
veritas
frou
frouui
uoci
meisten
meistra
laude
laudibus
saligun
agro
agri
agale
mahtiges
zesuun
##ittat
spreuit
affirmare
uuihan
uuihes
frume
mugent
occult
uenust
ueniunt
fueris
chomeniu
geista
geistlicho
adiec
adici
beginnen
begihe
ungefl
keuuehselot
githank
sizzente
sizzenten
kehaltan
liet
uurd
tribun
bok
bouhn
honang
sapere
brahte
sahi
repl
repente
repreh
lerest
milit
##escens
uuinst
audient
##damnot
gestant
frageton
fragodun
friund
friuntilih
latan
bred
breost
euentum
euentu
effrem
giriht
feiz
hantuuer
principum
insu
insula
strang
streng
birumes
vestros
gnad
eternvm
eternitate
ostana
sazi
liohtfaz
muoti
muozze
muosta
laborem
##manoth
bifil
laur
bitharf
coer
coac
coerc
coeper
##olia
geduu
gedang
wizo
helfe
helfen
ligna
irfulta
uideat
paucos
scripsit
##peti
gihoret
gihorent
gihorente
uiis
burgo
proueh
holt
zellenne
micheles
starh
iacobi
dispar
dispos
equum
equitate
pharisae
passionibus
letitie
angelum
saep
losest
galileæ
aurora
dolum
doloris
uuerltlichen
luter
lutun
licke
liceat
festucam
spricho
sprikid
ponat
habitac
habitatio
peccatvm
freuuo
flieh
linguas
propositionem
propositionis
colores
sperauerunt
accidit
uuazzare
uuazzeres
retrog
leidor
uuideruuartiga
ebens
fulli
expl
expecta
calu
calc
calciam
intellegere
intellegentie
aquatile
bibere
lebenne
azs
azin
azun
diurlico
fierti
fierdo
fiertein
perfecisti
perfectionem
uisu
quosdam
sterro
mensca
mensuram
poum
loquar
loquatur
musis
palli
mittam
mittere
syllaba
keman
disson
sentu
sequatur
sequentibus
lectionem
laudabunt
servare
casibus
triuuua
uuillie
ambahten
uniuersalem
bringan
testimoniis
heten
fersiehet
iungirun
maiore
maiori
##altida
heizzen
bezto
sundia
engilun
indisc
indust
geziug
ordinis
guollichont
significant
significare
significatio
bihi
bihalt
cecos
cecidit
kenuhtsam
diluc
##uuorfan
clamor
tunicam
manifesta
lacum
soliha
iruuindet
balg
balo
kedingo
puella
puluerem
ferluren
cogitationibus
gedinge
gedingen
juda
judeono
##fex
hebigaz
abrahame
crem
gigange
##affan
mennischo
oportuit
##ðeon
credentes
credentium
ciuitatis
ratissun
enigumu
antfang
uniuersalia
bidan
uinstri
sconaz
sconiu
grecia
tougeniu
luzzil
particulares
materiam
nidarstig
svb
svvm
almahtigun
custodiat
canes
glouben
congregati
siður
##haftot
diffinitione
mutatio
mutabil
uictim
uuonent
unfeste
heiminges
uuartet
wesen
desideria
giscribe
augun
augusto
amput
faciemvs
figure
kumit
anaside
treso
dhese
uuahsan
hospit
odmodi
novissimi
tribulant
sufficit
geuallet
resurrectio
conspectum
simplicitate
simplicitatem
plenus
plenam
plenitudinem
temptationibus
interrogaverunt
malig
unmahti
invenerit
invenietis
iuridici
calidum
frawa
qhuad
instar
uuehselot
feld
hulpere
vias
signo
conditor
conditio
oppositiones
aperire
civitates
chlag
magistri
turbatus
martyribus
gruazta
geuualtes
thiodan
confessionis
opinionem
portun
##rank
##werto
exultent
exultabo
alienigene
uirgilius
fatalis
giliche
ivst
sceff
forlazz
forlaznessi
uuerodheoda
moyseses
zegan
##pfit
iuuares
lugge
luggi
treuua
tholoian
diuersum
uuerthunt
reliquis
tantummodo
abscondi
nidere
sibene
nescimus
kasc
steterunt
saturnus
toufta
sezzest
folgodun
rhetoricam
nerr
nerita
nerien
neriendo
##artet
suscipit
kibo
exaudiet
bluat
bluod
iugum
heiligemo
singulas
singularibus
kisaz
continuum
querentes
irdrie
proxima
preceptis
chosont
suerton
priuator
kirihti
rogabant
irlegen
giloƀo
sculdigon
voluntate
souuieo
tragent
praecepta
deprecationis
delectatio
culmina
sleht
slehto
tollite
diuinitas
iudaei
consules
demonstrat
benomen
uetus
uetust
thritig
etelichen
megine
meginc
adorabunt
publica
publicani
crast
molesti
nullius
santos
uigilia
silentium
imperium
salvum
salvvm
##riuuue
hereditas
hereditatis
gihalot
gicos
hreop
hreuuan
##amees
disperg
rikeo
rikeost
innocentia
excelsum
excelsi
bittet
explicare
farlatan
grimm
speciei
multipliciter
iudæis
iudæorum
lindo
renitebat
frigidum
planetas
uuissun
##rucchet
einluzzen
perhibetur
recipiunt
arbeitent
zuiuelon
##emees
antuurtenti
fabric
lihamin
tulgo
tecum
solid
geuuaro
fernumist
antkendun
reddere
cedar
cedri
kundta
rament
uobet
erhauen
arbores
arborem
ferchos
ornatus
sufficientiam
absolutum
lisist
uitulum
indigentiam
gebezz
regener
modii
dimittet
uideretur
debere
manegero
auferetur
loufet
pisces
##nosles
chiruni
deficiant
dubitari
arstentit
gramati
gramdon
conscientie
muase
muases
flagr
predicatiuus
pulchrum
pulchritud
heƀencuninge
fogela
obsec
increpatione
keloubet
dextere
uoluptatibus
uariis
inopin
suohh
suohhet
suohhit
beuuendet
descendunt
lacrimarum
titvli
stoici
fergib
cuðian
relinquetur
funs
guoda
guotiu
kleino
tatut
videret
##iuoca
neuuerde
exteri
possessio
possessione
inuentio
hungerge
supplicia
lirnen
narrabo
missetate
delictum
minnoda
splendor
fratre
hiuuiskes
attrib
creature
creaturis
kedingi
figuram
qhuedenti
gileitit
gastseli
iahuethar
radiis
diuturni
permut
giburita
hucusque
liðan
irchomen
disciplinatum
efficit
iehenne
kitan
ſculd
sichor
##altera
furhtendo
ummaht
gehaltet
captiuitatem
maximam
kehoret
laqueum
laqueos
folleglih
irknati
robur
robore
##folc
##folle
suorg
suadere
imbecill
zehenzug
perpetua
gisamanot
folgendo
huivs
uberuuinden
conditionali
knuoge
pagina
chanst
fortitudinem
existere
farlazz
contristatus
pezera
begagenen
liazun
brachio
praesump
ſcillinga
hapet
gesezzene
gisprak
amicos
pezzera
responsio
ewarto
pectore
geheizent
copulantur
gareuuo
forstilit
intentione
gelougen
clausula
undurftes
bruodera
ioner
pereat
wihi
unstate
ungiw
unmanigen
unmanige
gesehenne
serpentes
gilaubis
gilaubu
horouue
praeposit
besuochet
virtutem
myr
triplex
##sanges
thusunta
spatium
geslaht
salomone
salomonis
dursteg
andaremo
loquebantur
rikies
hereticos
auctoritate
inmortalitatem
universa
oliv
sinistra
sinistram
theheinig
firdruag
interficere
adiunctis
ostenditur
iruueleta
riof
quatern
neptun
chiforab
scerm
triegent
fargeƀan
athenis
stricche
nocturnis
heƀanuu
arietes
gadul
iumenta
linea
debeat
enfald
geometria
scrod
irminthi
percep
terribilis
ruarti
incredul
uulnera
susceptibili
ualidi
uestimentum
uuapnes
adsump
gideda
dođe
consortio
consuetudine
miskel
ungerno
uocabulum
persecutores
persecutoribus
cacumen
jesu
triumph
##iculam
habebitis
magdalen
gesuasen
pretiosa
morgene
sacrileg
adeptione
lybani
biderbi
flesk
kichuetan
deheine
deheina
irritauerunt
frenkis
ammahte
ahtetein
rubrum
bigraban
inconuen
bechnata
lutreiste
frahon
trunchen
itinere
gifehon
negesk
brutigomo
opponuntur
slief
approbatio
mysterium
butan
uareuua
°quoniam
inlumin
diametrum
chilaub
prodigia
ferlougen
##ichellichot
theotisce
genemmet
gibiete
sagittas
##scaðon
aliquantulum
thiorna
uolucres
ginathi
posteriora
emendare
uuntar
bilosien
haubitgelt
agenda
calefac
lodhuu
rincos
flamma
werlt
frequenter
gizimbr
vvuostinnu
pegriffen
hluttran
fundauit
neutrum
##abvntvr
nidiri
ferrenan
intueri
obtulerunt
athl
muatwillon
astronomia
exercituum
praeceptum
complectitur
geginwerti
ezechi
hludo
sesqu
ſpikare
manasses
abimelech
lucifer
cuateem
gitriuuui
unmahtlih
reverentia
firnfollun
qhue
rervm
wakar
diligebat
abbiko
arrekit
beðea
celeritate
coquina
ultro
horngibruader
sambazdag
magdalene
homerus
idipsum
ettho
scivnt
triginta
sanctuarium
loqvitvr
chiforabodot
28
aua
azi
acher
bic
bou
bari
beta
bine
bern
blig
biden
bande
batin
babil
benim
cing
ccc
cuc
comen
cibi
cram
ceter
ceres
dv
dog
datus
drog
eiter
equi
emez
elichor
eonaldre
eiuer
fv
fy
foh
feg
file
fint
fangen
fasc
fihu
frehten
gomo
gala
giste
ghel
huit
hete
hando
hren
hind
hosc
ili
ied
ile
iuo
iare
iba
iares
iieho
iugende
kad
kiz
keris
kangen
kagan
kiri
lite
lanc
lono
landa
lares
ladot
loter
mas
mant
mosta
mvl
mendent
mathemati
nis
nod
nvm
nata
nele
nennent
pf
pæ
pell
pont
penne
pena
poli
rau
rast
rip
rinit
renit
ross
razi
sest
suuer
sordi
sendest
tus
tel
tante
toni
tahta
tendere
tvnc
taneos
use
uora
uenter
uituper
viti
verit
vilo
vilic
wati
wine
wege
wunni
wedar
zw
zin
zal
zib
zuua
zungon
zundet
##lagan
##laga
##uare
##uarum
##uben
##uhta
##uungen
##corum
##cibus
##ienne
##ientia
##ierit
##ientibus
##iora
##iale
##iose
##nid
##nig
##nitas
##nitatis
##nungo
##niten
##rar
##rad
##ront
##rata
##rica
##eis
##eig
##exit
##bs
##bah
##biges
##pil
##pia
##pina
##preit
##gum
##gil
##gra
##denti
##sah
##samen
##qhuu
##tag
##tati
##tere
##tari
##trah
##hoh
##kir
##kerit
##kken
##zist
##zare
##mam
##mite
##mvs
##mine
##mizen
##miad
##mentorum
##vlo
##vitate
##vatis
##vla
##fart
##ðiun
##ƀodun
##đar
##erne
##erius
##erare
##eratur
##eratis
##enke
##endig
##iniu
##inemo
##inte
##ong
##ond
##oner
##onen
##onta
##itta
##itarum
thien
thron
##esot
inh
ink
inuit
innum
inqui
indum
inchit
##arp
##arg
##artes
uuu
uuun
uuac
uuate
uuita
uuith
uuone
uuunn
uuichen
uueter
uuvr
uualten
uualde
uuunnon
uuunnesam
uuundero
##tii
##tilig
##umb
##umft
##umfte
##umbr
##emin
##oru
##orre
##orius
##orodo
##orahta
##atul
##atvr
##stuole
##lihe
##ligen
##likes
quist
quest
quac
quue
qualem
##amenti
##amentis
diob
diadem
direxit
didimus
une
unbe
unhe
unigen
unhor
nanta
##urin
##ursus
##urfi
##urƀun
##otem
##otos
##elan
##chre
##chera
##chenten
##chedon
anđ
anch
anagen
erð
eret
erig
erchen
erlicho
erlon
eroda
erhaft
erðun
erƀiuuard
##diad
##alitate
##alnesse
##irre
##htlico
##ilte
solichen
soliche
soliches
##uuero
##uuare
##uuenne
##uuuen
sinde
sinite
sinlif
sinagogis
##rod
##rodo
##roque
alc
als
alang
alba
aldon
alath
##idom
##iut
##iudic
neche
##ommo
##omuat
cho
chort
chuit
choron
choso
cherent
chonda
chihe
chinemnit
charch
cherton
##osos
##abel
##ibilia
##iehen
##iebam
##ulam
##ulare
##olt
##olus
##quetan
sieho
##utti
##utun
deu
ded
dez
dedic
deesse
defer
debitum
defix
##atiuis
##unto
##ister
suin
suana
suez
suinen
suohet
supere
sulik
manac
manota
maneat
##aho
ener
engi
##rehtin
estote
tuem
tuat
tueho
gege
geisc
geze
gelicha
georto
meon
meira
nia
niumon
nioner
##iadis
##igu
##igfalt
heite
heinen
##ices
##icere
##icio
##icii
##icae
##iculis
mitis
scil
scap
scach
scade
sceine
scibilis
sciebat
scept
scilt
coniu
conbur
##edis
##edus
##adab
irron
##izs
##izus
##eston
zeb
zeinot
zeihan
##tez
diuiti
diuino
diuinum
duala
duxit
dubium
haberet
uuarera
uuaroro
abl
abbo
abbat
abstin
##entii
selit
selten
##ilie
##ilibet
##ilichun
##aca
##aces
##acem
stol
stanne
stoub
stabant
stulti
stabilem
standan
stabili
addit
addatur
##ingan
uuerbent
uuerpen
##uget
##ominus
foret
forth
forstant
forstantet
span
sport
spile
spinis
derre
##deron
##derent
##rik
##rius
##riani
##riuua
reb
reus
reini
heris
hereren
herscaft
herskefte
##uoda
##uogen
##uozen
##uoche
##uochet
##uohta
uuanis
uuanum
einich
einmuotig
gidi
gientot
tharmit
prouer
prouis
probat
prodest
exor
existis
exvl
exinan
exquir
exordium
exquisiui
unsp
unsundig
allumu
sez
##fton
esca
nuzz
therru
uuirk
uuirten
uuirfet
ziere
selbaz
dicetur
dicenda
dicchi
##hedi
##angana
ares
arde
armo
aridam
desit
desist
deserit
##aup
##aueris
##aubu
bew
beda
beinen
beker
ferus
ferid
ferten
ferbr
ferlie
ferborgen
utroque
persc
perme
peruig
perdur
perven
permix
perneti
perpeti
prennet
dinc
dineru
dominico
##ichent
##tigan
##undono
queð
queli
##cii
##ciis
mirum
mirific
##ffent
##teru
##tera
##teres
##lihen
##lihcho
sunte
sunto
suntota
sunthaften
##issen
##issida
keun
keba
keeisc
kekeban
samuh
samnon
magan
magin
cumad
lei
leh
leua
ledien
leimon
sunti
vuen
vuilli
gesund
gesiht
gesihtig
gesceiden
##ellu
##ellant
fran
frides
fronte
denarios
##alton
trid
tranc
trinc
tradon
aliunde
gisat
gisunt
gisaget
gisageta
anderhalb
theſ
theolog
disan
diske
disrup
##ontemo
hielt
vnte
genu
genui
genade
genemen
genadet
sedis
sedle
seduc
ueras
uerius
uersc
uerber
uertice
uerecundi
##ehant
##phi
namohaft
cordi
correc
##andes
##andos
##endentes
intse
intendit
quamquam
obu
obaz
furen
furst
furore
furstantet
sumen
sumit
sumes
summe
sumpti
##keas
##licet
umber
umbr
liudo
liubi
solam
soluere
solchero
subire
faro
farah
farente
fartes
farstant
farnam
faruuir
anada
anawart
continet
amat
amiss
amnis
amicis
amminist
gibir
gibili
giboti
giburt
##esset
org
orbi
oratoris
##chenet
##chenot
folk
folgon
folches
##ancta
simph
parum
parat
paras
parere
parac
parasti
libero
libid
libbe
librum
liberis
libros
libhafte
libbien
sagin
sagem
sagata
uuillig
uuilla
heilagon
secreta
nahi
nahen
nahit
thane
thanke
thankes
guon
guaten
godon
godoro
posc
antd
antsc
antlu
grunni
griscram
gratul
bonitatem
bonitatis
filla
filivm
warf
warer
uzg
dhih
dhri
merita
hared
harund
uuesanne
animus
animalibus
animabus
regatur
regiones
consess
conspe
pla
pluit
pluate
gihore
uuolf
uuolcan
uueid
uueida
uueisen
themmo
##ideo
propos
muſ
muazz
thuruht
seres
series
##ernum
sitig
sitota
gebo
gebute
gebunden
comper
helen
heltit
helpan
hellie
helogo
iuste
noto
noten
notnum
poto
potus
gehelle
actio
##averitis
giladot
gilobot
##ebes
##ebar
resp
ipsas
aftera
uuorfen
mov
moli
sarc
##scat
##scut
##scap
##scaff
##itasti
tempta
fira
firih
firmi
firdamnot
fuir
fuara
##liui
guotliihhin
duron
durfti
duruft
##ithic
preb
##opot
##quamun
geuuitun
geuuadi
geuuinne
getrost
uiro
uiros
breste
brunno
miđ
miðan
fluh
wirth
giuuor
giuuihit
kespra
kesiune
kescriban
gelonot
##arnon
finiti
finuen
maledi
uuerdet
uuerdest
uuerdhan
uuerdhant
uuortes
quoad
quolibet
quousque
infahet
trucchen
skine
##culis
##culdet
marm
marth
margar
tarot
##thor
iuuh
iuueren
##aldet
phys
drank
##rump
venisti
uuizumes
##tende
electi
ellend
electis
elong
##unnu
uuisaro
thiodun
andaru
##endez
neminem
nemuge
iungar
managaz
managaro
##innanne
intermin
giwar
giwara
morti
moram
morbi
morbo
moriem
moriatur
confrac
suochenne
suochendo
##atumes
minnero
minnotun
semfte
nostrarum
afteren
ludo
##iðig
lougn
##engit
euuan
nodi
legi
legantur
legitun
celestem
slahent
betara
betoton
betrogen
urg
urge
urloub
urdru
##ahtigen
##uuerc
##uuerti
uuelf
uuelen
uueles
curiam
reduc
ufstig
gifangan
mense
heiligi
naturale
sculdige
creauit
##stantie
uuurchet
sehanne
studia
lobota
ahtun
ahtoton
ahtodo
ahtotun
ahtungo
ahtaren
ahtonne
ahtoda
ahtonti
usus
locvtvs
cogitatis
scola
substantialiter
turi
turpis
syderum
gemini
gemitus
gemichellichot
unged
ungere
ungisc
humeros
humanis
samenthafti
ruom
rube
nesihet
egit
egrot
egritud
langun
hoher
quedantan
cuðe
steino
##andost
recti
recogn
werchen
ambahti
clav
clarius
uolet
uolgent
maniga
chedint
concv
concili
##ueig
licheta
sprache
sprachi
##issimos
decorem
ginuhti
ginatha
predicando
predicatoribus
blod
bluost
nahton
frechi
##risque
operam
operatur
riuuua
tothe
##endigi
##endimus
singulum
sult
israheli
compedit
composita
thihein
chrut
giloubis
praet
innomin
habeen
bechere
becherent
bechandost
israhelem
postremo
huuemu
gidu
gidrahton
sacrum
iudicaverit
barnon
##renchet
gisahin
gisahut
iniquit
offono
tenet
tenchen
tenui
impius
impiorum
altemo
##oufe
speculo
persuad
beran
berhtun
bergent
##idiam
timent
timens
timoris
timebunt
ingelten
selƀan
selƀoro
qualitati
bisuor
presum
present
presul
presidi
iact
precium
india
uuizzun
##agoge
buos
halm
christianus
himelisken
vidistis
gefangen
senec
neuuas
neuuizen
neuuurte
cristin
skeffe
skepfen
verso
frohan
froste
frosang
##ariae
uocatur
menniscono
usquequa
ager
agrum
agric
dadio
##ittunt
##boume
sprechendo
lieze
uuihi
uuihun
##etharpa
frumeta
frumme
gizaltun
scias
##ificat
occis
occiderunt
ueniam
fueritis
adipe
adivtor
tiuual
barm
domui
##ammen
begondon
##lihhem
ungelichiu
keuualte
githion
sizzit
sizzenti
kehile
liab
liib
uurz
tribe
triben
boe
boſo
honero
honoribus
chomentiu
brahtin
doct
docet
docuit
docebat
sahist
fruot
fruati
repulisti
subiectiuum
hoge
lerti
##recchet
##kiun
##escent
##escebat
engile
audiat
avdi
fundata
##damini
##oniorum
gestuont
fraga
irstantan
latere
latera
ocv
breui
euand
effus
effec
fek
fehe
opprim
opprob
helage
helagan
soror
sorores
sorget
##azzer
##azzit
armun
armero
armuati
armher
armilichun
principem
gnuht
gnadun
gnuhte
##brunnon
eternus
eternitas
transi
ostert
sazzen
liohto
inprim
inposuit
inprud
woroltthi
##ticia
reminisc
invoc
bifel
bifol
bifalah
misericordias
eamus
lakan
bither
coet
constant
constring
wizut
muatu
quantitate
inuestig
ewa
fleha
flehon
galih
ligno
lignum
seggeo
uunnea
uideant
scribere
scribae
folcscepi
nouen
nouissima
uulit
generationis
wihtes
gradi
gihorti
burug
euuigan
euuigemo
euuigheit
gumun
gumscepi
michelero
stark
disposuit
nideret
mannelih
arbeita
leitest
equo
equitatem
patet
fortunarum
letun
letabor
uuiðersa
angelo
danchon
sait
losent
galileal
davides
##eronem
missecher
digni
dignos
dignitatem
intfahet
intfahent
dolores
dolosa
tohop
trohtine
veloc
bithe
lutum
luttil
uuortenen
festo
sprikis
halto
haltent
haltest
tisemo
uiuentes
uuahh
uuahhet
ſeluam
conuerti
conuersi
fliht
stimmu
dimin
gisehemes
ipsivs
lingue
linguis
bechenno
colore
retrah
uuideruuartigo
ebre
ebano
liehtfaz
##turum
besker
besizzent
calam
calaupa
mandatorum
stanten
intellegentiam
intellegitis
uuidhar
mareo
##aheiti
adherere
hirte
lantsce
azimorum
fierdun
prouidentur
##ozet
perfecte
osanna
ossibus
##fiur
sterc
menses
poeti
poetis
poenam
eteuuiu
irhoh
irhauen
loquetur
tump
uuidaruuar
quære
quædenti
panibus
quhoman
mittan
contingat
kerihte
ketuo
memorie
memoriae
disser
dissuas
sequere
sequantur
hellu
lectione
laudabilis
cuninge
iudono
servire
lichamin
hiute
triuuon
accipite
accipiet
accipiant
mariae
ambahtman
cyre
bringe
socer
defendit
dorsum
giueh
giuehen
fersaget
fersagent
maioribus
auditis
ceteros
trinitas
fame
famis
teneatur
tenebr
assist
quomodolibet
sexto
bezero
bezera
bezeren
summis
ringet
ultione
uppe
hafton
circumf
traht
##menon
questionem
questione
quesumus
quesiui
##agetost
gezelte
leoƀ
infirmi
bihuui
video
videbunt
uuenden
ubilan
kenam
dilectus
##uuorpf
clamans
clamabant
portio
tunica
donum
iruuelet
syllogismos
kuninges
consequatur
consequitur
spraka
keden
puell
smal
smahe
saba
uuitan
resurrex
cogitet
gedinget
judici
refertur
guatu
oportun
houbetes
chrefti
lesent
credatis
creduntur
diligis
antfahen
uniuersi
bidun
biddean
cantica
ierem
uinden
uinuiu
##banum
chumftigon
prophetae
pauperis
misses
missid
materie
blið
chuninch
congregationis
##haftero
philosophus
philosophiae
cæs
uorstuont
uicinis
unfar
heiminge
uuarteta
simbles
egypz
egyptus
wese
divid
augur
augom
ductus
fallacia
gistod
kumad
anasiht
formis
formas
uuahsent
odisti
##dirent
mezot
samalih
ideoque
geuallen
absor
infiniti
dunche
alloph
kebre
iuuueren
redimet
probare
profert
fremiden
heƀenes
unmuo
scafo
achus
iuris
iurauit
uestem
scamon
exaltatus
slafet
calicis
fraud
instit
uuehselont
etheri
etheris
manducaverunt
traditionem
mulieres
minnotost
trohten
chlagot
chraftelos
uuercun
process
magistrum
tranen
turbati
humiliat
humiliasti
##namig
considerat
gimeinti
evvu
portare
sprang
exultationis
alieno
uirgam
lougenet
tacitur
uersaget
furhto
elidiu
fatvm
fatue
pleih
iniusti
iniustitias
scef
moysese
leðan
leðaro
iustificare
iustificatus
druo
druagun
iuuaren
iuuaremo
luginen
treuu
treib
zelo
erdagun
diuersis
uuerthan
antuurti
absconderunt
luston
lustin
pueris
nescit
trosta
zitelih
saturno
mirabantur
gibodan
tyri
reuerentiam
introduc
introisset
introibo
suscipiunt
luzzeler
luzzelen
kibest
##othec
heilegan
bluomen
iugu
iugiter
unchus
unchil
chorot
choreton
irwellen
interposita
accepto
sonus
sonat
thorna
antiquis
singulariter
fernimet
kisezz
digito
blinter
conuertere
iudases
ezzanne
irdroz
##icheite
urteildon
constituta
constitutum
aetate
tines
visum
##uueni
exercet
samenot
muozin
muozint
lirun
kefolge
tritici
triticum
giscapu
cesum
cesare
fugit
kirida
surgit
surgant
widarwerto
annunti
elementorum
murmul
murmulo
auertas
mouet
mouetur
moueri
inbecill
uuintar
chiburt
irgaz
deprecatio
delectat
culp
culpis
diuinus
diuinitatis
demonstratiuo
etelichiu
erlau
meginthi
irredo
magnificentia
galgon
mole
narra
##ontein
silabar
salvus
cathed
thiustr
thiustri
uuestun
##urrere
somno
neinf
chiesunga
gegare
stemmu
agni
agnus
gicoran
uxore
uuities
tugedig
grabes
proprii
cupit
excelsa
excelsis
bittra
ullus
ſcap
gesiði
farlat
retributio
evangeliorum
iordanem
lihho
renes
rotund
nigred
nigredo
adversum
peccatori
assumptione
##herro
##ihtigo
deheinen
sceinest
einluz
keheizzen
suntige
suntigon
recipiat
hinderoren
interpretes
interpretari
interpretatum
mihhilu
purgatio
##estozen
gikerit
biwuntan
satanase
fabula
otag
meditabor
ferlazen
ferlazet
ferlazzen
superioris
flumine
reddunt
rihtuomes
cedros
fehes
kalaub
kalauba
uobent
erhuge
ferchoren
liset
uehu
indigent
uualtet
uualtent
bezzer
regenot
monachorum
uundar
uundrun
uuehsale
campan
romanis
rauuet
tristitia
singenne
siehest
imagines
arstantanti
iogelicher
regulari
resurget
auferatur
ignorat
ignorantie
irsterbe
dissimili
kuð
kipot
pirum
##arbigeng
quarti
quarto
chirichun
dubitare
giuuaraht
flagella
accedentes
lougin
aspidum
predicatiui
seniorum
fatir
fogel
huota
kuollich
rector
rectos
inuocabo
medius
isaias
libertate
libertatis
tiefo
increpatio
impleta
impleretur
uoluptates
oriente
tuuala
uarietate
uuamba
duome
hueo
gehugest
confundar
carmine
descendat
certis
rursum
aduentus
ardingun
bechennedo
giuuerðan
gagenuuerte
kahalt
kreftin
pollu
palla
pittames
viderant
tougalnesse
firliazi
monumento
bisgofo
baptismo
eiscot
restitu
siluas
coniunctione
platone
platoni
aduersitatis
radios
nebeg
scirme
fortiter
folgee
muosti
affectionibus
chisendit
chunnig
scouuuonti
oboedientiae
tagoliches
gifrumid
studiis
studiosi
efficere
efficitur
uuenegheite
antuuurto
consummasset
navem
ſculon
sodomorum
keisor
gehaltest
kehorent
uppigheite
fastigia
iesv
suadendo
relicta
relicto
gesprac
gesprachi
sustinui
inferiora
concessa
michilemo
conditionales
declaratiuum
limphit
nuntiaverunt
uasto
immol
farlazzan
pezeren
strazu
zachariam
draconis
floz
floug
huuelihhe
uƀilon
erchomen
forhtu
reinzo
prospexit
gisiunes
equiuoce
araugta
gregis
gregem
nauale
pectora
pectoris
meðmos
diuiditur
durftigen
gladii
uniuoce
xxviii
ascendens
gehuilicumu
aruit
kaboran
lancha
lidenne
zihent
ſiuontein
analutte
gelichet
frammert
farstandan
geloƀon
undurftig
complexione
complexionem
sacramentum
sententiarum
giheilta
cupiditas
eocouuelihera
dialectice
pronuntiatio
bescirm
utilitatis
unstati
##oloian
sulichu
sulicheru
zuifel
guissiu
serpens
urspringe
stupfe
compositis
compositum
dispositione
thesauris
virtutes
gimalenaſ
buohstab
buohstabe
sprehhendi
cnuoge
cavete
larg
##muodi
uuingarten
abyssi
trureg
actuum
idoneorum
geuuorfen
turpia
carcerem
christianorum
pontificis
hereticis
reliquie
eocouuelihheru
concupiscentia
bestiis
hostes
hostis
literis
thulten
albedo
scatue
scattos
prolata
giscefti
intheizza
beneimedo
hoorsamii
fleische
dimittimus
ultimo
iruueleten
candidum
latrones
nunquid
wuast
wuahs
quaternarius
anxia
chifrum
niomanne
niomannen
gesamenoton
fronisg
fargeƀen
atheniens
martianus
slaffe
angustia
vvuntorotun
cathegor
litteris
hierosolimam
ginoza
zuuei
scauuon
ferstan
utrique
uelociter
briostun
giuuortanemo
confitendum
lioƀes
ruartun
nesciat
kindiung
kindilin
ciceronis
iniustitie
iniustitia
kegeben
sadduc
ualeat
unicorn
einfalti
einfalte
exaltauit
gesungener
uerisim
huilicumu
symb
symmach
recessus
ungehuhtig
saeculi
natiuitate
homici
listiun
uenturus
nequando
cherest
mitteru
irhuabun
percipe
##inthioda
skenkeon
gidorstun
transmigr
besuichen
heƀancuninges
participatione
purpurun
mansuetum
festiu
fateor
leddun
uesperam
weltit
##hugdig
suggest
mankunnies
antecedentibus
plindi
kesungener
giweizit
uualdandeo
transiliens
gaudebit
tyrannus
elocutionis
inperfectum
eðili
##cinia
uuahtu
quethan
erbarot
chruci
chrumb
irquic
derelinquas
expeti
expedi
unsundigen
secreto
secretum
thurftigon
aufert
oporteat
oportebat
reconcili
receperunt
barbaris
hugiskeftiun
extrema
adpropinquavit
banton
lasut
oliueti
rafsta
##githaht
debitoribus
sequebatur
keiihte
johannis
johannem
trett
intuuat
gerstina
antvvurt
comederunt
tempestas
semitonium
aspice
beneplacitum
commouebitur
kehucke
gnotesten
hiltibr
ebenmich
indrinnen
apodictica
athanasia
adiuv
azeko
gurgite
natrun
patefac
thultent
altitudinem
alexand
nedarf
zeinta
##acismi
heritogon
heriscaf
gisprochan
corruptib
giholota
munistre
apprehendit
uuinegarten
bethsaida
indulgentiam
pulcherrim
convocatis
inblanden
einluzziu
vigilate
ratiotinatio
latid
##ruuuet
##zebub
inscriptione
uuombo
inthabe
notduruft
idumeam
officiis
gagenuuerten
multiplex
herebirga
niuuuez
trocheus
irbolgeni
siluƀar
septentrion
catenis
klibe
sachun
uuastom
diuerso
excipitur
fierualt
giberehtot
getrunchen
urteili
uuinkarten
discoom
pontifex
tumultus
satyra
cytharedus
notthurft
eiliko
pithius
##festigot
incidi
nezuiu
iracundi
irspeh
giƀiðig
unscade
suntringon
keaugit
sermone
octob
purpure
eliachim
stadiorum
druttheg
nebechennet
exacerbauerunt
neuindest
sueltan
prenotio
fierthic
controuers
originem
particeps
neuuehselont
coerceat
caluaria
fiertich
diluculo
megincraft
crastinum
huivsmodi
oliveti
qhuede
iedoh
kerisit
pænit
quacumque
diadema
alathrati
abbatem
perscrut
thuruhth
usquequaque
opprobrium
ſeluamo
27
ax
aere
adeo
afti
aiunt
azzun
bero
bec
biss
bite
bina
bete
bara
buen
belli
botan
bello
bereht
cin
cati
cah
ceh
crib
camen
cena
cyp
cepit
cella
drib
dani
edic
eber
edom
eizo
funt
fang
fvn
feth
foti
fullit
fohe
fiebant
fusc
federa
fizus
gus
ganne
greht
ginem
gidar
grehte
haht
heth
huote
hame
hesper
hleit
hneg
hundero
ilig
ianus
ibunt
iodoh
jug
kus
kiu
kius
kou
kara
kire
keste
kloub
kuisse
kunnie
loh
lah
lung
laht
leri
lind
luge
ladon
liðo
lahan
lasun
lidin
lector
lahhan
mom
mic
mend
mono
moll
mvn
meter
metis
mostun
milibus
mvndvm
nero
nist
nationes
nazi
nationum
nvnc
oth
oce
ogon
odium
other
ps
pad
pius
pich
plic
piden
poll
pura
pegin
pitet
pestis
puss
pibot
ratis
ritu
rahta
roth
rinnen
sente
sme
senten
saltun
tent
tut
tort
tion
tato
tvi
tisses
tiber
ues
uaz
uati
uif
uini
uex
uellet
uðeon
ve
vf
vur
venti
vitia
vuuo
vitiis
vasa
wemo
wenti
wane
wall
wenan
waltan
wehsal
xpan
xpes
zv
zugen
zele
zete
zelle
zami
zunta
zabul
ædo
ſm
ſin
ſten
ſamn
##lit
##laht
##lose
##losoph
##lendet
##lanz
##uf
##ude
##uore
##uenne
##uantur
##utione
##uistis
##cr
##cund
##cine
##cchet
##iff
##ivs
##idio
##nie
##nien
##alih
##rant
##rari
##ratur
##retur
##rato
##rime
##ean
##banne
##baro
##bendo
##bimus
##ps
##paz
##pos
##pornen
##gem
##dagun
##sas
##sið
##tero
##ting
##the
##hot
##hunt
##hou
##htiu
##harpa
##htige
##kemo
##kre
##kota
##keri
##kko
##kunni
##kkiu
##kmare
##otiu
##zot
##zene
##zimber
##mut
##meta
##meri
##vor
##vam
##vel
##vdo
##vgi
##vitatem
##ſta
##ſtiu
##ſeton
##ftim
##frum
##fahet
##fader
##farent
##xum
##ðig
##ƀal
##ƀio
##ƀanne
##win
##wita
##wizzi
##yko
##ymis
##ylosoph
##đer
##erer
##erus
##erens
##erter
##erge
##eranda
##errit
##inero
##inia
##inio
##inno
##indan
##itans
##ittit
##itvr
thra
thrist
##isper
##isota
##isisti
##isgi
##isgon
inob
inna
ineb
incho
inhab
##arag
##arre
uuad
uuip
uuago
uuath
uuiten
uuage
uuacha
uuuos
uuithar
uuither
##tian
##tiur
##tiores
##umbo
##emque
##emvs
##emine
##emisc
##emme
##emnit
##oram
##oratur
##orota
##orium
##orana
##orni
##orhte
##orundam
##ustit
##atri
##etem
##etos
##etates
##stab
siuh
sigi
siƀun
##debant
##lii
##liih
##lieh
##like
##lima
##lika
quanti
quica
quenam
quilibet
quorundam
##amar
diana
diura
divit
dimi
unle
uncit
unlang
##urne
##urta
##urtig
##urtin
##urfe
##elero
##elite
##elfen
##chemo
##chta
##chost
##chida
anf
anon
angen
ers
erum
erero
erud
erden
erui
ersam
erteil
ersu
##diko
##alh
##alan
##aleg
##alari
##alitatem
##alitatis
##irom
##irmo
##htemo
##ilu
##ilitatem
##ilitatis
##entent
##entvm
sok
souue
sohtun
solius
sosamo
##uuere
##uuue
##uuvn
##uuitun
ales
alag
alph
altis
allicha
alphe
alſo
##idh
##idono
##identes
##idetur
##iue
##iud
##iuzet
##iugena
negen
nepta
##omuati
chli
chel
chomin
chnu
chelen
chlinga
##agota
##agendo
##imb
##abin
##abem
##abunda
##abilium
##ibitis
##ihen
##ihor
##oha
##ulle
##ultun
##olun
##olor
##olot
##olymis
##anteru
##antvr
ihseli
##ectione
##ecoda
##ecchot
siechi
##utas
##utere
dee
deam
deotun
delius
dealb
##atius
##unton
suhtin
sueren
suigen
suahtun
suahh
manegen
manode
manebit
##ahda
##ahende
##ahtiu
##ahafti
##reos
##rechen
##reiti
##reip
estu
##odere
##odemus
gee
gev
geun
gebi
geeret
geuol
geeben
geirret
geedele
mede
meinen
nium
nius
nigon
niaman
niuntun
niener
niazent
minori
minima
minimum
##iggo
heti
heuit
heiti
heido
heften
heigin
heiteri
##iculum
##iculos
miti
mitto
nonus
##egiu
##egomen
scur
scine
scip
scinen
scinit
scaft
sciret
scouon
conantur
constanti
coniun
##edot
##edent
##edale
##edinot
irent
irro
iras
irhe
irdu
irris
irlie
irliden
##izes
##izss
##tae
diuini
diea
dieh
##erehto
##raim
##rachor
duomes
duohti
habist
habemes
habentiu
habbien
uuarmen
uuartendo
##leiz
##leita
abi
abent
abant
abia
abomin
absal
absum
##entio
##entiarum
##iode
##ruerunt
seluon
selðon
##actum
##aciter
stin
stab
stop
statis
stren
strep
addu
additur
##behta
uueri
uuerg
uuerit
uuerach
gotnissu
forin
forle
foruuer
forme
fortem
spi
spum
spens
spuon
spiuu
spuote
spuan
##deretur
##richen
##riuui
reu
reito
herre
herto
hereron
heriske
hereston
##uoli
iues
einig
einfalt
einik
einlif
giot
gift
gientota
tharin
tharbe
tharben
prog
proli
proper
probis
prostr
proximus
exu
exst
exire
exinde
examin
exierunt
unstil
unsaren
unscam
allum
seid
seuit
seuuen
seƀo
##ftit
esil
nudus
therra
uuirf
zieri
ziuueni
selbiz
dicto
dictus
dicendo
dicentis
dictione
##heina
##heidi
##heizo
##anger
##angin
aren
aris
arid
arrip
arcus
desper
describ
despic
desidera
darbo
darmite
##oubi
##ensa
sihh
beitet
bedahta
ferb
ferhe
ferlos
ferahe
feruuor
ferhtan
omoe
utre
utrisque
ubiri
ubbiges
peremp
perire
perrexit
perdidit
perambul
prie
pruh
prusti
prenit
præc
ilemes
ilungu
quique
dinaz
##itatam
##undu
##undan
##undos
queh
##cior
##unget
omnim
##ahtost
mirati
##ffa
##zzist
uuass
##gee
##gead
thenita
thenkean
##udere
kede
kedi
keuue
keben
kehu
kelichen
keban
keqhuu
samasa
magun
magatin
magnis
magadi
leitt
leuuo
leuuen
leuuon
leonum
fiara
fidibus
fiiant
fielen
fiengen
fiond
sunen
sunie
##denan
##aturum
vui
vuas
vuib
vuunnesam
gesti
gesaz
gestig
gespro
gesez
gesiune
gescaft
gesamnod
gesihest
gesueig
##ellas
fraz
frid
fretum
denchen
denchet
trang
trotin
trabem
gisit
gisag
gisald
gisub
gisazi
gisundot
gisegenot
anderin
anderiz
theis
theod
theatro
quidnam
disem
hialt
##ennenne
##ennisken
vnus
vnvs
vnrehte
##ueru
##ueret
facilis
factam
genit
genot
genne
genog
genider
genua
generi
genath
genuhte
sedentes
uerz
uersa
uerlies
uertilig
bii
bihte
##ehaft
##phu
##phet
corus
corrig
##inebat
##andun
##endunt
##endisti
##endisse
intu
intp
interea
##oga
##ogra
quampl
obt
obiec
obsequ
oberost
oberun
oberosten
oberosta
obumbr
furor
furisten
##lice
##licis
##antiu
liuf
liuhte
rehtis
solet
soluit
solita
solemus
subm
subst
subici
subtrah
farn
faris
farsl
anak
anauu
anachili
contag
contrah
amo
amnes
amice
amittere
ambehta
gibro
##ihta
##ihten
orta
orate
orabat
orandum
orphe
origin
folch
follo
zui
zuel
zuol
##biat
simes
simus
simeon
paret
paral
partis
parauit
libere
libenter
salo
salun
saltim
salvi
salath
saluam
salmun
salmos
sagant
##onoti
##achit
##aches
##iscen
##iscvm
uuilit
uuillu
heilu
heilt
heilesam
secul
secundi
securi
seculorum
seculares
secvndvm
gerec
geront
german
germen
gerucchet
nahti
nahent
nahisten
nahistun
suslicha
christis
habetost
pedi
pechenne
pedahta
godu
antro
grand
grata
grande
grase
uuazss
warten
warba
dhin
dhrim
merche
meroris
##izzin
##izzit
##izzene
##iterit
huene
huores
huoris
huurƀun
harme
uuese
uuesent
uuesenne
uuesennes
dode
dohta
regit
regere
regio
regene
regulus
superst
superbis
supersper
superpar
consvm
consulum
considera
plect
gihoren
gihelid
uuoll
uuolle
uueo
uueih
uueig
uueuuun
misso
##ertes
muose
muadon
muoder
muohet
atsam
seruis
seriem
situn
sittean
gebon
gebest
geboto
gebreit
gebristet
iustis
notos
nothafte
potin
potum
potentis
poteris
gehenne
gehuht
gehielt
##avimus
##averant
giltit
gilonot
resvr
ipsvm
aftero
afterosten
miden
##afta
togean
moin
mohtin
moech
##scal
##scrib
fateran
firg
firle
firina
firsl
fuero
fuisti
fuazz
sineem
##ugendo
guotero
dureh
preit
prefec
predist
##einot
idum
##arumbe
geuuan
geuuizen
geuuendet
geuuehsel
getuo
getaten
getuost
getrahte
brunn
bruste
brustin
mixta
flaz
fluui
fluhtig
wirke
giuuel
giuuate
giuuelti
giuuendid
kesur
kesuas
kesazta
kescaffen
kesceiden
gelp
geleret
gelust
geldad
find
findo
malen
malam
##ansit
scalcho
scalkes
##ribe
##riban
quoquo
infix
infantum
truogen
##entez
skaff
skred
marg
maren
tarf
taron
aliquanto
iuuen
iuuere
testibus
phylosoph
iudee
iudein
ubersl
drie
##modig
##ectvm
venerat
veniret
uuerodu
uuizu
elti
mahtist
uuisde
thioton
dingin
andon
nemn
nemm
##eruus
##iskelot
hors
horne
unzit
managon
manageru
##eleison
interc
giwir
giwinnan
multarum
conflu
conform
confregit
accarbigeng
hieze
suozen
gimmon
gimachon
##digan
minni
semita
nostrvm
eoque
spiritui
##iða
lov
loon
loƀon
uuerdenne
##engita
quemquam
quementan
unrehton
dohti
euuand
legiti
legistis
ops
open
opph
optin
optat
slu
slahan
quispiam
betel
uraget
urania
urbium
ubarh
##uuerf
cain
uueler
untthat
currum
redota
redderet
gifor
gifull
gifulta
gifulte
apothe
menis
##bito
sculdo
sculpti
crebro
himilom
tuae
afflic
affici
afferre
underin
uuurme
uuurfen
sehsto
sehstun
muoten
negationis
negationi
##ritis
uuiof
truhtenis
lobeta
lobonti
lobomes
ahtu
ahtodun
usquam
locutum
scolom
turn
syna
syme
gemer
chumft
chumfte
ungit
ungiz
ungihor
peccaui
humilia
##uenit
##uenda
meae
##anea
##aneer
eosdem
lazu
eisdem
binamin
bigih
bigunni
numeros
miserationes
egress
egesen
langiu
hohost
##elicha
##elichen
quedanne
angilo
steinon
incur
incom
incant
rectus
recep
recchent
recumb
werke
werkes
werdent
cla
cler
clem
uolum
uolentes
uolatile
manigu
##liget
municho
##samon
##samun
##iciat
discipulum
undis
undriuua
concit
concubit
qvo
qvos
qvando
qvasi
sprachon
iambus
mannolichen
mannolichemo
unseran
unserin
decre
decoris
ginuog
noscere
predicatorum
iehe
primarum
bland
blith
blanda
blithon
nahtun
freuta
fregit
monti
ganga
benefac
statvs
kristan
uueget
italia
arges
potestatibus
ridic
riuuu
##nian
toter
totis
necessariis
fecerat
fecistis
sidor
nominum
nominatur
singit
neheiner
tuonde
teilent
teilton
compos
comple
complet
maiugena
similitudo
giloubt
giloubemes
prauum
praeter
thioba
posterius
##allem
altern
alteram
huui
huues
huuila
huuilic
huuenan
##hteo
##anteem
gidoug
iudico
demor
##tilem
gisahumes
longi
caret
##illus
##illos
uualdes
impar
impedi
##oufta
specta
specula
persuas
bergon
##idim
memores
memini
membro
timet
timber
timberi
ingat
ingieng
ingelt
inganga
bislo
emin
emit
emul
emma
emazz
sangon
preses
presep
presentem
presidio
##itudinibus
preclara
uuizzagin
commate
commoue
halp
halz
halba
##incia
christianum
crud
himeliskiu
gitati
gitruuuet
vidua
gefro
gefallet
brudi
senibus
senect
nimo
##andel
uuellon
uuellet
uuellentan
neuuolta
sprahha
fuori
fuorot
verbi
veritatis
frouua
frokno
lauc
laudamus
thrio
thrithic
agam
agunt
agere
agge
dadeo
mahtigne
odouuila
rihtenne
##euuen
liezen
liehti
uuiher
uuihero
frummian
gizil
gizelle
gizitin
sciet
scientes
occurrit
uenus
uenisti
chomenen
chomendo
tiuu
tieren
tierna
baru
barbar
domesti
##ducit
begian
pilate
pilatum
pildes
##lihhen
##lihhor
##lihhemu
ungeb
ungelicho
ungelim
keuuiehten
githul
githoloian
sizzi
sizzest
lique
liihh
##auuon
fernamen
tribuit
chomenne
chomenten
fruht
repar
repent
hoƀe
hoyko
lerenne
militum
##recan
##recche
##escis
##escas
##escant
##escentior
uuinre
audivimus
avar
fundan
zaw
##onivm
uzerun
frages
fragata
fragmentorum
iohanni
ignes
irstur
irsturbi
discam
discrim
latitudine
latitudinis
##ginta
breues
euol
euac
eufr
effund
effraim
geskaft
geskaff
feſtiu
hantun
sors
sordes
sorogon
burgin
burges
principatus
lucet
luctu
inser
insunt
insule
insuper
strig
string
fideli
birget
veste
sapientibus
sapientem
eternos
eternitatis
sensuum
transiret
ostent
sazin
cognatione
cognitione
liohtf
inpot
inpati
##atham
woroltmen
houbite
muozen
nalas
paulum
paenit
##ticis
reman
remun
inventus
sank
uanum
bifeng
bifillit
beatorum
bithuungan
coph
coinqu
kelegen
noctu
##olidio
##olidius
quantitatibus
tuonten
inuol
inueter
helfent
ewigen
fleisk
fleiske
ligid
segan
segetes
##oscere
irfur
irfulti
irfollot
irfirn
irfindan
uidebitur
uidelicet
scriba
scriberin
folcu
nouissimis
pauli
##praeh
scripsi
vocare
gravi
gihorenti
uiar
uiere
benedicam
benedicent
benedictum
burgen
galil
holde
holden
holdan
michellicho
##picio
iniqua
iniquo
iniquum
iniquus
iacobus
dispositi
nideri
niderun
leiton
leitti
leitost
equis
passer
oƀana
sundar
sundono
##lingon
bildot
inphahen
uuehs
losi
losan
##barno
auris
auras
auriculam
welih
wewen
geheileg
misselih
misselichi
misselichero
thegnes
dignatus
dignissimum
intfahen
intfahan
dolo
velut
bitte
luta
lutti
luteren
lutmari
licere
deposc
festa
festus
chuningen
haltan
ponens
pontio
pondus
cuiusdam
uiuam
uiuos
uiuere
uuahse
habitabit
habitabunt
ſeluomo
inmens
conuerte
conuersus
eigit
flioh
dimis
carnalis
cold
sperat
speram
speras
sperant
##indecim
gehorda
heliam
leidon
uuideruuartigi
uuideruuartigis
ebra
expul
calci
calore
calce
intellegite
intellegendum
aquae
uuidaro
bibrahta
cuique
putet
putatis
adherebat
adhesit
lebenti
lebend
bethaniu
gnadic
hirdi
lantliuto
lantscaff
contradictione
diurie
fierent
fierda
fierden
perfecto
perfectio
ascensus
hinaht
osiris
uisa
uisio
uisionem
steriles
sterban
demonum
mensur
mensibus
uuiƀo
uuiƀes
irho
loquente
nolo
tumbo
ambulantes
quham
quhidit
mittet
mitting
mittens
mittitur
cuncti
cunctos
kemugen
keteta
ketruobet
viro
quinta
quinto
dissuad
sequentes
sequentis
contrariam
gaudet
lecz
lecto
lectionibus
lectica
lectioni
laudent
descende
descendere
dingoliches
castig
casuum
triuua
##limus
forasagun
uuilligo
uuilligen
cym
eruuant
eruuenden
eruuinden
eruueget
eruuindet
antlinginti
bringest
geloubig
geloubton
##after
deforis
testimonivm
dorna
hetun
giangin
maiores
maioris
audis
audissent
trinchenne
famem
bezte
bezton
motin
ultimus
indeta
haftan
hafteta
circumstantie
stigit
traxit
##letus
gezelet
mihilen
gescriƀan
guollih
infirmus
significans
significationem
bihiu
bihalden
pedem
videamus
ubilu
ubilemo
cecin
ceciderit
tantam
clamat
clamavit
ibiko
portionem
porcos
##egetiu
handm
wise
wison
wunton
iruuinden
behug
behalt
behaldan
kuninga
##itiae
sulican
consequentes
detra
deteri
kedul
keduht
puoh
puluis
smel
smarag
sabane
tve
##qvis
##qvid
uuitie
cogitatione
cogitabant
gedingent
gedingta
metum
hebre
hebbiad
reflex
refrag
refrig
referuntur
reflect
abrahamis
torque
tormenta
##ruoba
mennisg
oportuno
tabulis
uuunderlicho
chrefto
liberales
uoluntates
bapti
iunone
iunonem
lese
##ðeo
##chundiu
sueib
sueiz
communiter
vvuoft
ratet
uuibes
diligatis
diligitis
antfah
persecuti
bedon
patienter
uindet
uuederer
uuederiu
uuedermo
sconun
sconero
grecum
tougena
chumftiger
steines
steinonne
particulas
particularia
particulariter
gomono
gommannes
lapid
lapide
lapidi
missen
missat
ruocho
svam
##uase
suaremo
suarzi
stritent
##loquio
chundo
tertii
niheinan
congregate
congregationem
congregatis
siðuuor
philosophie
cæci
uorliez
uicem
thiono
thionota
thiononti
unfoll
simbulum
simbolon
simbulun
leniter
ouan
desideriis
sulnt
cognosco
cognoscat
cognoscas
cognoscere
cognoscetis
augusti
zimet
zimilih
conueniunt
conueniant
figboum
gistre
gistriun
hungere
kumi
kumta
dhesiu
hostiam
hostibus
hostia
odho
pennas
mezes
mezhafti
giheftid
novissime
tribulatio
tribulationes
tribulationibus
tribularentur
distric
kakan
pruoder
pruader
stillet
sufficere
geuan
geuur
geuaren
geuunnen
infinden
dunchent
taurum
##ricum
chunta
keborn
keboten
iuuueremo
wibon
uureðe
niuuu
niuui
irkantun
redime
sunderiga
fremit
fremidun
simplicem
simplicitas
pleni
plenitudine
temptationes
interrogare
interrogate
interrogabat
heƀenrikea
unmennisken
invenio
achis
garr
garten
gardos
iuraui
iuramento
uestro
uestri
irrat
irrot
irrent
slafen
slafenti
caligo
rhetores
upar
colleg
hulfe
meinent
conditione
conditionem
tradet
traditus
muliere
mulierum
bilido
biliban
civitas
drogun
gioffan
purific
troum
troume
chlagon
chlageta
procur
procedens
magistratus
veniant
humiliabitur
gruotta
##ofo
incipiunt
consideratio
opinatio
opinioni
felices
felicitate
ketaner
schul
spriu
exultate
exultatio
exultabit
confitebuntur
tiurera
wuntarlichun
uersag
numerantur
elias
plebi
plebs
rationi
rationabilis
##isges
iniusta
iniuste
sponso
placuit
luxur
dulcis
stiez
stiezze
erfaren
erfollot
iustificationibus
andree
golde
iuuaru
lugin
lugina
lugino
surrex
treffent
zelus
erdha
erdriche
uuerthun
druto
druton
halblih
mercurium
niderosta
niderostun
##ƀean
sibbu
cantus
kascrib
stetin
requiret
seruos
seruant
nostrae
crediderit
mirabilis
tabernaculi
netuont
reuerentie
reuerendum
introire
suscipi
suscipe
suscipiat
superborum
lukkero
luzzelmo
uuatare
ministra
ministros
terreni
terrenam
terrenos
heilega
bluom
iugo
oreb
wurfun
choront
irwel
accept
accepta
vvurbun
casto
castello
sonum
sonor
sonitu
inuenerunt
scazze
singule
singulorum
kislahte
lament
mammende
digne
##chotost
gedancho
fermident
continua
blindun
conuertentur
ezzant
ezzenne
sliemo
giquati
aristo
aristarch
gradu
sermonis
sermonibus
assignatio
assignando
catena
fahs
fahenne
fahendo
karkare
karolus
viso
visit
##redina
samenont
differentiis
disputationem
disputando
uureðan
uureðon
uureðes
lirnee
duplo
duplex
sedel
sedebat
arabeitin
priuationem
giscop
gisceinta
thuruch
hilfit
cesaris
iagili
widarmuati
irlost
irloste
terrest
terrene
terrore
firnemen
firnami
voluntatibus
auertis
inbunden
uuintro
irgazzen
tragebet
culmen
edili
tollet
zuuein
diuinitate
ewinigo
demonstratiua
eteliche
etelichero
etelichemo
adorate
adoraverunt
magnificata
pechennent
andriu
hluttra
publicanus
cadet
cadent
crafte
crapula
galli
knehta
knehto
molem
prosperitatis
ungeuualtig
uuestene
somnis
gihaloten
fundament
gicu
hreo
vivit
vivificat
zispreit
##unnea
exting
iogiuue
grabatum
regnat
regnabit
proprias
prepost
rikeon
excelso
uieriu
uierdun
bittres
zacharie
ſcal
##uelen
seltsanaz
farlaten
retribuet
fulgura
multiplicati
census
linte
lihhamo
zorob
adven
frigoris
gisiðon
planetis
richesota
assumpsit
fingar
fingare
##uiget
##ihtiga
deheinero
sceinen
sceinent
perhibet
suntigero
recipiant
claritudinem
zuiuelot
interpretatur
fordoron
gikund
uuirsisten
paradises
comparatione
comparationem
fabule
kauuati
tulit
tecto
tecno
ferlazest
kechos
quadrang
quadratum
superioribus
consolatus
petrogen
managfaltaz
reddite
redditur
redditurus
frewe
rihtuome
baptizati
fehi
gerechen
iocundum
nobilitas
uobton
erhangan
medicina
seliða
arbore
arbiter
ferchn
ornatibus
consump
gihuget
dulces
dulcia
auctorem
fagaro
kiuuon
indiget
indigere
diapsal
heitar
beðie
beðia
bezzera
bezzerot
saluabit
saluauit
monachis
completur
impleat
occidente
vestrae
uundro
behuota
rauuon
tristes
tristitiam
sibunzo
mansuetud
manega
imaginationem
spahi
perierat
temporalis
temporaliter
neuuederer
zimberon
prudentiam
dissimile
dissimiles
kuiss
pirumes
piscem
rihi
quartum
chirihhun
deficit
deficient
arstarb
kescrift
confirma
confirmasti
bigonoto
officia
philippum
easdem
fogal
medioc
conpreh
blintan
blintero
kelouben
keloubta
dextram
iogiuuelihha
brod
ekii
nativitate
risum
inops
inopem
sociari
success
kepete
uerbalia
hueðer
declinauerunt
carminis
starcheren
descendentibus
lacrimas
conturbati
conturbatus
certamen
pisuu
piscium
unreine
unreini
scandalis
stozen
festinatione
dilectione
kleib
polum
pehuote
pittem
tatist
videritis
forahtlicho
arfirrit
gemeinero
gemeinlicho
monumentis
bisgof
liquido
cognouit
cognouisti
inmortalis
lirnent
fimui
moses
missetaten
annuzzi
delictorum
scaffunga
coniunctio
coniunctiones
attendite
geburen
redemptor
redemptionis
mortalitatem
longum
longam
longitudine
discernit
discernitur
dormiat
dormientes
kedingun
kedingta
lertun
radix
vuln
thriio
diuten
##uhtige
archana
permul
multitudinis
sluogun
affectionem
gitruobte
gitruobnessi
familiaris
aðali
liði
pavper
##horr
inquir
uuiehus
uuendean
chisalb
dubitat
faciamus
corrupta
furlazit
grotta
gifrumita
studiosum
disciplinas
appellatiua
brediga
manifestavit
ruofit
ruofenti
ageƀan
citius
crimin
epul
##enderant
niðer
arsluo
arslahan
keisure
gihialt
mendax
sculdheizo
maximum
kehorta
stridunga
conuersione
contradictoria
folleglichi
irknatun
hluttar
hluttro
hluttron
fauor
faucibus
kraftlicho
vestimentum
##vtabvntvr
suorgon
imbec
sceler
scelerat
rehnussi
vuesent
gesprak
sustinere
gehaltenen
inferioribus
seminat
egislih
concessio
difficult
sepulc
sepultus
octoginta
nazarethburg
maza
pitent
uuoft
niunzog
immort
coniugis
fortitudinis
perditionem
contristari
amaritudine
gerihtest
pezesta
geleitet
begagenda
fleisges
draconem
xiiii
zilotun
sinnen
repertus
perficere
perficiat
amictus
pechn
himilisco
himiliscun
begrifen
antfengun
araughida
horto
mahlien
naues
olym
ymnis
ymnus
thiggean
ernust
meðom
keuallet
geskefte
hierosolima
gestatet
xxvii
cyllenius
cyllenium
lanzo
vbermuote
##muotigi
##itiua
thunkid
chicchet
suftod
##ahafto
irgezzen
pertinent
gespri
plantauit
inferni
glorificetur
sacramentis
insipiens
sententiis
sententias
giheilti
uuuocherot
cenzeg
drahton
egebare
pariet
pietatis
tetrar
tetrachor
##codr
##fareuue
mandavit
improbitas
scitote
spelunc
zuifal
gernor
sanctitate
caeci
languorem
fehtenne
grauibus
dispositus
thesauro
virtute
buohstaba
matutinis
sprehhentemo
indiuiduis
arougta
cavendum
fisgon
fisga
groz
grozen
nathan
wialt
##muoda
thusunt
uuidouua
improbi
scism
referre
iuditium
unsculdigen
magnitudinem
geslago
truregi
gehuuilikes
geuuorht
phoebi
uuizego
andaruuis
ruachal
argumentvm
reliquum
auctoritas
inmortalitas
inmortalitatis
concupiscentias
alomahtigon
bestie
kestat
messis
thultit
ingenium
uuantun
##ulsere
prolatum
profectus
samaritanorum
iusserit
iussione
beneimda
adiuncta
fleisches
ultima
torrentes
torrente
torrentem
distribuit
periergia
ueterem
xps
anxiet
nebezeichenet
irchennen
irchennet
irchennent
experimentum
pericula
triegen
infidel
dragabet
##uuerkot
##boumo
occurrerunt
keuualtes
striccha
inphahest
defensione
torculari
torcularia
ivdica
jamarlichaz
clarifica
aeterne
egenus
fullent
iumentis
iosep
kunft
uitiorum
nehabeti
nexibus
scrodon
beuore
sublimis
propinqua
brioston
##unnesamot
incorpor
meministi
suscitabo
collocauit
iniustitiam
radice
radicem
costunga
handeg
veteri
vidimus
xlv
eterno
uirgines
recessit
freisun
bruođar
adimp
hoƀdu
irstantnisse
bitteri
hospitum
ratiocinatio
gallun
gallus
iuncta
pullum
pullos
pizeichinent
ticcho
tellus
uentos
erheuen
meintati
irhuabi
zeuuene
abandm
progenies
selbuualtigi
gisihist
peuuendet
geuuirkean
pharao
morgane
recordamini
occulto
occultis
barabbas
##skepies
craftagne
gahorit
wisduam
tymp
giloƀien
elemosinam
geiihten
dulcedinis
satisfactionem
mansuetos
lybano
fortuitis
sempiterna
sempiternum
bocan
remotio
rinnenten
vacent
##fard
inspir
ersterben
arhangan
anafang
consistens
miserior
idolis
idolorum
fluuio
electorum
auaritia
confringet
ginerien
sacerdotibus
speculatione
quhedh
caducis
elocutionem
thalamum
thalamos
excommunicationis
kastelle
klagota
pestem
rucchen
zaharin
uuahtom
unmezz
deonost
medull
contigerit
irstirbit
forlatan
herbest
gesatot
geschehen
gisegonot
oberoro
oberoren
solvere
subditus
heilesod
pezeichenent
fuazon
syriam
recepervnt
brutigomen
inutiles
gravitate
misselichet
circumdabit
firinuuerc
bismarunga
fettacha
basan
mentiti
tiligon
trepid
uallent
ventrem
verax
°quia
##githahti
gedenchet
forgeƀen
refectionis
herizohen
uuirdhit
ferzorn
ferloug
intphiengun
gerston
thiorne
urdeili
bigihta
excogitari
seggiu
seggio
geheiligot
virgilius
reversi
auertantur
irrefset
bisgoffo
responsurium
babylonia
gnoz
kieſo
kruzi
sendida
erspr
alexander
scuofe
conexa
irteile
fergebeno
contumeli
superfluitate
quaedenti
gimeitun
credebant
makko
githuinge
circumcisione
suppliciis
dereliqu
aleiba
mittiligartes
adimpleretur
meretrices
rethorica
epicurus
hnigan
rozag
uuostunni
quocumque
quinquaginta
tueliƀi
arlosi
illecebras
sollers
antsazig
geteilet
slapandi
primogenitum
antephona
septuaginta
skepfo
euentura
uulgus
depulsio
definite
hlaufte
antichristus
umbegang
irbarmeda
gubernaculis
finstarnessin
geantuuurtet
exsurgens
aegyptum
holocaustum
austro
savl
eregrehti
exulem
esurientes
gisauuit
hiemis
gerstinas
tohtera
skidunga
phitagoras
gemmarum
monstrauimus
lieuiko
excepto
lucernam
ascensione
almahtic
diluuio
baptista
suffragia
unchreftig
fermulet
tympanum
mammonto
firiuuitlico
ahtien
bodskepi
cotidianum
hotnon
pentec
senex
vestiario
diernun
dionisius
erpalde
chindes
deotom
scabellum
abdiſſcon
seldlic
spieg
ziphei
beelzebub
leprosi
farcop
uuilsalda
tieueles
iuuentute
luciferum
euuangelio
vvuosc
githanca
transgredi
kelougenet
scriptoris
danchoen
stiagil
amaricantes
firstandanne
cheiser
vsquequo
exprobrauerunt
irrafsungo
geoffenot
centurio
ypermix
sileas
anarati
chestiga
nichodemus
spotte
iubeat
proserpina
uuirthit
ferholen
corollarium
fargiƀid
susceper
gethuing
beresboton
ungeflecchot
hantuuerch
pharisaei
ebensel
crementum
maligno
forlazzanne
priuatorie
diuturnior
ſculdlakan
gaduling
irminthiod
incredulitatem
negeskihet
mathematici
thronus
diobol
anđran
##ommodatio
##igfaltot
heriscip
gidiur
bekerda
furenomes
antsceine
harundinem
muſna
muazzoen
temptauerunt
quoadusque
concvpisc
innominabile
iniquitatibus
boetio
ocvlos
inprimis
uuiðersakon
missecherist
tohopa
resurrexisse
missesk
allophili
unmuoza
kefolgeet
suggestu
controuersia
thuruhthigan
hameko
hunderod
zabulon
ſmeraſ
inoboedi
dimidio
neptalim
constantiam
heriskepi
quamplures
anachiliihhan
supersperaui
predistin
getrahtede
accarbigengon
gidougno
feſtiuitate
woroltmenigi
reflectas
tragebette
tetrarcha
dragabetti
53
are
auo
aci
ago
ahten
aeri
aeth
aerd
aestim
bul
bac
bri
bende
bue
bote
bitu
bath
besta
bodem
cv
cus
cist
cne
cari
cna
cana
clo
cara
cip
ceno
dos
dans
dente
dante
dote
dult
dvc
dregit
eil
eiu
elih
eph
elic
euum
eiro
euuart
fie
fieht
fundum
feter
fidu
felle
ficus
fumus
foue
ficul
gy
gon
gent
ganc
gach
giti
gust
gasc
gamane
geruntur
gustum
glizen
hen
hemo
hah
hia
hav
hire
hvi
hahe
hring
hror
hurſt
hentin
hesit
iih
iota
iose
ibat
ibis
iwer
iosa
iiehet
iesses
itidem
kh
kæ
ky
kero
kag
kile
kina
kerit
keren
kuan
kunne
kruc
kester
kidan
kurz
kestozen
lor
lare
leta
liht
lando
lantes
letan
lilia
lidan
lvc
lentin
mes
mili
meng
mesti
mentium
math
miste
mendet
mvnd
menget
meson
nad
nite
nvn
navi
nithar
nither
onus
ogean
pid
punt
pite
pina
pann
pium
pesc
pyr
rid
rite
rota
rith
rara
rugi
rora
rumu
rinnet
rinnent
rarto
sau
sate
sliu
sande
sade
swer
sado
tob
tile
tine
tunga
talem
tendit
tarumbe
ua
uæ
uom
uah
uiz
uog
uitas
uino
uaria
uilis
uese
urehte
uareth
uotis
vl
vr
var
val
vas
vob
vite
vora
veter
vona
voz
vffen
vitio
vex
villam
wn
wet
wist
weh
wito
wande
wuas
wines
wertis
yro
zet
zund
zess
zisti
zigen
zitis
zano
zalti
zart
ziehet
zuhtig
zalig
zessa
°ter
đemo
đanne
ſu
ſt
ſeton
ſmit
##line
##lagon
##uac
##udic
##uomen
##uxit
##cent
##cra
##cota
##cundi
##cunnies
##iæ
##ianc
##iurg
##iuntur
##ientis
##iendum
##ika
##iosa
##norum
##naht
##nont
##nota
##achen
##ræ
##ruh
##rate
##risti
##riter
##riti
##rana
##rans
##ritate
##rect
##runga
##roren
##ratibus
##ruuu
##radas
##eum
##euue
##ezzen
##bero
##benne
##batis
##bulum
##bante
##bilis
##boran
##bilo
##bvnt
##bimur
##bbien
##pem
##pat
##pot
##pas
##pte
##pens
##poran
##pfe
##gir
##giu
##gol
##genti
##gota
##geri
##gerni
##dta
##dth
##daga
##sem
##sse
##sata
##sazen
##skiu
##tol
##tah
##tans
##taten
##hil
##hed
##hanne
##hald
##hvn
##hiun
##hemes
##hines
##hamon
##kn
##kam
##kad
##kanta
##kenne
##kara
##kip
##kaft
##ozz
##oien
##offen
##ochan
##odid
##zel
##zib
##ztag
##mem
##maz
##mal
##mag
##mono
##mide
##vti
##vun
##vet
##viam
##vgn
##veritis
##ſl
##ſter
##ſhuuila
##fot
##frist
##fatio
##fendo
##fsit
##xag
##ðis
##ƀit
##ƀos
##ƀoda
##wist
##wida
##willig
##æo
##yn
##đe
##đit
##erid
##erium
##erida
##enia
##ense
##enina
##enium
##engean
##aneru
##ankan
##inf
##inant
##inda
##initatis
##inotun
##inaria
##ondin
##itul
##itru
##itius
##itari
##itanda
##itores
thon
thic
thau
thahtin
thornon
threa
##estio
##isin
##issequ
##ischin
inlu
indis
inunda
inlus
ingiangi
##arti
##arod
uuund
uuemu
uuini
uuvn
uuax
uuundon
uuundun
uuendent
uuendest
uuunnes
##tier
##tili
##uminis
##unque
##unissa
##emenne
##emmet
##orent
##orom
##orqu
##order
##ordo
##oraht
##orden
##orhta
##organ
##orsta
##ormis
##usum
##usio
##uscit
##atrix
##ethe
##stein
sip
siđ
sigen
siren
siuni
siderum
##deg
##lide
##lios
##libi
##lidan
##liftun
##liehet
##liothec
quir
quie
quuad
quindecim
##amina
##amban
diot
diab
dilu
dietin
diofo
unar
unent
unuuar
unitas
unitatem
uneron
unerd
unredi
unicum
undati
unnen
unredina
nantun
##urchit
##urzet
##otus
##elem
##eling
##eltig
##elden
etas
##chul
##chist
##chte
##chere
##channe
##cheta
##chint
##chton
##cheren
##chose
##chonne
##chendet
##chelon
anb
anh
anden
antio
erc
erm
eras
erac
erder
erbi
ermon
erga
erchenne
eruar
erbur
ererin
eruct
erskein
eriren
erscut
##dies
##diis
##alf
##alba
##irca
##ild
##ilero
##ilda
##enteru
##entote
sod
sosp
sosa
solichero
soðan
sobri
##uuas
##uuanne
##uuethar
##uuehselot
##uuuocher
sinis
sinali
sinap
sinsconi
sinhiun
##rof
##roht
##rosi
alon
aleg
aldan
allichun
alatan
##idemo
##identia
##idrohtin
##identibus
##idha
istum
##iuimus
neom
neig
nedun
nedu
neouu
neuan
neuuard
neqve
nezzet
neligit
##asen
##asin
##asum
##oma
chen
chuu
chra
chide
chust
chling
chalti
chalten
chiri
chusta
chondi
##ager
##ageton
##agez
##agagene
##iman
##imil
##imos
##imda
##osen
##osonti
##abot
##abta
##ibis
##ibant
##ibilem
##ihha
##iean
##iehent
##iebas
##iehest
##ohen
##ohon
##ohtiu
##ulerunt
##uluht
##olti
##olotun
##olub
##olvit
##antu
##anton
ihs
##ecan
##ecte
##ectig
##quoso
##queme
siechel
##dahten
##utt
##utem
deono
degen
depra
defen
debes
deorvm
delici
delien
##atid
##atium
##istas
suon
sues
suus
suet
suie
sueb
sulichen
suige
sufto
sueton
suaren
suahtin
suðar
mana
manm
manod
manvs
manentes
ench
enge
enumu
ennan
##rei
##rean
##reget
##reuui
##rexerit
estus
##neon
tuomo
tugen
tuba
tugin
fonna
fontibus
gein
geit
geis
geet
gedo
geell
geuer
geuet
gegar
gelichemo
gelicher
meatus
medu
nix
niw
niot
immo
minas
minaro
minimo
##igna
##igii
hetig
hefte
##iciam
##icarum
nonaginta
##ego
##egun
##egemo
##egest
##egere
##egota
scr
scim
scah
sciss
scop
scep
scunde
scelt
scaph
conl
conetur
conect
conduc
coniur
##edat
##edunt
irta
irlu
irfer
irgeben
##izug
##estus
##estri
##estinot
zeigo
zeinti
zeuuirf
##taſ
##tavit
intima
diue
diuide
diuidi
dieze
##raphin
duah
duod
dualta
habentium
habuerunt
habueritis
uuarut
uuartig
uuarhte
##leih
##lehit
##lekken
abg
abtr
abunst
abcr
iroug
##rue
izzet
selenti
selueru
##ilik
##ilior
##iligen
##ilica
##iliches
stent
stec
stru
statio
stato
stoli
stalta
stunda
strac
strich
adqu
adop
adpreh
adpraeh
##beda
##beiz
##seƀo
uuerb
uuerti
uuerkon
uuerbet
uuerkes
uuerchon
uueridun
uuerelte
uueraldi
##ugele
##ugrot
##ugmenon
gotnissi
gotnissa
forsc
formon
forbr
forman
forhti
forahton
spen
spor
spent
spien
spue
speron
spanen
derisum
##derik
##ride
##ripon
##richo
##richit
reche
reinen
reprob
retia
reofun
herero
herie
herze
herba
hertiu
herige
heristo
##uozta
uuanes
uuaniu
uuangun
uuanahe
iukmare
eini
eins
einigen
einoton
einoti
einnissi
einfol
giƀid
giƀu
giſc
tharsis
prod
prodes
prosl
proloquiis
exec
exiens
exilium
unsc
unsam
unsich
unseru
unsinn
unsara
allin
allas
##queque
seit
seile
seua
seuua
esti
esau
nup
teh
teſ
teud
mihiles
uuirdi
uuirig
uuirdigen
ziuua
zierdo
selbem
selbsu
selbsama
dices
dicte
dicendum
dicetis
dicebantur
##heti
##heft
##hebet
arende
artem
aruuir
ardot
aruuiz
arcam
desunt
despon
desemu
design
despici
desierit
dari
darazu
darumbe
##ouere
##oufte
##ouften
##ensibilis
siho
sihuuer
##audit
##auerint
bek
beze
beidu
behab
feri
feris
feras
ferunt
ferne
ferron
ferstant
ferliez
ferbri
feruuirf
utres
utrim
utinam
ubir
ubila
perag
perdet
perduc
perga
permis
perdere
perennis
perdat
peribitis
pris
prun
prel
prand
prenne
prote
protes
pridem
pringe
pristet
ilen
ilti
quiet
quiesc
quiðit
istius
dinu
dinemu
dinoscit
dominis
dominos
dominorum
##ichan
##ichin
##undis
##undere
##orth
tern
thiezo
##oboron
##ungum
##ahtit
mirari
miratur
##zzer
##zzest
##zzenne
##teri
##terit
##terius
uuasc
uuasse
##gebunt
##lihchun
##lihchem
suntu
sunter
##arias
##ariorum
thenk
##issiu
##issido
##issolub
##udes
kek
kezi
kebant
kelicha
keoffen
sambu
samariam
magi
maga
magne
magorum
magide
magez
leaz
leim
leui
leone
leida
leidar
leuin
leonem
leones
ledian
lezest
lediad
fii
fial
fiele
suntigen
sunnon
vuor
vuare
vuenne
vuithar
vuazzer
endie
gesi
gesche
gesito
gesiun
gesian
gesazt
gesemine
quodlibet
##ellin
##ellere
##ellatur
##elleret
frad
freta
frust
frige
frank
frones
frvc
frontem
denarium
denchit
denchendo
##altes
##dicit
tren
trum
triug
tricu
iouu
alikin
alimentis
##eraverit
dienon
dienest
##ituros
giske
gisme
gisuon
gisito
gisuor
gisco
gisliz
gisazta
gisihu
gisehe
gisageti
##alip
andern
anderaz
theki
theoda
theohe
##iamin
disu
disg
disge
displic
##goum
hiazi
##ennon
vnges
facitis
facilius
geni
genaz
genibus
genitum
genuht
thuingit
uervm
biuuer
bikie
##ehhu
##eherz
##pho
##phur
##phim
##phare
##phath
namda
namut
##iehta
correxerit
##inebant
##endan
##endant
##endvm
##endentium
##endingo
illvm
intl
intuo
intret
intliehet
##ogan
##ogus
##nae
obp
obtem
oberin
obdur
oberostun
obiurg
obviam
fures
furtum
furtuom
furliusit
##nox
##nohten
sumiliche
##kee
##kefte
iohan
##antias
directa
rehtan
rehtaz
rehteren
rehtungon
rehtuuis
solun
solst
solos
solcha
soluta
solatia
##apa
suble
subri
subtus
subrip
subuol
subpl
subiung
farh
faron
farant
farre
farlih
faruuer
fardu
farga
farla
farkeban
faretharpa
anauuan
anaxag
contenta
contentus
contuetur
amin
amur
amas
amere
gibed
gibad
gibint
gibein
gibirit
gibolgan
giberehto
nectit
necdum
orto
orantes
orationibus
oriri
orationi
folon
follicho
folmun
zuib
zuoh
zucchen
##bii
##biis
##ditis
allelicha
parit
pares
paris
parili
parate
paratus
partim
paratvs
libb
libra
libido
liberat
liberos
librorum
salbe
salui
sagit
sages
sagad
sagest
sagendo
##ucan
##ucchen
##ucres
##iscens
heiler
heilen
heilti
heilaz
heilemo
heilaga
heilagun
heilages
secessit
gerto
geritur
gerota
gereton
nahh
nahet
suspic
##intun
##uiter
habete
habetur
##orea
peda
peper
peius
peiden
pecher
peidero
guisse
##itaverunt
positi
positus
antal
antph
anthab
grund
groni
uuazarum
uuazeres
bonitate
bonif
##antavit
waron
wares
warheit
uzuuer
uzerosten
meri
meritum
##ppot
inane
inanem
inanim
thinoro
huab
huara
hardan
uuesat
uuesanti
animae
animantium
doz
doan
doti
doech
dopte
regens
regina
regionibus
regionum
superl
supera
superf
superis
superbus
conser
consurg
consensum
constill
plot
pluom
plaga
pluto
plegan
gihog
gihoris
gihalten
gihneg
uuoldun
uuoltun
sicilia
uuech
uueich
uueido
uueinot
uueuuon
uueinota
uueichi
uuelihhero
ueld
uelox
mislic
##ideat
##idebant
##ertun
##ertent
##ertost
propin
propitius
muazi
##omenon
attul
athel
sereg
sertum
##ienc
##ernen
sitit
sites
sittian
gebrie
combur
helm
iust
noteg
poten
potui
poterant
gehan
gehirm
gehelli
gehorton
acie
##loug
##lougn
##averis
gilt
gilob
gilust
gileste
giltet
gilamf
##ebis
resid
result
reserv
resuscit
dixerat
ipsarum
##uuartun
##uuartet
midan
##afi
uuordum
topaz
quaeritis
heizan
heizmuati
##scara
firl
firdi
firbari
firholan
firront
fuire
fualta
fuorton
##liuin
##liudi
guotu
guotlichi
guotelih
dura
dure
durih
durre
durri
duritia
durste
preest
preuer
pretio
prelio
##einen
##einsami
##zez
geuuen
geuuah
geuuiz
geuuiss
geuuinnen
geuuunnenne
geuuurchet
getret
getruob
getoufet
getriuuue
##timvs
##timini
uiridi
brun
brat
breng
brinnet
brengean
tieffi
mieto
flas
flec
flere
flores
flatibus
wirs
wirdi
giuuanta
kesamin
kesuah
eikin
gelad
gelden
gelub
gelesen
gelegit
ital
##arner
##arnun
findu
findis
finfe
findent
malas
malitiam
maltaſ
uuerdunt
uuortan
##ribvs
quoquam
hieron
infert
infans
infinit
inflex
inferos
infantium
infima
infiengen
tagarod
truc
truen
skem
skim
skith
skif
skena
skinit
skihet
skerten
##cula
maru
marun
martin
tartare
##thol
iuuenes
testific
phenn
phisi
phares
phorta
iudeae
modgithahti
possent
possed
drun
drunc
drisg
petitis
##motigot
venerant
uuizo
uuizit
uuizes
uuizet
uuizut
uuizemo
uuizera
##tena
##tenus
elati
elationem
elithe
##unnin
thiete
thiko
thioto
dingent
dingoton
##irmet
nemes
nemus
nemanne
nemenne
nemendo
nemmen
nemahtin
##iskel
##iskero
##iskemo
##uuehte
iungist
iungisto
iungistun
horae
horsco
unzim
aue
auda
audiu
auarit
audiui
##innon
##innes
##innot
##innenne
goteheit
gotelichun
##elez
interu
interius
interiec
interire
giwant
giwunni
giwihit
giweltig
morb
morda
morbus
moritur
moragan
moriturus
moralitas
conferre
accedit
hiezzen
suozzi
suokean
suozes
gimy
gimac
gimma
gimacha
minnia
minnotin
minnista
minnioda
semitis
eouuit
afterin
afterun
afterchomen
mannen
manniko
spiritvm
ludic
luzze
lupi
wasso
##iðu
##iðan
quemente
euuige
noz
legat
legatur
legitur
legentibus
legalis
legeton
opf
opul
celvm
celeste
celitem
slaht
slahe
sluoge
betera
betonne
betonti
betoen
betalari
urs
urbe
urchun
##ullus
ubartr
caet
cainan
caesare
pecora
untriu
hae
haustum
curavi
curules
cursibus
reddi
reddet
reddidit
reddita
ufe
gifahe
gifahan
gifank
apoc
aptus
##prohhan
naturlicha
uuidermez
sculen
crep
creata
crebri
credendum
himilon
zuouuart
affectu
uuurz
uuurchen
uuurfe
##luhte
sehsta
sehsu
sehentemo
neget
negando
uuiolich
gabrih
gabiut
##ositis
stuodun
lobet
lobotun
ahtoz
usan
locorum
salic
##ifte
##iferus
cogat
scolan
scoltin
turst
turih
##iesent
ubela
ubeler
ubelemo
syb
gemin
gemes
gemah
geminn
gemitu
gemahta
geminne
gemmis
geminorum
contrem
contriuit
##duam
##duomes
##ersiðu
unget
ungidan
habentem
asa
asinum
asuuih
peccun
humum
liohta
liodio
liofun
##tiuam
ruomen
ruaren
ruodere
lazto
lazzen
lazzest
bini
binon
binas
bigin
numine
numina
numinis
miseris
miserorum
miseretur
miserator
nescis
nesizzet
nesihest
##cauu
eget
egest
egere
langen
langor
langero
langost
hohet
hohaz
hohemo
hohset
hohisto
##eliche
quedemes
quedentan
ougit
ougti
ougtun
ougton
ougtost
angesten
cubus
cuatiu
steic
stetim
inclus
incedere
incensum
incerti
recol
werie
werien
uuerlti
ambula
ambrosi
cloub
claro
uolui
uolub
uoluisse
maniges
popvlvs
nihilque
patrie
inaquoso
facientem
faciendum
muniz
undas
undriuu
concin
concinn
conclu
concede
concurr
concilio
concordia
concubuit
qvin
mortalem
mortuorum
truhtinlih
unseraz
unserero
decap
decchet
decip
decima
decanis
fandi
nosc
predictum
predicamentum
iech
primos
primitus
nahtuu
freuue
fredth
gangu
ganget
ganganti
gangenten
benefic
staten
statuere
uuego
uueges
drohtinis
arger
argon
arguet
arguuillig
operari
operantibus
operamini
riet
riatun
rieten
rikie
circo
##niun
##nidi
##inisse
toton
totero
##fteda
necessarie
necessarios
feceritis
sidere
##mezzen
singan
capillis
compet
comprim
compedi
composite
madian
##uonde
##oroti
thihit
praeb
innor
innenan
innerun
habeatis
becham
bechanda
israhelen
##alla
##allan
##allent
alterna
huued
gidot
gidanc
gidue
gidult
gidrog
giduet
sacro
sacono
sacris
iudicem
iudicet
iudicatur
iudicate
iudicatus
iudicetur
iudicatis
demoniorum
##ornessi
michah
##rench
##rengen
##ihhes
##ollin
offer
offens
offene
offano
offerat
offonota
carmen
carbon
carkere
tenentes
tenuit
tenuerunt
##cede
##illun
##illas
uualdan
uualdanda
impot
gouh
machost
diffusa
altm
altan
berht
beranne
bergo
berhte
berhton
##idir
##idili
timentium
timpan
timeat
ingangen
ingangan
ingelte
ingreditur
ingemisc
selƀumu
bisp
bisue
bisprah
emp
emic
emitte
sangvis
presentie
iacere
precedit
uuizzunt
##untium
##untibus
commendo
commenda
comminu
commendat
buch
buach
buzza
halota
halze
halƀa
##berga
##atoria
psalmos
##inctus
septa
sepius
menniski
cruore
crukon
cruces
himelen
himeliske
himelrih
himeliscun
giteta
gitog
gitald
vidisti
viduam
vidissent
geflo
gefull
gefahent
gefuoret
gefolgen
brud
bruche
senes
habenis
habenas
habender
gerſti
nimu
##rusti
##andean
uuellemes
neuuellen
cristan
cristallum
heroes
herodem
##dinon
spraha
fuorent
frod
froian
frohon
##huſ
giengut
uocum
uocat
uocabatur
meistres
thria
thrizug
saligoren
usquequo
agendum
agros
mahtiger
zese
zesuua
##ittitur
rihtent
deumuoti
quibuslibet
uualdandas
liezzen
liebun
uuihaz
uuihro
uuihita
frumid
frumidun
gizalt
gizellet
gizeinit
gizeliti
gizungi
mugist
##slag
##ulisse
sciant
occur
occider
uenerunt
uenena
uenisse
uenenum
##ureda
geistis
geistlichen
adiac
adiung
adiecti
tiero
tiura
barach
barrab
barthol
domi
domibus
domvm
began
beginne
begrab
pilati
piladi
ungelich
ungelichen
githol
githingi
githenke
sizzendo
kehne
kehuge
kehalte
liazi
##auua
uurza
uurhton
fernam
ferneme
tribent
tribvs
tribue
marion
excellent
bogo
bootes
chomest
chomente
brachun
doces
docti
docentes
docuisti
docebo
sahet
sahent
fruater
subiecit
hodi
lerda
miles
mildean
militibus
uuindes
signat
signaculum
avert
dump
gesta
geste
gestus
gestos
gestseli
frage
fragest
fragenne
ignomin
irstuanti
discordi
discedit
discors
discuss
discordia
friundo
friundun
latet
latentium
latinos
effu
effig
effecto
girun
girusti
uuilleuualtig
nullatenus
opponi
oppositas
helages
helagne
helaglico
hantum
privs
sorte
sororis
##azzu
burgliu
##ferti
##ferte
armer
armin
armscap
principe
principis
lucerna
lucidum
lucratus
insig
insper
insani
stratum
dauide
uidisti
uidete
vestras
vestrvm
sapienter
gnaden
##brio
##brath
sensa
transit
transiit
transierunt
ostan
ostendam
ostendat
cognit
inport
woroltrichi
woroltmannon
laboribus
labiorum
reme
remus
remitum
remansit
##manno
sanis
uanitati
bifang
bifand
bifahan
bifallen
laet
beatam
beatvs
bithurfun
coe
coep
keltem
kelogen
keleget
keladot
noctes
xxiiii
##oliis
gedul
gedru
geduot
constare
wize
wizin
wizanne
thinghus
thingstedi
quantas
##zzeno
inuenta
inuicta
helfant
fleho
gaƀi
ligat
ligas
liggian
segreg
uundun
getanero
uidebunt
scribera
folco
folcto
nouis
nouerunt
nouerat
nouissimo
##losi
uulgo
uulnus
quass
scriptor
scriptores
scripture
general
generationum
generationi
voca
vocati
vocatis
grauen
gradibus
grauui
gihori
gihorien
gihordin
benedictvs
prouin
prouincia
sagetin
euuiger
gumskepi
gumskepie
hole
zello
zellet
##deoen
michelun
starcho
starkan
starcher
sumelichero
sumelichiz
##iuuari
##yson
uuordsp
mannelichemo
arbeiti
equos
equitas
equiferus
patens
##undeon
passionum
letin
letata
letetur
sundot
sundeno
bildo
bildon
testis
testatus
dancha
danchont
inphangan
uuehh
uuehsl
gratiae
losti
losenne
losunga
volebat
volvnt
volucres
wazares
##barun
galileis
falsi
falsus
fasten
fasteta
fastmuate
omnivm
geheita
geheizzet
misselicho
misseliches
digneris
intfianc
dolose
doloribus
luton
deprim
festes
festemo
festino
fuoget
fuozun
ponatur
pondere
##alesan
cuiuslibet
uiui
uiuo
uiuet
uiuimus
habitationis
habitabo
fuartin
ganzi
inmensus
inmensi
eigene
fliz
flizzun
dimiss
gisehanne
salute
carni
linguarum
##banter
##undera
proposito
propositis
colo
colli
sperabam
accident
fiurinen
retar
retinent
heliðun
leidit
leidot
uuideruuartigiu
ebin
ebene
fulgebunt
exposit
##turis
besuon
besazzen
beslozen
caluit
calui
mandvc
gelihnisse
intellegi
intellegens
uuidun
uuidem
uuidoro
abrahae
bibat
bibam
bibring
bibliothec
cuiquam
kindiski
##rogan
abbates
lebendon
bethecoda
gnadig
gnadiger
hirlicho
lantske
diuro
diuren
diuridu
diuriða
perfectione
ascende
ascendere
osti
uisionis
##fixerunt
sterke
sterchen
sterchet
sterilis
demonst
demonas
demonstra
uuiis
uuiƀe
uuiƀun
eteuuen
irhartet
loqueris
nolle
noluerint
uuidaruu
quær
quædet
quæritis
liuteo
ambulant
musicum
musicos
palp
palma
pallium
mittat
uuerðes
multiloquio
syllabe
ebenalt
ebenchrist
keront
kemag
kemah
kemachot
ketinun
ketuoe
virorum
virtus
virgin
offenen
offenor
offenot
offenunga
memoriter
memoriale
dissensiones
oðres
oðersiðu
sentita
quican
contrarii
contrarietate
contrarietates
gaudent
lectum
lecticam
pinont
laudare
descendi
serva
servum
hiut
forasagin
uuillien
accipio
accipiunt
accipietis
ambahtit
cybus
cyres
eruueg
fordera
forderoren
samanon
bringo
willu
##orias
defendere
deform
dorne
dorso
dorret
giuehet
wankon
fersm
fersihte
fersage
fersihtig
maiorum
audito
trink
trinitatem
trinkenti
delin
famul
assentior
sexus
sexages
bezta
bezira
follech
simones
motationem
ringo
ringis
ringint
ulc
ulli
induot
induit
indatun
indissolub
haftun
circumc
circumduc
circumscrip
##code
mihilun
gescendet
guollicho
mercen
merces
infirmum
infirmos
infirmitatis
bihaben
biheld
biholen
pedissequ
videatur
videbis
##aronti
haupit
tantas
tantos
dilectum
dilecti
##uuordun
##anganer
clamabo
hlaht
hlust
portic
porrig
porticus
tunch
tunchen
tunichun
tunicha
unuuan
unuuiz
unuuizent
unuuendig
manifesti
donat
lact
lacer
snide
snelle
wisen
wuntun
behui
kuningo
suiđo
sulicaro
consequentibus
consequenter
baleh
detin
kedun
pulsum
pulsus
smalen
smahi
tvas
##ezzan
##qvo
uuitin
ferlorni
resurrexit
cogitant
cogitationum
gedingun
astro
astanden
bimidan
hebigen
hebiger
guatan
crura
gigar
torp
custodiui
herebergon
tabesc
chreften
iuni
iunoni
iunior
iuniores
fianto
credatur
humiliter
communi
communia
communio
communionem
ciuibus
ciuium
ciuitates
diligere
##chonte
antfrist
biddian
biddien
bidraht
bedero
montana
patiens
patientes
scones
zuiueli
tougenero
luzziu
steinina
cotchundiu
gommanne
gomaheit
gomorre
missas
pikon
uuihtes
suart
almahtigim
custodierunt
afodit
blies
canamus
##warf
niheiner
niheinaz
spracon
congregationi
##hafton
philosophis
philosophica
cæli
hugie
uoruuer
uiciss
thionot
uuonen
uuonon
unaqueque
heimort
uuartest
simblig
egyptum
respondentes
respondetur
landskepi
landscepi
mereuu
mereatur
mereamur
ouium
weset
divis
giscribes
folletan
sacerdote
sacerdotis
cognoscant
cognoscunt
cognosceret
august
augustum
certus
ezan
ezent
ezenti
zimbr
conuenerunt
ducta
uuerchot
ampl
uuegean
figboume
fallit
hungr
hungir
kumane
nak
naason
herostun
odag
odagan
odhuuila
oduuelon
##ressa
##ressione
mezhaftiu
mezsse
nova
novvm
novissimus
tribulationem
tribulantes
distin
kak
kaiph
pruina
suffoc
geuangen
geuestenot
##uotigo
promit
leibu
infinite
infinitis
drittin
sanguinibus
dunchit
taug
take
eradic
iuuueru
biginnes
driƀun
wibes
##endendo
uureðun
gecheret
gechies
niuuan
niuues
niuuiu
niuuuen
irkna
zeigost
probauit
probasti
profess
profvn
profunda
profundo
sunderig
fremed
fremide
fremeden
simplices
simplicibus
temptationis
falli
fallo
suuige
unmare
unmuoz
neheizent
scafon
abscidit
exempl
exempli
invenimus
inveniat
achust
achadem
achelo
garne
garota
gardun
iuraverit
scameen
irrota
irrinnet
exaltatum
exaltabo
slafit
slafente
uueroldst
uueroldrikea
calix
calido
caliope
qhuem
instruc
instuant
uuehselondo
collis
collum
viol
viper
sigidrohtin
ethere
ethna
meinti
meinida
condita
tradat
tradas
tradita
minnotos
opposito
aperti
aperta
aperiam
bilide
biliðiun
civitatibus
drouuun
gioug
puro
puritate
troio
chlagetost
uuercon
procre
tranche
veniunt
turbata
turbabuntur
conclusa
conclusione
conclusionem
gruon
gruone
gruoni
incipiat
deserti
considerare
consideratur
consideretur
considerabo
gimeino
opinatur
opinionis
ketanen
portis
rumana
schein
sprih
sprihu
herzan
einanderen
uirgini
confiteor
monasterium
tonitru
tacebant
heiner
premii
premiis
uersihte
numerorum
ciceronem
eliud
fatero
plebe
rationabiliter
##isgu
sceident
irblendet
spons
sponsam
sponsa
spondeus
luxu
iteuuizze
stip
stiur
zeichene
intrantes
giboraniu
andream
andredin
druht
druog
hanigas
iuuaran
luginon
##zetvr
tholoda
diuersitate
abscondisti
lusten
lussam
nidare
niderost
niderosten
nesciebam
cantet
cantare
dheod
gaganta
hazzest
kasah
kaseh
trosten
trostes
trostet
ziteo
standiu
seruatur
buoz
buocho
saturnum
saturabuntur
toufit
toufenti
##uuik
suasio
suasione
minerua
sezzo
sezzit
sezzenne
mirabile
mirabilium
folgenten
hactenus
neriendi
tyro
lukker
copia
haze
tanqvam
uuatar
heileghin
rapt
rapiat
rapidis
chorungo
irweliti
irwellu
acceptum
accepisti
acceptis
accepisset
accepistis
heiliger
vvurz
castitas
niewit
nieuuehte
temere
temetip
thorf
thorfti
adaman
vuard
vuarheit
singulare
singularis
kisazt
lampa
nazaret
penates
digitis
digitos
fermiden
kelihnisse
continu
continens
suspendatur
conuertantur
derelic
edent
ezzet
kanko
##rinan
querite
aristar
##icheiti
leidege
leidezet
leideger
gradum
gradag
constiterunt
constituerit
assignet
assignabit
assignabis
suscepisti
fahit
gheiste
rosse
tinemo
visus
##uuirdi
chiuuorahta
suertes
exercere
mihhiles
samenota
umbither
differentibus
disputatione
tenebro
datut
priuari
kefreht
kefestenot
giscouu
giscriƀan
antwurte
hornon
noxia
psallamus
lieberen
liebsam
cesar
cesuun
fuga
fugala
iagilicho
rogabat
surgat
surgere
surgite
surgentes
widarw
irliten
terrigene
giloƀean
doctrine
phariseos
auerte
eigenen
ginadig
lxvi
uuuoste
enuntiare
irgab
luzilo
luzilon
praeesse
praefatio
dadion
deprecatur
ediles
toller
tollent
zuuem
zuuiu
gelir
consulem
consultum
consulatum
skeinent
skeinest
xxxi
beniu
beniamin
##itonio
thritto
thrittun
erlun
meghines
unsereem
ferahu
preterita
antuuurtet
andrera
andremu
cadunt
galgen
ovir
ovium
raku
santost
ualentior
uigor
uigili
uiginti
silua
silentio
imperat
imperio
prosperum
prosperam
prosperitas
vuird
simplici
salva
ginuage
ungeuuitere
mulieribus
##uarti
uuiges
uuester
uuestert
##urrens
erestun
geguol
scinan
gihuem
gihuilic
adiutorio
frista
gorion
goringi
hrein
vivo
vivet
sturm
sturzen
sturzet
sturzton
extendens
disperdas
grammatici
cupido
praesentem
uierdo
finees
litera
ullam
zacheus
zachariae
##zugosto
##ahhon
##ahhis
seltsana
farloren
farlogn
grimman
retribuam
fulgor
multiplices
multiplicasti
evangelium
ecli
ecchero
eleaz
eleph
eleyson
iordanes
linodun
lihhamun
zorft
##iosam
niger
nigiean
gisiðun
gisiðie
peccatorem
repugnans
belge
belgi
fingere
kihuct
melo
uuisspra
chundit
scriƀan
einluze
suntiga
genamdon
ordinatione
urchundin
ungesceiden
euangelii
interpretatione
mihhilero
purgat
purgatione
##faltiu
anaguate
giku
uuirseren
biwurbi
paradiso
scalcon
scalcun
constituere
persecutiones
antuurtanti
fabul
fabulas
gilihh
lihamon
otdo
tecta
solio
aldar
aldre
geuuaren
meditabitur
fernumeste
kechor
quadrig
faruur
antkenda
superiorum
consolari
consolatione
fluminis
stuoles
frewidu
relatiuum
cedat
kalendas
kaleran
kundt
kundon
kundtun
nobilis
nobiscum
chiuski
suigendo
medicum
selidon
selidono
arbolgan
prestantius
ornata
harmquidi
gihugitun
respicere
sufficiat
sufficiens
sufficientem
auctores
biuur
cerneret
kiuuisso
lisit
uitare
uituli
uehem
##bilem
tuome
beðiun
bezzero
fertrost
fertriben
lebeton
gressibilis
gilouis
iuuerro
iuueriu
brahtost
uundres
dimittam
dimittite
svperemin
horean
horeuue
onoc
onera
uiderit
induon
indubit
##stozen
sibenen
debiles
arstantenti
iogelichero
iogelichemo
iogelichiu
modice
modico
temporalium
auferte
auferri
ignorantes
prudens
prudentes
prudenter
temperat
temperet
temperiem
dissimilia
dissimilibus
loufe
loufen
opheron
piscibus
weges
##vvu
irsuo
giuuarhte
beitent
beitota
gramon
gramono
consiliis
muasi
muasin
gehiezzen
kesciehet
confirmata
aspides
aspectu
aspidis
bigond
bigonta
officii
senior
pulchritudo
philippi
huoten
huoton
kuollichont
rectore
mediante
locusta
blinten
prescientie
keloubo
uoluptate
atumes
brodes
brođer
oriens
risu
tuuinget
inopia
socios
churze
deducatur
reiza
reizis
kepotan
sollicitudinem
gehugo
geuualtigo
conturbas
conturbata
certos
riuon
riuonte
riuwa
eripuit
eripiat
aduent
ardens
fergat
fergota
festinent
irhugo
irhugent
destit
guoliche
guolik
garawaz
kleip
kleinen
pehuot
pastoris
palladis
rinan
rinkos
svmvs
tolunga
nequitiam
forahten
extermin
exteriores
arfull
vuelicha
vuelichen
helpun
tougene
firlihe
possessiue
gemeinen
gemeinsami
bisgoffe
narrare
narratione
eiscon
eiscont
eiscota
fimbri
lychan
missetuont
oderant
restat
##iheite
minnoe
minnoti
scaffot
pringan
gesahin
fratahun
hiuuiske
hiuuisges
geburten
redempti
mortalitate
blasit
longius
precipiti
precipue
gefrumid
gefrummien
discernere
aduersitas
kedinget
chunnez
figuras
requirens
dodan
liumunt
radiorum
viij
ypod
ypate
ypaton
ypothe
##lutti
diuturn
erudi
eruaren
aleuuar
nebul
scirmet
archisin
solemnitas
giburd
folgeti
conspicatur
conspiceret
muoson
euuinaz
legisper
synagogis
synagoge
gitruobta
thionoste
irslagenen
irslagenon
hangta
kiuuer
kikeban
uuielih
uncin
scouuot
ircham
irchic
irchamen
huorot
huorlus
getuonne
gifrummi
gifiangun
disciplinati
appellari
scripturis
ruofent
ruofta
agebant
ageƀen
crimen
ieho
kilt
kilauba
wenag
wenkit
uuelehe
sodoma
sodomis
suauiter
irride
irrihtet
adulescens
arslagan
arslahanne
ummahtig
gihielt
gimahalda
mendacium
sculdrom
maxima
maximo
indignationis
kehorsam
hofnu
conuersim
ebanscal
gasah
gascriban
iesum
iesvs
runsa
robo
errare
suadente
imbot
sceleris
conubium
essem
perpetuo
miraculum
gisamanon
gisamanote
contemptum
sustinent
huilican
huilicon
kesezzida
kesezzidu
inferior
uberuuant
seminatus
seminasti
egislichen
difficilis
auditores
conversi
conversationis
bizeinta
bizeinont
pagine
uuacher
geginuuar
existat
farlazzit
sanctificatio
sanctificetur
predigot
predigonti
geleide
giwuagi
pecunia
corporali
corporalia
corporalium
strazo
crvce
transeunt
transeuntes
transeunte
zachariases
existimari
cohort
guuinnen
grif
grifen
hapen
hapta
zilun
zilosit
sinnig
reperire
prospiciens
amicorum
parvulos
pecheren
pezzira
guallicho
conscia
conscrip
conscendere
prophetie
gloriose
micheliz
begriffen
equiuoca
gregorius
nituntur
nauis
uincit
ereen
ergangen
ersluog
nechidit
nechumet
manslahta
manslahte
heuent
diuiduntur
salomones
serviant
confusi
confusio
confusione
confusionem
lobesang
humanorum
fuozin
uiuificabis
ascendentes
cyllenii
maiestate
gelirnen
paradysum
paradysi
opheroton
obscuritas
arui
euenit
gieisc
halsa
zalton
##muotigot
inlud
##liihho
##liihhun
imagine
irrahta
ferslunden
frammortes
gisaznissi
farstanden
plantatio
geloƀ
infernus
clausum
bruodero
repleuit
insipientes
descriptione
eocouueliheru
ausus
draco
eicere
egeat
ionas
mobile
mobilis
nutri
pietungo
sulichan
sulichera
meliores
meliora
gesehest
integra
integande
giborane
guissen
huarod
gilauba
sanctarum
sanctitatis
urspringa
underskeiden
egrediens
languore
bisuih
fehtent
grauem
besuochenne
thesauriz
matutino
finstarnessi
synagogam
gruoben
sortis
uestenungo
uuingart
unkund
##assent
abulgi
abyssus
spatia
referri
referantur
iuditio
iuditiali
dictatura
omnipotentis
nohheinu
magnitudine
leuitate
durnoht
geuuorhta
uuizegtuom
turpitudo
inclinauit
inclinabitur
monstratur
carcere
speciosa
kehaltenen
argumentatio
argumentando
hereticorum
cottidi
requiesc
iocunditatis
aƀaron
bestiarum
feliciores
literam
literas
literarum
lestian
messa
neriando
oliboumo
weinota
indicat
##digoti
suachet
diuisione
forstodun
arcas
arcturus
terminis
heleandero
gilestien
auxili
hoorit
fleisge
dimittis
putasne
distributio
agnoscere
antkennian
vigiliis
bauhnunga
bauhnida
ungiloubon
baldlicho
doufe
doufta
gigiangi
kimahchot
pigihti
rahcha
rachono
scheid
vadis
zanelos
inhabitare
nepos
chihor
supero
suhtiun
niomannes
scermare
stultus
stultit
unsaremo
ferstozen
periculi
leididh
gesamenot
genesent
biwerbe
biwerien
consentiat
consentiens
gihogeti
itmali
infidelis
moderatio
celebrem
ingrediatur
geskihten
egyptios
elilente
lampas
lampadas
murmurabant
clarificatus
intellexi
egenum
gadan
ianu
iosebes
kunfti
kenadig
linee
uehe
zuuelif
eteuuer
choroen
adducite
##richius
arnont
feruentes
denominatiua
tremor
uelocitas
brinnandi
confitendo
incarnatione
incarnationis
incredulus
respondeant
meminere
bruaderscaf
octava
feordin
sorgendo
suscitans
chreftigen
uictoria
susceptibilis
negotiale
deliberatiuo
observatione
pellic
ritendo
riafun
ualeant
uestimenta
##formis
sicco
ancilla
erstanten
chetenna
suanit
suanari
exaltavit
pergunt
kebetes
farledid
huilik
doðes
dođes
uirginum
possidebunt
gemacho
uocabulo
hoƀde
irstantnissi
saeculo
lacteo
cælestis
hospites
ratiocinari
chiscribe
irrafst
irrafsta
fugiens
gentiles
ligenden
qhuued
qhuuidit
swie
uentre
uentris
uentura
##lorane
sinuuelbe
sinuuelbi
geouge
meintat
zebedeoen
adueniat
spectat
iubilare
iubilate
progenie
prouocauerunt
percipite
levavi
pharaonis
pharaonem
ungemaze
cubili
increb
increatus
recordati
concedatur
ginuhtin
ginuagen
riuuuon
hebbead
arbitrari
gruozta
cnuati
cnuege
feselig
guldin
guldine
gecos
koſuin
kichundit
sneuue
seraphim
vacat
zagel
zagele
##lobum
unwizzin
mankunni
mankunnie
irdeilit
admonet
exultauit
exultavit
perturbat
fiarzug
gesundeda
fardol
anauuertes
ammat
christinheit
positiones
plinte
seragemo
giladote
preuenerunt
uirtuti
fluuius
trugelicho
gifuari
ginadoti
bechnaton
thrinissi
gestozen
inmaculatum
cotchund
cotchundi
biscirmen
fraude
instrumenta
ubermuoten
crucifigatur
thalamis
blasphemia
banon
eogih
flihet
hammon
pingu
pingitur
pessimis
pugnare
##fuoren
unerrah
unueruuehselot
unmezze
erbarm
gezier
meditatus
contigit
conteret
irstirbet
adtrib
derelinquet
uuangton
unsundigi
frithof
ambitionem
giboot
misereatur
respiciunt
respiciens
gelegenen
inflamm
globum
euuuih
concludere
pascue
miltita
insignis
tradiderunt
distinctio
foedus
cognovisset
cognovissent
fettachen
fettacho
insipientibus
mysteria
cleop
cellar
cancri
cultor
euuarto
eiecerunt
gireda
korbi
keleide
pocula
puncti
punctum
rafs
uellem
uinea
ziehe
ziehent
zurnen
ædificationes
unnuzze
chilau
stabilitas
stabilitatem
spirat
reprom
sequebantur
keiiht
theolico
bikn
bikera
inthaben
ortfrum
paruulos
paruulus
sustulit
sustulistis
seruitutis
flanzotost
confidunt
optimum
sluagun
cuatch
excessu
inpuniti
hiltibraht
divinae
neheinez
reliquias
auertisti
grebiron
bisgoffa
responsuriis
babyloniu
pertransibunt
apodicticam
athanasie
bileib
cripp
cocull
ceraun
huhe
kalim
kifolget
natrono
pictus
rugh
tangit
ydra
zouuer
didicit
erspeh
sohh
conexione
stucche
hereses
heriscepi
arheuit
archennit
prenoscit
iouuederer
peplo
peplum
gihuuem
potentissimum
durnohti
skied
thiotono
interioris
urlages
munistres
chriuzeg
apponit
uunsamost
intfanganemo
profunditate
pretorium
supplicium
dereliquit
exercitatione
fatigatus
brutloufte
vindicta
histor
iomanne
iomannes
kidult
riep
taufi
##scipi
inuidia
uuederen
uuopu
sillogis
quocirca
quinquages
##uuegos
alumne
tueliƀio
religionis
permittit
kezeihh
kezeigot
genitiuo
genitiuum
gibiutu
organun
salmsanges
plasm
plateis
keskehe
urcundon
gifiarta
primogenita
sepelire
euangeliste
transferre
gedrungen
multiplici
kerihtit
hlauff
detrahunt
metemunga
ministrabat
gubernacula
hierusolimis
auuekke
knotesta
svsc
savle
uentil
##rvp
errehet
eregrehtin
niemir
heidenon
zehanzo
stagnum
uuannant
seuientis
arƀedi
ubertate
gisuaso
illustris
obenahtigemo
faruuarhton
farsaku
farsakis
commoda
tohteron
firlaze
duruch
duruftig
flectit
interrogo
redemit
redemisti
commodum
gefestenota
lieuikin
exceptis
disceptatio
transform
remedia
codices
diemuoten
diluuium
baptiste
uorlazzit
pretereunt
somnol
perseveraverit
ferliesent
ferliesest
catholicam
scariothis
bunikin
febru
idithvn
kanada
kagenuuerti
##stritigi
undique
deduxisti
habundantia
structure
splendida
deriuatum
kelimf
gescehe
giscuoh
uerlorn
uerlazen
obliv
obanentig
ornamenta
christenheit
kesundeda
infortunio
##thuſon
unzuiuelig
haurire
giflizan
negemag
langseimo
concordes
huuilom
gloriosum
uuinistrun
signiferi
gesterchet
breuem
remittetur
inphangere
inphangare
matheus
sliðmod
aristotelis
pegagenet
patriarchas
ahsela
meldare
analitica
analiticis
uuingardon
vvuntarotun
chiliihnissu
bezeichennissida
aestatis
gigeit
hrosse
hengendo
paleas
tuueli
uiscera
thagodun
inducas
inbran
uuohsun
quathun
unirdro
unrauua
undodig
sinagoga
chilechon
scuha
forcouf
giungaron
archadie
perluc
prandii
kebiet
gistillen
andersuuar
facundia
geniuuuot
furuuerde
liublicho
subauditur
simphonie
plagis
giuuonu
gelegeten
horreum
gifastnod
neuuanest
frouwen
agaleizo
uenustate
repleta
gnadone
geduuing
saepius
retrogradas
menscaðo
kemanot
judaeorum
mutabilitas
anasidele
hospitibus
iuridiciale
frawalicho
ivstitiam
kascirm
irdriezzen
gramatiche
pulchritudinis
praesumpserit
gelougenet
quaternario
heƀanuuanga
miskelungo
frenkisgon
inconuenientia
chilaubanne
lodhuuicus
athlanti
boues
cingulum
galaad
ghelstar
kizelit
kirieleison
raziko
zwiv
inquiet
nechede
chiheizss
niawiht
diuitiarum
additum
sportas
prouisa
peruigil
perdurat
quelidin
keunfre
leidig
trincan
uerecundiam
intsezzet
gibilidot
organa
##scatto
firihon
kesprache
moriemini
compeditos
frummean
inprudentia
woroltthiot
bifolhen
constringit
velociter
stercora
giuehenti
kenamot
judicii
ieremie
cæsaris
unfarholan
achustim
taciturn
unchilau
thiustrie
rotunditatem
uehuſa
campania
pollux
palladium
atheniensis
cathegorie
symbolum
festiuis
hiltibrant
octobris
drutthegana
aftir
edictum
fvndam
jugund
kesteo
mvndo
oceano
peginno
pussillis
zeteil
ſamnanga
inebri
uuuosti
uncitin
##uuerek
alphab
chomint
desideravi
quehhes
keqhuuetan
theismen
vnvsqvis
uerliesenne
biiah
folchete
paraly
salathiel
missodati
fluuios
concitauerunt
qvosdam
euacu
ostentat
liohtfazzon
paenitentiam
remuner
handmegin
smaragdus
baptizetvr
siðuuorige
aristotilem
aristarchus
iagilicher
prepostero
zorobabel
diapsalma
sceleratorum
scismati
ferlougendon
pentecosten
elihor
feteron
foueam
hvivs
iosebe
iosaphath
kruces
mengith
uaretharpa
wertisal
ſmithe
##ambanomen
unerdro
antiocho
sinaliph
sinapis
hetigrim
diezeugmenon
prodesse
proslambanomen
teudisca
desponsata
utrimque
sambuztag
frankono
gisitoti
obtemper
bonifac
attulit
kesuahhit
gelubedo
phisiolog
gabrihel
ambrosianum
compedibus
adiectiua
achelous
rakude
svpereminentem
guolikheide
vnvsqvisqve
16
29
30
37
31
33
35
32
34
36
52
54
77
ae
aec
ahtin
agi
azze
aura
azzen
aule
azzin
bus
buu
bag
buot
bog
bate
buc
bach
bizz
biti
bliu
batis
bino
bagen
binem
bitis
baten
bitun
bodun
botes
bize
buntun
boden
bome
borgen
cunt
cere
cou
cibus
creht
clu
cane
cris
centa
citum
cinc
cani
cahe
cnos
cenam
cnosles
cutti
cunnu
dou
dota
dono
dunc
dvm
detur
dagen
dores
dale
dentur
dath
dabunt
deste
ditem
dornen
eſ
eat
eur
ech
epp
ezen
eua
ehta
eue
eido
equit
epi
eice
epf
ehal
euri
eſt
edita
eimber
eunu
eitere
fero
fist
fuh
fess
fuc
fata
fisk
fane
fando
fici
fundi
fagan
felt
fomes
fodit
folia
gw
gur
gou
glih
gana
gida
gentis
grip
gande
gano
gagin
gurt
garet
ghib
gaman
gornon
gazun
grehti
galesan
hæ
hit
hes
hro
hib
hne
hig
hest
hitat
hud
hizz
hinn
heng
heton
hinen
hunde
hetis
hahet
hriu
hurn
hvnc
hizzo
ias
ise
idun
iahe
iahen
ioram
jh
jah
jac
kon
kol
kig
kic
kri
kare
kalt
keta
kemp
krum
keri
krip
koron
kala
kiun
kano
kiet
kilih
kerat
kik
keteilet
koroti
luh
luo
lota
lata
lobis
lith
losit
leris
loso
lige
lavit
lusto
linon
listen
lavi
lotis
lass
littere
lestun
mv
mie
mig
miz
mvs
mog
muc
matus
mura
mendit
mnam
mestis
mese
mester
mendun
mendis
moment
nus
nine
ness
natione
noll
naui
nurus
natu
nauf
nases
nennen
nisseda
north
ota
ose
oost
oles
otio
ozi
odiui
pab
pib
pie
puo
pare
pung
panc
pono
pinn
puen
plig
poris
pue
pante
pales
pelle
piis
pendet
piret
pihe
paldet
rus
rag
rant
ruh
rang
rine
rop
rotun
roti
rade
riten
ratin
runnen
rada
rame
rahtost
sæ
sane
sator
sani
sesc
sazz
svi
schi
sæc
sliz
sessio
toc
tina
tog
tach
tuuer
tiv
tinc
titus
tectum
talde
tidon
tungon
tellien
uib
uant
ute
uect
ueli
uici
ulaz
uade
urost
uvr
uoz
uedi
uaga
uader
uitio
uites
uart
uoth
uentus
uotum
uindest
vat
vuu
vag
vili
vali
vater
veh
vana
varn
vall
vitis
vfen
vitium
vzzer
wa
wag
wah
wia
wuo
wang
wile
wanti
wanc
werit
wani
wige
wunder
wegen
walde
wentit
wunnon
wiges
wahi
wangta
waldes
wuocher
xli
xenium
yso
zir
zali
zona
zimit
zarta
zuuo
zuuir
zanen
zigiang
zisce
zalon
zalu
zaligen
zunton
°p
°s
°in
°qui
ſo
ſia
ſex
##lat
##lta
##land
##log
##lita
##lvm
##liter
##last
##lago
##lusti
##legen
##uang
##uort
##uze
##uhten
##uitatis
##uichen
##ueme
##uisses
##uohs
##ct
##cal
##cil
##cig
##coc
##cter
##ctus
##cara
##cimus
##craft
##cvl
##iin
##iar
##idic
##iarum
##ioso
##iani
##iungan
##ner
##niu
##nah
##nibus
##nvs
##nici
##note
##nodun
##nidet
##nisses
##aestim
##aƀun
##rer
##rund
##rene
##rvs
##rine
##rota
##rone
##ratione
##rantur
##rino
##remu
##rentur
##rigen
##rotun
##rides
##rasti
##raret
##rantem
##ridis
##ees
##eht
##eantur
##elicho
##eize
##bl
##bti
##bib
##bed
##ble
##bite
##band
##brah
##beris
##baris
##burti
##balis
##basti
##bwes
##brecan
##pt
##pum
##pote
##plum
##pria
##ptiuum
##gti
##gim
##gta
##gere
##gens
##gost
##gibus
##geta
##gii
##gien
##gtun
##glicho
##gida
##gris
##geth
##grim
##gange
##godes
##giad
##gulti
##greditur
##gressa
##dero
##doh
##dant
##dinem
##distis
##sun
##sest
##sanne
##serunt
##sizz
##side
##sue
##stic
##sidu
##sachon
##sihtig
##scheit
##sedale
##quu
##temo
##tre
##tru
##tatis
##tahtig
##tunga
##toll
##tingtharpa
##htig
##halt
##heru
##heres
##hord
##hart
##htigi
##kal
##kind
##kangi
##korodo
##kapa
##oes
##oot
##off
##oge
##ozen
##oza
##ogean
##ziu
##zont
##zehent
##zendun
##zelun
##mer
##mot
##mih
##mia
##menti
##mund
##mene
##matis
##mentum
##minis
##muat
##vem
##vus
##vas
##vra
##vton
##vuar
##ſe
##ſti
##ſth
##ſcon
##fir
##ful
##fang
##fanne
##faro
##fald
##ftiu
##fenten
##ftic
##fahen
##fangan
##fahit
##farun
##fleg
##fuoret
##fulli
##xo
##xeris
##xistis
##xerant
##xerint
##ðin
##ðiu
##ðas
##ðos
##ƀin
##ƀie
##ƀia
##ƀig
##ƀedi
##ƀode
##wu
##wor
##went
##wisti
##woti
##ær
##ætan
##yc
##yop
##đi
##jon
##erati
##eritur
##erien
##erimus
##ertia
##errid
##eni
##enso
##enob
##enkent
##anf
##anun
##anst
##anos
##anete
##anza
##anlico
##anzi
##ankes
##inæ
##indi
##inati
##inoc
##inarum
##inamen
##onan
##onun
##onalt
##onnes
##onsta
##itar
##itent
##itant
##itantur
##itantis
##itelun
thuu
thas
thre
thaht
thoro
thorn
thago
thahti
thalia
thruc
thageta
thak
##esl
##esiht
##isan
##isara
##ismum
inhe
infic
initi
incul
inni
insl
invit
inchon
inchan
inquis
inher
ineben
inunu
inertes
##arro
##aric
##arft
##arana
##ardon
##archot
##aribvs
##argu
uuati
uuunt
uuic
uura
uuide
uuris
uuitu
uuaten
uuahta
uurog
uuunda
uuahtun
uualte
uuinnan
uurac
uuunno
uuafen
uuaffan
uuumbo
uuidir
##ties
##tiis
##tile
##tilo
##tiua
##tilia
##umo
##uman
##umfti
##uminum
##umbere
##unes
##unsc
##unka
##unchot
##unsti
##emon
##emet
##emnon
##emmit
##orne
##ordes
##orret
##usit
##usus
##ussa
##usprah
##atit
##atero
##atemo
##athe
##attos
##stis
##stat
##stam
siv
sili
sida
sidu
siget
sigin
sizi
siðe
siones
siole
sijon
##azza
##deda
##dela
##deorvm
##lib
##liad
##ligo
##limi
##liesen
##lizzan
##liutes
quero
quere
quisti
querit
quetan
qualium
quart
quoue
quirn
##ama
##amer
##amare
##aminis
##ampf
did
dier
direg
dikk
diiudic
unis
uneh
unuuer
unca
unber
unica
unicus
unbir
unedele
unanim
unligen
undenan
nant
##urri
##urto
##urgo
##urno
##otro
##otele
##eln
##elum
##eleb
##eltit
##ellig
##eldan
##elosa
etate
etatis
etrus
ethan
##chal
##chunt
##chare
##chali
##chente
##cheru
##choton
##chinen
##chidu
##chonten
##chelin
anum
ancip
anbit
anathem
erk
erv
erse
erith
erep
erato
erimus
erinen
erhab
eruet
erho
eruisti
ergeben
erstig
erirun
erliden
erđo
erzuc
erliut
erugo
##diat
##diam
##didisti
##alam
##alot
##aluit
##albon
##irg
##irus
##irih
##irare
##iridi
##irnit
##iridon
##htos
##iling
##iltun
##iltin
##ilhu
##entet
##entaz
##entos
##entheit
##entuom
souuar
soliu
sohta
solium
sougta
sobal
##uuat
##uuil
##uuort
##uuari
##uuuer
##uuide
##uuini
##uuuon
##uull
##uuala
##uuaga
##uuehsel
##uuinge
##uuise
##uuisa
##uuurtet
##uuallot
##uuendigi
sinkit
sinnon
##rocinia
alu
alg
alf
alder
allich
alate
aluc
altus
alahe
##erod
##eroti
##idene
##iditas
##idhit
##iute
##iugon
neli
nezze
nefer
nedum
neuol
nehen
neotan
neƀu
##omun
cha
chem
chol
chig
chiz
chri
chau
chost
chap
chisti
cheri
chara
chris
chale
chose
chni
chisi
chure
chinne
chela
chuste
chalde
chord
chelun
chuad
chuss
chuoli
##agtun
##agale
##imu
##imento
##oson
##osot
##osotun
##osherro
##abete
##iha
##ihun
##ihid
##ihunt
##ihtiu
##ied
##ieze
##ohun
##ohafti
##ohtigi
##ohafte
##ulu
##ulat
##ulge
##ulitas
##uldet
##ulsus
##ulerant
##ulhun
##olit
##olono
##oltan
##olgent
##olutum
##oltist
##antaz
##antvv
##antheiti
##anthoh
ihuse
##ectilis
##ecismum
##qualu
siecher
##uth
##utvs
##utha
dech
deder
deuo
deile
deota
dedun
deitas
deui
deitate
deitatem
depro
deuen
deici
deerant
deuueder
devo
dederat
deomuati
##atiuus
##untque
##istom
##istere
##istern
suƀ
suæ
suid
suah
sualt
suap
suenne
sueri
suino
sueret
suahti
suerd
sugent
suliches
sulichemo
manv
manic
mancip
manium
manete
manip
manodo
mantic
manungu
manibvs
manment
##ahtim
enc
enun
enne
endo
enden
ento
enph
enuuordi
##reuua
##rexerunt
##rederetur
estum
estas
##odis
##odas
##odra
##neen
##nean
##nebant
tues
tuoh
tuant
tuest
tuili
tube
tuomen
tuendo
tualta
tueres
tugent
tuinget
gek
geur
geuo
gegen
geue
gezeichen
gelico
geƀon
geƀe
geƀun
geſt
geiegen
geƀanne
geaneru
meæ
meda
meare
mearum
metil
meind
medici
meinon
mezzo
niuuer
niko
nigun
nieton
niuua
niemen
niuueht
nixa
ima
imitetur
minem
minui
minuta
minuat
##igane
hed
heht
heft
heuen
heisa
heidan
heffe
heftet
hezil
hetid
heideo
##icitur
##icvm
##iculi
mitdon
mitallo
nonae
##egomo
##egheit
##egarnessi
##egruoba
sca
scut
scund
scate
scamen
scelle
scric
scutum
scangta
scissum
scauun
conm
conse
conatur
concip
conquis
conpl
conpet
##edunga
##adin
##aduer
##adane
##admod
irt
irati
irden
irrum
irdes
irmin
irsu
irgiangi
irquamun
irrecchet
##izi
##estin
##estat
##estal
##estunt
##estino
##estris
zeoh
zeinit
zebra
zeeniu
##taht
##teile
diui
diua
diuƀ
diubil
diuisa
dief
##ereat
##erebatur
##ereuuid
##rau
##rast
##rahtun
duost
duce
ducis
habu
habem
habiti
habitas
habendi
habilis
haberent
haberes
habuerit
habuisse
habebatur
habelosen
habitavit
uuaru
uuarent
uuarero
uuarag
uuarim
uuardo
uuarto
uuarten
uuareren
uuarode
uuarhafti
uuarheide
##lea
##lehe
##leiti
##uhe
##uhnit
##uhhes
abo
abac
abdic
abans
abire
abunda
abgot
abiron
abstra
abuuertig
abiud
abducit
abanst
##entiore
##entivm
##entione
##entiores
irougta
##ruof
sell
selun
selent
seluo
selono
selua
selmon
##ilig
##ilicumu
##acti
##acibus
##acitate
##acula
stes
stunc
standa
stull
stelli
streit
stulte
stamne
stegon
adro
adesse
aditum
adsit
adinu
adqua
addita
admix
##ingende
##ingentemo
##beki
##bebat
##seh
uueron
uuerht
uuerda
uuerig
uuerbe
uuerendo
uuerade
uuerchun
uuerelt
uuertigen
uuerkun
uueruldi
##uga
##ugt
##ugist
##ugest
##ugna
##uginem
##omine
goth
gotspel
gotspell
gotliihhun
fori
forhte
forsl
foruuir
foruuard
spl
spare
speh
spine
speru
spilo
spinde
spahe
spelle
spilon
spenton
spinas
spentot
spolia
derro
derien
##deribus
reum
reos
rehtin
redig
reba
repon
reko
reof
reuere
reison
reiton
reinot
rebvs
redeat
redea
reueh
redirent
herd
heren
heron
herem
herda
hermon
heresten
herrun
herdom
herbam
herorin
herduom
heririn
heribr
hercin
heruben
herstuole
##uochen
##uogin
##uofi
uuand
uuando
uuanhe
uuandel
uuancta
thopicis
iuðe
einb
einigo
einiger
einlihhan
einliftun
einego
gii
gier
giet
giod
giengi
gipre
giilta
giamar
giagale
giantvv
##oci
##occhot
tharbent
tharuze
prodi
prodit
prosit
exop
exten
exitum
extas
exutus
exibit
exaestim
unsir
unsag
unsares
unsuoti
unsaldon
unsirin
unschul
allera
allemu
allubesc
##quebantur
seer
seon
sees
seuis
seito
seitun
sekil
sebasti
##lichora
##lichosta
##lichosten
##ftu
esrom
esilin
nud
nuot
nudum
nupe
thesas
tep
tek
teican
teofun
tebrecan
mihiliu
uuirđ
uuirdis
uuirkit
uuirser
uuirkid
uuirdist
uuirdigo
uuirkead
##perat
##perrit
ziaro
ziuuare
ziuuorpf
ziidh
selbi
selbis
dica
dicti
dicatis
dictionibus
dicebas
##heu
##heli
##heban
##heize
##ango
##anget
##angent
##angere
arr
aran
aram
arri
argo
arles
arton
ardon
arida
aruuor
archit
archan
arnon
arnot
arƀid
aruuel
arhaban
articul
desp
desero
desidero
despec
desertis
desinat
desamu
daron
daret
darno
darben
darbent
darnungo
daragagene
##oua
##oucta
##ensti
sihis
sihuuelih
##aua
##auft
##aufte
##auerim
beli
beate
ferd
ferv
ferto
ferita
fertur
ferran
ferleit
ferhtlico
omen
ominus
utan
utens
utatur
utitur
utrorum
utpote
ubari
ubera
peru
pert
perv
peren
perit
perst
perim
perdes
persi
peritus
perinde
percu
perierunt
perenni
perdas
perhorr
pria
prenn
prisc
pretur
protin
prungan
prandon
prunno
ilu
ilo
ilon
ilenti
illig
quies
quietis
quiðis
ismah
dinas
dominam
dominicis
##uotrit
##ichu
##icht
##ichis
##ichem
##tigin
##tigon
##tigiu
##undag
##undens
##undemes
tercium
queo
queðen
##cifix
thied
thiede
##oben
##oburg
##ungin
##ungena
##ahtes
thiuba
##ffo
##ffenten
##zzit
##zziu
##zzeren
##tert
##teron
##teretur
##gea
##geba
##geƀon
##lihch
##lihchiu
[...]
